{
  "version": "1.0",
  "truncation": null,
  "padding": null,
  "added_tokens": [
    {
      "id": 0,
      "content": "[UNK]",
      "single_word": false,
      "lstrip": false,
      "rstrip": false,
      "normalized": false,
      "special": true
    },
    {
      "id": 1,
      "content": "[PAD]",
      "single_word": false,
      "lstrip": false,
      "rstrip": false,
      "normalized": false,
      "special": true
    },
    {
      "id": 2,
      "content": "[SOS]",
      "single_word": false,
      "lstrip": false,
      "rstrip": false,
      "normalized": false,
      "special": true
    },
    {
      "id": 3,
      "content": "[EOS]",
      "single_word": false,
      "lstrip": false,
      "rstrip": false,
      "normalized": false,
      "special": true
    }
  ],
  "normalizer": null,
  "pre_tokenizer": {
    "type": "Whitespace"
  },
  "post_processor": null,
  "decoder": null,
  "model": {
    "type": "BPE",
    "dropout": null,
    "unk_token": "[UNK]",
    "continuing_subword_prefix": null,
    "end_of_word_suffix": null,
    "fuse_unk": false,
    "byte_fallback": false,
    "vocab": {
      "[UNK]": 0,
      "[PAD]": 1,
      "[SOS]": 2,
      "[EOS]": 3,
      "\u001b": 4,
      "!": 5,
      "\"": 6,
      "#": 7,
      "$": 8,
      "%": 9,
      "&": 10,
      "'": 11,
      "(": 12,
      ")": 13,
      "*": 14,
      "+": 15,
      ",": 16,
      "-": 17,
      ".": 18,
      "/": 19,
      "0": 20,
      "1": 21,
      "2": 22,
      "3": 23,
      "4": 24,
      "5": 25,
      "6": 26,
      "7": 27,
      "8": 28,
      "9": 29,
      ":": 30,
      ";": 31,
      "<": 32,
      "=": 33,
      ">": 34,
      "?": 35,
      "@": 36,
      "A": 37,
      "B": 38,
      "C": 39,
      "D": 40,
      "E": 41,
      "F": 42,
      "G": 43,
      "H": 44,
      "I": 45,
      "J": 46,
      "K": 47,
      "L": 48,
      "M": 49,
      "N": 50,
      "O": 51,
      "P": 52,
      "Q": 53,
      "R": 54,
      "S": 55,
      "T": 56,
      "U": 57,
      "V": 58,
      "W": 59,
      "X": 60,
      "Y": 61,
      "Z": 62,
      "[": 63,
      "]": 64,
      "^": 65,
      "_": 66,
      "a": 67,
      "b": 68,
      "c": 69,
      "d": 70,
      "e": 71,
      "f": 72,
      "g": 73,
      "h": 74,
      "i": 75,
      "j": 76,
      "k": 77,
      "l": 78,
      "m": 79,
      "n": 80,
      "o": 81,
      "p": 82,
      "q": 83,
      "r": 84,
      "s": 85,
      "t": 86,
      "u": 87,
      "v": 88,
      "w": 89,
      "x": 90,
      "y": 91,
      "z": 92,
      "{": 93,
      "|": 94,
      "}": 95,
      "~": 96,
      "": 97,
      "£": 98,
      "§": 99,
      "²": 100,
      "·": 101,
      "½": 102,
      "¾": 103,
      "À": 104,
      "È": 105,
      "É": 106,
      "Ó": 107,
      "×": 108,
      "à": 109,
      "á": 110,
      "ã": 111,
      "å": 112,
      "ç": 113,
      "è": 114,
      "é": 115,
      "ê": 116,
      "í": 117,
      "ñ": 118,
      "ó": 119,
      "ô": 120,
      "õ": 121,
      "ö": 122,
      "ú": 123,
      "ü": 124,
      "ā": 125,
      "Č": 126,
      "ě": 127,
      "ō": 128,
      "ś": 129,
      "š": 130,
      "ū": 131,
      "ʼ": 132,
      "̀": 133,
      "ί": 134,
      "α": 135,
      "ζ": 136,
      "ι": 137,
      "ν": 138,
      "ο": 139,
      "π": 140,
      "σ": 141,
      "τ": 142,
      "В": 143,
      "С": 144,
      "а": 145,
      "б": 146,
      "г": 147,
      "е": 148,
      "и": 149,
      "й": 150,
      "к": 151,
      "л": 152,
      "о": 153,
      "р": 154,
      "т": 155,
      "у": 156,
      "х": 157,
      "ъ": 158,
      "א": 159,
      "ד": 160,
      "ו": 161,
      "ח": 162,
      "ל": 163,
      "ן": 164,
      "ס": 165,
      "ר": 166,
      "จ": 167,
      "พ": 168,
      "ส": 169,
      "อ": 170,
      "า": 171,
      "ื": 172,
      "เ": 173,
      "่": 174,
      "้": 175,
      "་": 176,
      "ཀ": 177,
      "ཁ": 178,
      "ག": 179,
      "ང": 180,
      "ད": 181,
      "ན": 182,
      "པ": 183,
      "བ": 184,
      "ཞ": 185,
      "འ": 186,
      "ཡ": 187,
      "ར": 188,
      "ལ": 189,
      "ཤ": 190,
      "ས": 191,
      "ི": 192,
      "ུ": 193,
      "ེ": 194,
      "ོ": 195,
      "ྡ": 196,
      "ྩ": 197,
      "ྲ": 198,
      "ṇ": 199,
      "ṭ": 200,
      "ẹ": 201,
      "ọ": 202,
      "ἰ": 203,
      "ἴ": 204,
      "​": 205,
      "‎": 206,
      "–": 207,
      "—": 208,
      "―": 209,
      "‘": 210,
      "’": 211,
      "“": 212,
      "”": 213,
      "†": 214,
      "‡": 215,
      "•": 216,
      "…": 217,
      "‧": 218,
      "™": 219,
      "→": 220,
      "−": 221,
      "≤": 222,
      "⋯": 223,
      "⑨": 224,
      "─": 225,
      "○": 226,
      "☆": 227,
      "♪": 228,
      "♫": 229,
      "⠀": 230,
      "⠷": 231,
      "⠻": 232,
      "⻣": 233,
      "、": 234,
      "。": 235,
      "々": 236,
      "〇": 237,
      "〈": 238,
      "〉": 239,
      "《": 240,
      "》": 241,
      "「": 242,
      "」": 243,
      "『": 244,
      "』": 245,
      "【": 246,
      "】": 247,
      "〔": 248,
      "〕": 249,
      "〜": 250,
      "あ": 251,
      "い": 252,
      "う": 253,
      "え": 254,
      "お": 255,
      "か": 256,
      "が": 257,
      "き": 258,
      "く": 259,
      "ぐ": 260,
      "け": 261,
      "げ": 262,
      "こ": 263,
      "ご": 264,
      "さ": 265,
      "ざ": 266,
      "し": 267,
      "じ": 268,
      "す": 269,
      "ず": 270,
      "せ": 271,
      "そ": 272,
      "た": 273,
      "だ": 274,
      "ち": 275,
      "っ": 276,
      "つ": 277,
      "て": 278,
      "で": 279,
      "と": 280,
      "な": 281,
      "に": 282,
      "ね": 283,
      "の": 284,
      "は": 285,
      "ぱ": 286,
      "ひ": 287,
      "ふ": 288,
      "ぶ": 289,
      "べ": 290,
      "ほ": 291,
      "ま": 292,
      "み": 293,
      "め": 294,
      "も": 295,
      "ゃ": 296,
      "や": 297,
      "よ": 298,
      "ら": 299,
      "り": 300,
      "る": 301,
      "れ": 302,
      "ろ": 303,
      "わ": 304,
      "を": 305,
      "ん": 306,
      "ア": 307,
      "ィ": 308,
      "イ": 309,
      "ウ": 310,
      "エ": 311,
      "オ": 312,
      "カ": 313,
      "キ": 314,
      "グ": 315,
      "ケ": 316,
      "コ": 317,
      "サ": 318,
      "シ": 319,
      "ジ": 320,
      "ス": 321,
      "セ": 322,
      "タ": 323,
      "ダ": 324,
      "チ": 325,
      "ッ": 326,
      "テ": 327,
      "デ": 328,
      "ト": 329,
      "ド": 330,
      "ナ": 331,
      "ノ": 332,
      "ヒ": 333,
      "ビ": 334,
      "ピ": 335,
      "ブ": 336,
      "プ": 337,
      "ベ": 338,
      "ポ": 339,
      "ミ": 340,
      "ム": 341,
      "メ": 342,
      "モ": 343,
      "ャ": 344,
      "ョ": 345,
      "ラ": 346,
      "リ": 347,
      "ル": 348,
      "レ": 349,
      "ロ": 350,
      "ン": 351,
      "・": 352,
      "ー": 353,
      "ㄉ": 354,
      "ㄤ": 355,
      "ㄧ": 356,
      "ㄨ": 357,
      "ㅡ": 358,
      "㒓": 359,
      "㓟": 360,
      "㓢": 361,
      "㓤": 362,
      "㔆": 363,
      "㔶": 364,
      "㔹": 365,
      "㕭": 366,
      "㖭": 367,
      "㖿": 368,
      "㗇": 369,
      "㗎": 370,
      "㗱": 371,
      "㗲": 372,
      "㗳": 373,
      "㗾": 374,
      "㘉": 375,
      "㜺": 376,
      "㤢": 377,
      "㤿": 378,
      "㥋": 379,
      "㥜": 380,
      "㦒": 381,
      "㧬": 382,
      "㧻": 383,
      "㧾": 384,
      "㨆": 385,
      "㨘": 386,
      "㨴": 387,
      "㩋": 388,
      "㩒": 389,
      "㩧": 390,
      "㫰": 391,
      "㫱": 392,
      "㬹": 393,
      "㷛": 394,
      "㷫": 395,
      "㷹": 396,
      "㹃": 397,
      "㼽": 398,
      "㾓": 399,
      "㿭": 400,
      "䀹": 401,
      "䁓": 402,
      "䁪": 403,
      "䁯": 404,
      "䁽": 405,
      "䂻": 406,
      "䄪": 407,
      "䅺": 408,
      "䆲": 409,
      "䉺": 410,
      "䊆": 411,
      "䍇": 412,
      "䎺": 413,
      "䏙": 414,
      "䏚": 415,
      "䏨": 416,
      "䏭": 417,
      "䒏": 418,
      "䒐": 419,
      "䖳": 420,
      "䘆": 421,
      "䚕": 422,
      "䚗": 423,
      "䟕": 424,
      "䟴": 425,
      "䠂": 426,
      "䠋": 427,
      "䧒": 428,
      "䪏": 429,
      "䪴": 430,
      "䭞": 431,
      "䭤": 432,
      "䯑": 433,
      "䯖": 434,
      "䰧": 435,
      "䱽": 436,
      "䶪": 437,
      "一": 438,
      "丁": 439,
      "七": 440,
      "万": 441,
      "丈": 442,
      "三": 443,
      "上": 444,
      "下": 445,
      "不": 446,
      "与": 447,
      "丑": 448,
      "专": 449,
      "且": 450,
      "丕": 451,
      "世": 452,
      "丘": 453,
      "丙": 454,
      "东": 455,
      "丝": 456,
      "丞": 457,
      "丟": 458,
      "両": 459,
      "两": 460,
      "严": 461,
      "並": 462,
      "个": 463,
      "丫": 464,
      "中": 465,
      "丰": 466,
      "串": 467,
      "临": 468,
      "丶": 469,
      "丸": 470,
      "丹": 471,
      "为": 472,
      "主": 473,
      "丼": 474,
      "丽": 475,
      "乃": 476,
      "久": 477,
      "么": 478,
      "义": 479,
      "之": 480,
      "乍": 481,
      "乎": 482,
      "乏": 483,
      "乐": 484,
      "乒": 485,
      "乓": 486,
      "乖": 487,
      "乘": 488,
      "乙": 489,
      "乜": 490,
      "九": 491,
      "乞": 492,
      "也": 493,
      "乩": 494,
      "乪": 495,
      "买": 496,
      "乱": 497,
      "乳": 498,
      "乸": 499,
      "乾": 500,
      "亁": 501,
      "亂": 502,
      "了": 503,
      "予": 504,
      "争": 505,
      "事": 506,
      "二": 507,
      "亍": 508,
      "于": 509,
      "云": 510,
      "互": 511,
      "五": 512,
      "井": 513,
      "亚": 514,
      "些": 515,
      "亞": 516,
      "亡": 517,
      "亢": 518,
      "交": 519,
      "亥": 520,
      "亦": 521,
      "产": 522,
      "亨": 523,
      "享": 524,
      "京": 525,
      "亭": 526,
      "亮": 527,
      "亳": 528,
      "人": 529,
      "亿": 530,
      "什": 531,
      "仁": 532,
      "仃": 533,
      "仄": 534,
      "仅": 535,
      "仆": 536,
      "仇": 537,
      "今": 538,
      "介": 539,
      "仍": 540,
      "从": 541,
      "仔": 542,
      "仕": 543,
      "他": 544,
      "仗": 545,
      "付": 546,
      "仙": 547,
      "仝": 548,
      "仟": 549,
      "代": 550,
      "令": 551,
      "以": 552,
      "们": 553,
      "仰": 554,
      "仲": 555,
      "件": 556,
      "价": 557,
      "任": 558,
      "份": 559,
      "仿": 560,
      "企": 561,
      "伉": 562,
      "伊": 563,
      "伍": 564,
      "伎": 565,
      "伏": 566,
      "伐": 567,
      "休": 568,
      "伕": 569,
      "众": 570,
      "伙": 571,
      "会": 572,
      "伝": 573,
      "传": 574,
      "伤": 575,
      "伯": 576,
      "估": 577,
      "伴": 578,
      "伶": 579,
      "伸": 580,
      "伺": 581,
      "似": 582,
      "伽": 583,
      "佃": 584,
      "但": 585,
      "佈": 586,
      "位": 587,
      "低": 588,
      "住": 589,
      "佐": 590,
      "佑": 591,
      "体": 592,
      "佔": 593,
      "何": 594,
      "佗": 595,
      "佘": 596,
      "余": 597,
      "佚": 598,
      "佛": 599,
      "作": 600,
      "佞": 601,
      "佟": 602,
      "你": 603,
      "佢": 604,
      "佣": 605,
      "佩": 606,
      "佬": 607,
      "佮": 608,
      "佯": 609,
      "佰": 610,
      "佳": 611,
      "併": 612,
      "佻": 613,
      "佼": 614,
      "使": 615,
      "侄": 616,
      "來": 617,
      "侈": 618,
      "例": 619,
      "侍": 620,
      "侏": 621,
      "侖": 622,
      "供": 623,
      "依": 624,
      "侮": 625,
      "侯": 626,
      "侲": 627,
      "侵": 628,
      "侶": 629,
      "便": 630,
      "係": 631,
      "促": 632,
      "俄": 633,
      "俊": 634,
      "俏": 635,
      "俐": 636,
      "俑": 637,
      "俗": 638,
      "俘": 639,
      "俚": 640,
      "保": 641,
      "俞": 642,
      "俟": 643,
      "俠": 644,
      "信": 645,
      "俬": 646,
      "修": 647,
      "俯": 648,
      "俱": 649,
      "俸": 650,
      "俹": 651,
      "俾": 652,
      "倆": 653,
      "倉": 654,
      "個": 655,
      "倌": 656,
      "倍": 657,
      "們": 658,
      "倒": 659,
      "倓": 660,
      "倔": 661,
      "倖": 662,
      "候": 663,
      "倚": 664,
      "倜": 665,
      "借": 666,
      "倡": 667,
      "倦": 668,
      "倩": 669,
      "倪": 670,
      "倫": 671,
      "倬": 672,
      "倭": 673,
      "值": 674,
      "假": 675,
      "偈": 676,
      "偉": 677,
      "偌": 678,
      "偎": 679,
      "偏": 680,
      "偕": 681,
      "做": 682,
      "停": 683,
      "健": 684,
      "偪": 685,
      "側": 686,
      "偵": 687,
      "偶": 688,
      "偷": 689,
      "偽": 690,
      "傀": 691,
      "傅": 692,
      "傍": 693,
      "傑": 694,
      "傖": 695,
      "傘": 696,
      "備": 697,
      "傢": 698,
      "催": 699,
      "傭": 700,
      "傲": 701,
      "傳": 702,
      "債": 703,
      "傷": 704,
      "傻": 705,
      "傾": 706,
      "僅": 707,
      "僆": 708,
      "僉": 709,
      "像": 710,
      "僑": 711,
      "僕": 712,
      "僚": 713,
      "僞": 714,
      "僥": 715,
      "僧": 716,
      "僭": 717,
      "僮": 718,
      "僱": 719,
      "僵": 720,
      "價": 721,
      "僻": 722,
      "儀": 723,
      "儃": 724,
      "億": 725,
      "儆": 726,
      "儈": 727,
      "儉": 728,
      "儍": 729,
      "儒": 730,
      "儕": 731,
      "儘": 732,
      "償": 733,
      "儡": 734,
      "優": 735,
      "儲": 736,
      "儷": 737,
      "儿": 738,
      "兀": 739,
      "允": 740,
      "元": 741,
      "兄": 742,
      "充": 743,
      "兆": 744,
      "兇": 745,
      "先": 746,
      "光": 747,
      "克": 748,
      "兌": 749,
      "免": 750,
      "兑": 751,
      "兒": 752,
      "兔": 753,
      "兜": 754,
      "兢": 755,
      "入": 756,
      "內": 757,
      "全": 758,
      "兩": 759,
      "八": 760,
      "公": 761,
      "六": 762,
      "兮": 763,
      "共": 764,
      "关": 765,
      "兵": 766,
      "其": 767,
      "具": 768,
      "典": 769,
      "兹": 770,
      "兼": 771,
      "冀": 772,
      "内": 773,
      "円": 774,
      "冇": 775,
      "冊": 776,
      "冋": 777,
      "再": 778,
      "冒": 779,
      "冕": 780,
      "冗": 781,
      "写": 782,
      "冚": 783,
      "冠": 784,
      "冤": 785,
      "冥": 786,
      "冧": 787,
      "冬": 788,
      "冰": 789,
      "冲": 790,
      "决": 791,
      "况": 792,
      "冶": 793,
      "冷": 794,
      "冼": 795,
      "准": 796,
      "凈": 797,
      "凋": 798,
      "凌": 799,
      "凍": 800,
      "凜": 801,
      "凝": 802,
      "凟": 803,
      "几": 804,
      "凡": 805,
      "凭": 806,
      "凰": 807,
      "凱": 808,
      "凳": 809,
      "凶": 810,
      "凸": 811,
      "凹": 812,
      "出": 813,
      "击": 814,
      "函": 815,
      "刀": 816,
      "刁": 817,
      "刃": 818,
      "分": 819,
      "切": 820,
      "刉": 821,
      "刊": 822,
      "刑": 823,
      "划": 824,
      "列": 825,
      "刚": 826,
      "创": 827,
      "初": 828,
      "判": 829,
      "別": 830,
      "刨": 831,
      "利": 832,
      "刪": 833,
      "别": 834,
      "刮": 835,
      "到": 836,
      "制": 837,
      "刷": 838,
      "券": 839,
      "刹": 840,
      "刺": 841,
      "刻": 842,
      "剁": 843,
      "剂": 844,
      "剃": 845,
      "剄": 846,
      "則": 847,
      "削": 848,
      "剋": 849,
      "剌": 850,
      "前": 851,
      "剎": 852,
      "剒": 853,
      "剔": 854,
      "剖": 855,
      "剗": 856,
      "剛": 857,
      "剝": 858,
      "剦": 859,
      "剩": 860,
      "剪": 861,
      "副": 862,
      "割": 863,
      "創": 864,
      "剷": 865,
      "剿": 866,
      "劃": 867,
      "劇": 868,
      "劈": 869,
      "劉": 870,
      "劍": 871,
      "劏": 872,
      "劑": 873,
      "劖": 874,
      "劘": 875,
      "力": 876,
      "办": 877,
      "功": 878,
      "加": 879,
      "劣": 880,
      "动": 881,
      "助": 882,
      "努": 883,
      "劫": 884,
      "劵": 885,
      "劾": 886,
      "勁": 887,
      "勃": 888,
      "勇": 889,
      "勉": 890,
      "勒": 891,
      "動": 892,
      "勘": 893,
      "務": 894,
      "勛": 895,
      "勝": 896,
      "勞": 897,
      "募": 898,
      "勢": 899,
      "勤": 900,
      "勱": 901,
      "勳": 902,
      "勵": 903,
      "勸": 904,
      "勻": 905,
      "勼": 906,
      "勾": 907,
      "勿": 908,
      "包": 909,
      "匆": 910,
      "匈": 911,
      "化": 912,
      "北": 913,
      "匙": 914,
      "匠": 915,
      "匡": 916,
      "匣": 917,
      "匪": 918,
      "匯": 919,
      "匱": 920,
      "匹": 921,
      "医": 922,
      "匾": 923,
      "匿": 924,
      "區": 925,
      "十": 926,
      "千": 927,
      "卅": 928,
      "升": 929,
      "午": 930,
      "卉": 931,
      "半": 932,
      "卌": 933,
      "华": 934,
      "协": 935,
      "卑": 936,
      "卒": 937,
      "卓": 938,
      "協": 939,
      "单": 940,
      "卖": 941,
      "南": 942,
      "博": 943,
      "卜": 944,
      "占": 945,
      "卡": 946,
      "卦": 947,
      "卧": 948,
      "卫": 949,
      "卯": 950,
      "印": 951,
      "危": 952,
      "即": 953,
      "卵": 954,
      "卷": 955,
      "卸": 956,
      "卻": 957,
      "卼": 958,
      "卿": 959,
      "厄": 960,
      "历": 961,
      "压": 962,
      "厔": 963,
      "厘": 964,
      "厚": 965,
      "原": 966,
      "厠": 967,
      "厥": 968,
      "厨": 969,
      "厭": 970,
      "厰": 971,
      "厲": 972,
      "厴": 973,
      "去": 974,
      "厾": 975,
      "参": 976,
      "參": 977,
      "又": 978,
      "叉": 979,
      "及": 980,
      "友": 981,
      "反": 982,
      "发": 983,
      "叔": 984,
      "取": 985,
      "受": 986,
      "变": 987,
      "叛": 988,
      "叟": 989,
      "叠": 990,
      "叢": 991,
      "口": 992,
      "古": 993,
      "句": 994,
      "另": 995,
      "叨": 996,
      "叩": 997,
      "只": 998,
      "叫": 999,
      "召": 1000,
      "叭": 1001,
      "叮": 1002,
      "可": 1003,
      "台": 1004,
      "叱": 1005,
      "史": 1006,
      "右": 1007,
      "叵": 1008,
      "叶": 1009,
      "号": 1010,
      "司": 1011,
      "叹": 1012,
      "叻": 1013,
      "吃": 1014,
      "各": 1015,
      "合": 1016,
      "吉": 1017,
      "吊": 1018,
      "吋": 1019,
      "同": 1020,
      "名": 1021,
      "后": 1022,
      "吏": 1023,
      "吐": 1024,
      "向": 1025,
      "吒": 1026,
      "吓": 1027,
      "吔": 1028,
      "吖": 1029,
      "吗": 1030,
      "君": 1031,
      "吝": 1032,
      "吞": 1033,
      "吟": 1034,
      "吠": 1035,
      "吡": 1036,
      "吥": 1037,
      "否": 1038,
      "吧": 1039,
      "吩": 1040,
      "含": 1041,
      "听": 1042,
      "吮": 1043,
      "启": 1044,
      "吱": 1045,
      "吳": 1046,
      "吵": 1047,
      "吶": 1048,
      "吸": 1049,
      "吹": 1050,
      "吻": 1051,
      "吼": 1052,
      "吽": 1053,
      "吾": 1054,
      "吿": 1055,
      "呀": 1056,
      "呂": 1057,
      "呃": 1058,
      "呆": 1059,
      "呈": 1060,
      "告": 1061,
      "呎": 1062,
      "呔": 1063,
      "员": 1064,
      "呡": 1065,
      "呢": 1066,
      "呤": 1067,
      "呦": 1068,
      "周": 1069,
      "呯": 1070,
      "呱": 1071,
      "味": 1072,
      "呵": 1073,
      "呶": 1074,
      "呷": 1075,
      "呸": 1076,
      "呻": 1077,
      "呼": 1078,
      "命": 1079,
      "咀": 1080,
      "咁": 1081,
      "咃": 1082,
      "咄": 1083,
      "咆": 1084,
      "咇": 1085,
      "咈": 1086,
      "咋": 1087,
      "和": 1088,
      "咎": 1089,
      "咐": 1090,
      "咑": 1091,
      "咒": 1092,
      "咓": 1093,
      "咔": 1094,
      "咕": 1095,
      "咖": 1096,
      "咗": 1097,
      "咘": 1098,
      "咚": 1099,
      "咜": 1100,
      "咠": 1101,
      "咦": 1102,
      "咧": 1103,
      "咨": 1104,
      "咩": 1105,
      "咪": 1106,
      "咫": 1107,
      "咬": 1108,
      "咭": 1109,
      "咯": 1110,
      "咱": 1111,
      "咳": 1112,
      "咸": 1113,
      "咹": 1114,
      "咽": 1115,
      "咾": 1116,
      "咿": 1117,
      "哀": 1118,
      "品": 1119,
      "哂": 1120,
      "哄": 1121,
      "哆": 1122,
      "哇": 1123,
      "哈": 1124,
      "哉": 1125,
      "哋": 1126,
      "响": 1127,
      "哎": 1128,
      "哚": 1129,
      "員": 1130,
      "哣": 1131,
      "哥": 1132,
      "哦": 1133,
      "哨": 1134,
      "哩": 1135,
      "哪": 1136,
      "哬": 1137,
      "哭": 1138,
      "哮": 1139,
      "哲": 1140,
      "哺": 1141,
      "哼": 1142,
      "哽": 1143,
      "哾": 1144,
      "唂": 1145,
      "唆": 1146,
      "唇": 1147,
      "唈": 1148,
      "唉": 1149,
      "唊": 1150,
      "唎": 1151,
      "唏": 1152,
      "唐": 1153,
      "唒": 1154,
      "唓": 1155,
      "唔": 1156,
      "唚": 1157,
      "唞": 1158,
      "唥": 1159,
      "唦": 1160,
      "唧": 1161,
      "唨": 1162,
      "唪": 1163,
      "售": 1164,
      "唯": 1165,
      "唱": 1166,
      "唷": 1167,
      "唸": 1168,
      "唻": 1169,
      "唾": 1170,
      "唿": 1171,
      "啃": 1172,
      "啄": 1173,
      "啅": 1174,
      "商": 1175,
      "啉": 1176,
      "啊": 1177,
      "啋": 1178,
      "啍": 1179,
      "問": 1180,
      "啓": 1181,
      "啕": 1182,
      "啖": 1183,
      "啗": 1184,
      "啜": 1185,
      "啝": 1186,
      "啞": 1187,
      "啟": 1188,
      "啡": 1189,
      "啤": 1190,
      "啥": 1191,
      "啦": 1192,
      "啩": 1193,
      "啪": 1194,
      "啫": 1195,
      "啰": 1196,
      "啱": 1197,
      "啲": 1198,
      "啵": 1199,
      "啷": 1200,
      "啹": 1201,
      "啼": 1202,
      "啽": 1203,
      "喀": 1204,
      "喂": 1205,
      "喃": 1206,
      "善": 1207,
      "喇": 1208,
      "喉": 1209,
      "喊": 1210,
      "喋": 1211,
      "喎": 1212,
      "喐": 1213,
      "喑": 1214,
      "喔": 1215,
      "喘": 1216,
      "喚": 1217,
      "喜": 1218,
      "喝": 1219,
      "喧": 1220,
      "喪": 1221,
      "喫": 1222,
      "喬": 1223,
      "單": 1224,
      "喱": 1225,
      "喲": 1226,
      "喳": 1227,
      "喴": 1228,
      "喵": 1229,
      "喺": 1230,
      "喻": 1231,
      "喼": 1232,
      "嗄": 1233,
      "嗅": 1234,
      "嗇": 1235,
      "嗌": 1236,
      "嗍": 1237,
      "嗎": 1238,
      "嗏": 1239,
      "嗑": 1240,
      "嗒": 1241,
      "嗗": 1242,
      "嗙": 1243,
      "嗚": 1244,
      "嗜": 1245,
      "嗟": 1246,
      "嗡": 1247,
      "嗢": 1248,
      "嗣": 1249,
      "嗤": 1250,
      "嗦": 1251,
      "嗨": 1252,
      "嗬": 1253,
      "嗮": 1254,
      "嗯": 1255,
      "嗰": 1256,
      "嗱": 1257,
      "嗲": 1258,
      "嗶": 1259,
      "嗽": 1260,
      "嗿": 1261,
      "嘀": 1262,
      "嘅": 1263,
      "嘆": 1264,
      "嘈": 1265,
      "嘉": 1266,
      "嘌": 1267,
      "嘍": 1268,
      "嘎": 1269,
      "嘑": 1270,
      "嘔": 1271,
      "嘖": 1272,
      "嘗": 1273,
      "嘚": 1274,
      "嘛": 1275,
      "嘜": 1276,
      "嘞": 1277,
      "嘟": 1278,
      "嘢": 1279,
      "嘥": 1280,
      "嘩": 1281,
      "嘬": 1282,
      "嘭": 1283,
      "嘮": 1284,
      "嘯": 1285,
      "嘰": 1286,
      "嘲": 1287,
      "嘴": 1288,
      "嘶": 1289,
      "嘸": 1290,
      "嘹": 1291,
      "嘺": 1292,
      "嘻": 1293,
      "嘿": 1294,
      "噁": 1295,
      "噃": 1296,
      "噄": 1297,
      "噅": 1298,
      "噆": 1299,
      "噈": 1300,
      "噉": 1301,
      "噌": 1302,
      "噍": 1303,
      "噎": 1304,
      "噏": 1305,
      "噒": 1306,
      "噓": 1307,
      "噔": 1308,
      "噚": 1309,
      "噠": 1310,
      "噢": 1311,
      "噤": 1312,
      "器": 1313,
      "噩": 1314,
      "噪": 1315,
      "噫": 1316,
      "噬": 1317,
      "噱": 1318,
      "噴": 1319,
      "噶": 1320,
      "噸": 1321,
      "噹": 1322,
      "噻": 1323,
      "噼": 1324,
      "嚄": 1325,
      "嚇": 1326,
      "嚎": 1327,
      "嚏": 1328,
      "嚐": 1329,
      "嚕": 1330,
      "嚙": 1331,
      "嚟": 1332,
      "嚡": 1333,
      "嚢": 1334,
      "嚤": 1335,
      "嚥": 1336,
      "嚦": 1337,
      "嚨": 1338,
      "嚫": 1339,
      "嚬": 1340,
      "嚮": 1341,
      "嚱": 1342,
      "嚲": 1343,
      "嚴": 1344,
      "嚷": 1345,
      "嚹": 1346,
      "嚼": 1347,
      "嚿": 1348,
      "囂": 1349,
      "囃": 1350,
      "囇": 1351,
      "囈": 1352,
      "囉": 1353,
      "囊": 1354,
      "囋": 1355,
      "囌": 1356,
      "囍": 1357,
      "囑": 1358,
      "囓": 1359,
      "囖": 1360,
      "囗": 1361,
      "囚": 1362,
      "四": 1363,
      "囝": 1364,
      "回": 1365,
      "囟": 1366,
      "因": 1367,
      "囡": 1368,
      "团": 1369,
      "囤": 1370,
      "囪": 1371,
      "园": 1372,
      "困": 1373,
      "围": 1374,
      "囹": 1375,
      "固": 1376,
      "国": 1377,
      "图": 1378,
      "圀": 1379,
      "圂": 1380,
      "圃": 1381,
      "圄": 1382,
      "圈": 1383,
      "國": 1384,
      "圍": 1385,
      "圑": 1386,
      "園": 1387,
      "圓": 1388,
      "圖": 1389,
      "團": 1390,
      "圜": 1391,
      "土": 1392,
      "在": 1393,
      "圩": 1394,
      "圭": 1395,
      "地": 1396,
      "圳": 1397,
      "圻": 1398,
      "圾": 1399,
      "址": 1400,
      "坂": 1401,
      "均": 1402,
      "坊": 1403,
      "坌": 1404,
      "坍": 1405,
      "坎": 1406,
      "坐": 1407,
      "坑": 1408,
      "坚": 1409,
      "坡": 1410,
      "坤": 1411,
      "坦": 1412,
      "坪": 1413,
      "坭": 1414,
      "坯": 1415,
      "坳": 1416,
      "坷": 1417,
      "坺": 1418,
      "坼": 1419,
      "垂": 1420,
      "垃": 1421,
      "型": 1422,
      "垓": 1423,
      "垠": 1424,
      "垢": 1425,
      "垣": 1426,
      "垮": 1427,
      "垵": 1428,
      "垽": 1429,
      "埃": 1430,
      "埋": 1431,
      "城": 1432,
      "埔": 1433,
      "埕": 1434,
      "埗": 1435,
      "埞": 1436,
      "域": 1437,
      "埠": 1438,
      "埤": 1439,
      "埲": 1440,
      "執": 1441,
      "埸": 1442,
      "培": 1443,
      "基": 1444,
      "埼": 1445,
      "堀": 1446,
      "堂": 1447,
      "堃": 1448,
      "堅": 1449,
      "堆": 1450,
      "堡": 1451,
      "堤": 1452,
      "堪": 1453,
      "堯": 1454,
      "報": 1455,
      "場": 1456,
      "堵": 1457,
      "堶": 1458,
      "塊": 1459,
      "塌": 1460,
      "塑": 1461,
      "塔": 1462,
      "塗": 1463,
      "塘": 1464,
      "塞": 1465,
      "塢": 1466,
      "填": 1467,
      "塱": 1468,
      "塳": 1469,
      "塵": 1470,
      "塾": 1471,
      "墀": 1472,
      "境": 1473,
      "墅": 1474,
      "墊": 1475,
      "墓": 1476,
      "墘": 1477,
      "墜": 1478,
      "增": 1479,
      "墟": 1480,
      "墨": 1481,
      "墩": 1482,
      "墮": 1483,
      "墳": 1484,
      "墻": 1485,
      "墾": 1486,
      "壁": 1487,
      "壅": 1488,
      "壆": 1489,
      "壇": 1490,
      "壑": 1491,
      "壓": 1492,
      "壘": 1493,
      "壞": 1494,
      "壟": 1495,
      "壢": 1496,
      "壤": 1497,
      "壩": 1498,
      "士": 1499,
      "壬": 1500,
      "壯": 1501,
      "声": 1502,
      "壹": 1503,
      "壺": 1504,
      "壽": 1505,
      "夀": 1506,
      "处": 1507,
      "変": 1508,
      "复": 1509,
      "夏": 1510,
      "夕": 1511,
      "外": 1512,
      "夙": 1513,
      "多": 1514,
      "夜": 1515,
      "够": 1516,
      "夠": 1517,
      "夢": 1518,
      "夥": 1519,
      "大": 1520,
      "天": 1521,
      "太": 1522,
      "夫": 1523,
      "夬": 1524,
      "夭": 1525,
      "央": 1526,
      "失": 1527,
      "头": 1528,
      "夷": 1529,
      "夾": 1530,
      "奀": 1531,
      "奄": 1532,
      "奅": 1533,
      "奇": 1534,
      "奈": 1535,
      "奉": 1536,
      "奎": 1537,
      "奏": 1538,
      "契": 1539,
      "奓": 1540,
      "奔": 1541,
      "奕": 1542,
      "套": 1543,
      "奚": 1544,
      "奠": 1545,
      "奢": 1546,
      "奧": 1547,
      "奪": 1548,
      "奮": 1549,
      "女": 1550,
      "奴": 1551,
      "奶": 1552,
      "奸": 1553,
      "她": 1554,
      "好": 1555,
      "如": 1556,
      "妃": 1557,
      "妄": 1558,
      "妈": 1559,
      "妍": 1560,
      "妒": 1561,
      "妓": 1562,
      "妖": 1563,
      "妗": 1564,
      "妙": 1565,
      "妝": 1566,
      "妥": 1567,
      "妨": 1568,
      "妮": 1569,
      "妲": 1570,
      "妳": 1571,
      "妹": 1572,
      "妻": 1573,
      "妾": 1574,
      "姆": 1575,
      "姊": 1576,
      "始": 1577,
      "姍": 1578,
      "姐": 1579,
      "姑": 1580,
      "姓": 1581,
      "委": 1582,
      "姖": 1583,
      "姚": 1584,
      "姜": 1585,
      "姣": 1586,
      "姦": 1587,
      "姨": 1588,
      "姪": 1589,
      "姫": 1590,
      "姬": 1591,
      "姵": 1592,
      "姻": 1593,
      "姿": 1594,
      "威": 1595,
      "娃": 1596,
      "娓": 1597,
      "娘": 1598,
      "娛": 1599,
      "娜": 1600,
      "娟": 1601,
      "娣": 1602,
      "娥": 1603,
      "娩": 1604,
      "娶": 1605,
      "娼": 1606,
      "婁": 1607,
      "婄": 1608,
      "婆": 1609,
      "婉": 1610,
      "婕": 1611,
      "婚": 1612,
      "婢": 1613,
      "婦": 1614,
      "婪": 1615,
      "婷": 1616,
      "婿": 1617,
      "媌": 1618,
      "媒": 1619,
      "媕": 1620,
      "媚": 1621,
      "媛": 1622,
      "媲": 1623,
      "媳": 1624,
      "媽": 1625,
      "媾": 1626,
      "嫁": 1627,
      "嫂": 1628,
      "嫉": 1629,
      "嫋": 1630,
      "嫌": 1631,
      "嫖": 1632,
      "嫡": 1633,
      "嫣": 1634,
      "嫦": 1635,
      "嫩": 1636,
      "嫪": 1637,
      "嫲": 1638,
      "嫺": 1639,
      "嫻": 1640,
      "嫽": 1641,
      "嬅": 1642,
      "嬉": 1643,
      "嬌": 1644,
      "嬏": 1645,
      "嬡": 1646,
      "嬤": 1647,
      "嬪": 1648,
      "嬰": 1649,
      "嬲": 1650,
      "嬴": 1651,
      "嬸": 1652,
      "孀": 1653,
      "子": 1654,
      "孑": 1655,
      "孔": 1656,
      "孕": 1657,
      "孖": 1658,
      "字": 1659,
      "存": 1660,
      "孚": 1661,
      "孜": 1662,
      "孝": 1663,
      "孟": 1664,
      "季": 1665,
      "孤": 1666,
      "学": 1667,
      "孩": 1668,
      "孫": 1669,
      "孭": 1670,
      "孰": 1671,
      "孱": 1672,
      "孲": 1673,
      "孵": 1674,
      "學": 1675,
      "孺": 1676,
      "孻": 1677,
      "孽": 1678,
      "孿": 1679,
      "宁": 1680,
      "宂": 1681,
      "它": 1682,
      "宄": 1683,
      "宅": 1684,
      "宇": 1685,
      "守": 1686,
      "安": 1687,
      "宋": 1688,
      "完": 1689,
      "宏": 1690,
      "宗": 1691,
      "官": 1692,
      "宙": 1693,
      "定": 1694,
      "宛": 1695,
      "宜": 1696,
      "宝": 1697,
      "实": 1698,
      "审": 1699,
      "客": 1700,
      "宣": 1701,
      "室": 1702,
      "宦": 1703,
      "宮": 1704,
      "宰": 1705,
      "害": 1706,
      "宴": 1707,
      "宵": 1708,
      "家": 1709,
      "容": 1710,
      "宽": 1711,
      "宿": 1712,
      "寂": 1713,
      "寄": 1714,
      "寅": 1715,
      "密": 1716,
      "寇": 1717,
      "富": 1718,
      "寐": 1719,
      "寒": 1720,
      "寓": 1721,
      "寛": 1722,
      "寞": 1723,
      "察": 1724,
      "寡": 1725,
      "寢": 1726,
      "寥": 1727,
      "實": 1728,
      "寧": 1729,
      "寨": 1730,
      "審": 1731,
      "寫": 1732,
      "寬": 1733,
      "寮": 1734,
      "寰": 1735,
      "寳": 1736,
      "寵": 1737,
      "寶": 1738,
      "寸": 1739,
      "对": 1740,
      "寺": 1741,
      "导": 1742,
      "封": 1743,
      "射": 1744,
      "将": 1745,
      "將": 1746,
      "專": 1747,
      "尉": 1748,
      "尊": 1749,
      "尋": 1750,
      "對": 1751,
      "導": 1752,
      "小": 1753,
      "尐": 1754,
      "少": 1755,
      "尔": 1756,
      "尖": 1757,
      "尚": 1758,
      "尢": 1759,
      "尤": 1760,
      "尬": 1761,
      "就": 1762,
      "尷": 1763,
      "尹": 1764,
      "尺": 1765,
      "尻": 1766,
      "尼": 1767,
      "尽": 1768,
      "尾": 1769,
      "尿": 1770,
      "局": 1771,
      "屁": 1772,
      "屄": 1773,
      "居": 1774,
      "屆": 1775,
      "屈": 1776,
      "屋": 1777,
      "屌": 1778,
      "屍": 1779,
      "屎": 1780,
      "屏": 1781,
      "屐": 1782,
      "屑": 1783,
      "展": 1784,
      "屘": 1785,
      "屙": 1786,
      "属": 1787,
      "屠": 1788,
      "屢": 1789,
      "層": 1790,
      "履": 1791,
      "屬": 1792,
      "屯": 1793,
      "山": 1794,
      "屹": 1795,
      "岀": 1796,
      "岁": 1797,
      "岋": 1798,
      "岌": 1799,
      "岐": 1800,
      "岔": 1801,
      "岡": 1802,
      "岩": 1803,
      "岬": 1804,
      "岱": 1805,
      "岳": 1806,
      "岸": 1807,
      "峒": 1808,
      "峙": 1809,
      "峭": 1810,
      "峯": 1811,
      "峰": 1812,
      "島": 1813,
      "峻": 1814,
      "峽": 1815,
      "崁": 1816,
      "崆": 1817,
      "崇": 1818,
      "崎": 1819,
      "崔": 1820,
      "崖": 1821,
      "崗": 1822,
      "崙": 1823,
      "崛": 1824,
      "崧": 1825,
      "崩": 1826,
      "嵇": 1827,
      "嵌": 1828,
      "嵐": 1829,
      "嶄": 1830,
      "嶇": 1831,
      "嶺": 1832,
      "嶼": 1833,
      "嶽": 1834,
      "巉": 1835,
      "巒": 1836,
      "巔": 1837,
      "巖": 1838,
      "川": 1839,
      "州": 1840,
      "巡": 1841,
      "巢": 1842,
      "工": 1843,
      "左": 1844,
      "巧": 1845,
      "巨": 1846,
      "巫": 1847,
      "差": 1848,
      "己": 1849,
      "已": 1850,
      "巳": 1851,
      "巴": 1852,
      "巷": 1853,
      "巾": 1854,
      "巿": 1855,
      "市": 1856,
      "布": 1857,
      "帆": 1858,
      "希": 1859,
      "帎": 1860,
      "帑": 1861,
      "帔": 1862,
      "帕": 1863,
      "帖": 1864,
      "帗": 1865,
      "帛": 1866,
      "帝": 1867,
      "帥": 1868,
      "带": 1869,
      "師": 1870,
      "席": 1871,
      "帮": 1872,
      "帳": 1873,
      "帶": 1874,
      "常": 1875,
      "帽": 1876,
      "幃": 1877,
      "幅": 1878,
      "幌": 1879,
      "幕": 1880,
      "幗": 1881,
      "幟": 1882,
      "幡": 1883,
      "幢": 1884,
      "幣": 1885,
      "幫": 1886,
      "幯": 1887,
      "干": 1888,
      "平": 1889,
      "年": 1890,
      "并": 1891,
      "幸": 1892,
      "幹": 1893,
      "幺": 1894,
      "幻": 1895,
      "幼": 1896,
      "幽": 1897,
      "幾": 1898,
      "广": 1899,
      "広": 1900,
      "庇": 1901,
      "床": 1902,
      "序": 1903,
      "应": 1904,
      "底": 1905,
      "店": 1906,
      "庚": 1907,
      "府": 1908,
      "度": 1909,
      "座": 1910,
      "庫": 1911,
      "庭": 1912,
      "庵": 1913,
      "庶": 1914,
      "康": 1915,
      "庸": 1916,
      "廁": 1917,
      "廂": 1918,
      "廈": 1919,
      "廉": 1920,
      "廊": 1921,
      "廓": 1922,
      "廖": 1923,
      "廚": 1924,
      "廝": 1925,
      "廟": 1926,
      "廠": 1927,
      "廢": 1928,
      "廣": 1929,
      "廩": 1930,
      "廬": 1931,
      "廳": 1932,
      "延": 1933,
      "廷": 1934,
      "廹": 1935,
      "建": 1936,
      "廿": 1937,
      "开": 1938,
      "异": 1939,
      "弄": 1940,
      "弇": 1941,
      "弈": 1942,
      "弊": 1943,
      "弍": 1944,
      "式": 1945,
      "弒": 1946,
      "弓": 1947,
      "引": 1948,
      "弗": 1949,
      "弘": 1950,
      "弛": 1951,
      "弟": 1952,
      "张": 1953,
      "弢": 1954,
      "弦": 1955,
      "弧": 1956,
      "弭": 1957,
      "弱": 1958,
      "張": 1959,
      "弶": 1960,
      "強": 1961,
      "弸": 1962,
      "强": 1963,
      "彈": 1964,
      "彊": 1965,
      "彌": 1966,
      "彎": 1967,
      "当": 1968,
      "录": 1969,
      "彗": 1970,
      "彙": 1971,
      "彝": 1972,
      "形": 1973,
      "彤": 1974,
      "彥": 1975,
      "彩": 1976,
      "彪": 1977,
      "彬": 1978,
      "彭": 1979,
      "彰": 1980,
      "影": 1981,
      "彳": 1982,
      "彷": 1983,
      "役": 1984,
      "彼": 1985,
      "彿": 1986,
      "往": 1987,
      "征": 1988,
      "徂": 1989,
      "待": 1990,
      "徇": 1991,
      "很": 1992,
      "徊": 1993,
      "律": 1994,
      "後": 1995,
      "徐": 1996,
      "徑": 1997,
      "徒": 1998,
      "得": 1999,
      "徘": 2000,
      "徙": 2001,
      "徛": 2002,
      "從": 2003,
      "徠": 2004,
      "御": 2005,
      "徨": 2006,
      "復": 2007,
      "循": 2008,
      "徬": 2009,
      "微": 2010,
      "徴": 2011,
      "徵": 2012,
      "德": 2013,
      "徹": 2014,
      "徼": 2015,
      "徽": 2016,
      "心": 2017,
      "必": 2018,
      "忆": 2019,
      "忌": 2020,
      "忍": 2021,
      "忒": 2022,
      "志": 2023,
      "忘": 2024,
      "忙": 2025,
      "忟": 2026,
      "忠": 2027,
      "忡": 2028,
      "忤": 2029,
      "忪": 2030,
      "快": 2031,
      "忱": 2032,
      "忳": 2033,
      "念": 2034,
      "忽": 2035,
      "忿": 2036,
      "态": 2037,
      "怍": 2038,
      "怎": 2039,
      "怒": 2040,
      "怕": 2041,
      "怖": 2042,
      "怛": 2043,
      "思": 2044,
      "怠": 2045,
      "怡": 2046,
      "急": 2047,
      "怦": 2048,
      "性": 2049,
      "怨": 2050,
      "怪": 2051,
      "怫": 2052,
      "怯": 2053,
      "怵": 2054,
      "总": 2055,
      "恁": 2056,
      "恂": 2057,
      "恃": 2058,
      "恆": 2059,
      "恍": 2060,
      "恐": 2061,
      "恒": 2062,
      "恕": 2063,
      "恙": 2064,
      "恢": 2065,
      "恣": 2066,
      "恤": 2067,
      "恥": 2068,
      "恨": 2069,
      "恩": 2070,
      "恪": 2071,
      "恬": 2072,
      "恭": 2073,
      "息": 2074,
      "恰": 2075,
      "恿": 2076,
      "悄": 2077,
      "悅": 2078,
      "悉": 2079,
      "悍": 2080,
      "悒": 2081,
      "悔": 2082,
      "悖": 2083,
      "悗": 2084,
      "悚": 2085,
      "悟": 2086,
      "悠": 2087,
      "患": 2088,
      "悦": 2089,
      "您": 2090,
      "悭": 2091,
      "悲": 2092,
      "悴": 2093,
      "悶": 2094,
      "悸": 2095,
      "悼": 2096,
      "悽": 2097,
      "惀": 2098,
      "惃": 2099,
      "情": 2100,
      "惇": 2101,
      "惊": 2102,
      "惋": 2103,
      "惏": 2104,
      "惑": 2105,
      "惕": 2106,
      "惗": 2107,
      "惘": 2108,
      "惚": 2109,
      "惜": 2110,
      "惟": 2111,
      "惠": 2112,
      "惡": 2113,
      "惦": 2114,
      "惨": 2115,
      "惰": 2116,
      "惱": 2117,
      "想": 2118,
      "惶": 2119,
      "惹": 2120,
      "惺": 2121,
      "惻": 2122,
      "愁": 2123,
      "愈": 2124,
      "愉": 2125,
      "愎": 2126,
      "意": 2127,
      "愔": 2128,
      "愕": 2129,
      "愚": 2130,
      "愛": 2131,
      "感": 2132,
      "愧": 2133,
      "愩": 2134,
      "愷": 2135,
      "愾": 2136,
      "慄": 2137,
      "慈": 2138,
      "態": 2139,
      "慌": 2140,
      "慍": 2141,
      "慎": 2142,
      "慕": 2143,
      "慘": 2144,
      "慚": 2145,
      "慢": 2146,
      "慣": 2147,
      "慤": 2148,
      "慧": 2149,
      "慨": 2150,
      "慫": 2151,
      "慮": 2152,
      "慰": 2153,
      "慳": 2154,
      "慶": 2155,
      "慷": 2156,
      "慾": 2157,
      "憂": 2158,
      "憎": 2159,
      "憐": 2160,
      "憑": 2161,
      "憔": 2162,
      "憚": 2163,
      "憤": 2164,
      "憧": 2165,
      "憩": 2166,
      "憫": 2167,
      "憬": 2168,
      "憲": 2169,
      "憶": 2170,
      "憸": 2171,
      "憾": 2172,
      "懂": 2173,
      "懇": 2174,
      "懈": 2175,
      "應": 2176,
      "懞": 2177,
      "懟": 2178,
      "懣": 2179,
      "懦": 2180,
      "懫": 2181,
      "懲": 2182,
      "懵": 2183,
      "懶": 2184,
      "懷": 2185,
      "懸": 2186,
      "懺": 2187,
      "懼": 2188,
      "懾": 2189,
      "懿": 2190,
      "戀": 2191,
      "戇": 2192,
      "戈": 2193,
      "戊": 2194,
      "戌": 2195,
      "戍": 2196,
      "戎": 2197,
      "成": 2198,
      "我": 2199,
      "戒": 2200,
      "戕": 2201,
      "或": 2202,
      "战": 2203,
      "戙": 2204,
      "戚": 2205,
      "戛": 2206,
      "戟": 2207,
      "戥": 2208,
      "戦": 2209,
      "戩": 2210,
      "截": 2211,
      "戮": 2212,
      "戯": 2213,
      "戰": 2214,
      "戲": 2215,
      "戳": 2216,
      "戴": 2217,
      "戶": 2218,
      "户": 2219,
      "戽": 2220,
      "戾": 2221,
      "房": 2222,
      "所": 2223,
      "扁": 2224,
      "扂": 2225,
      "扇": 2226,
      "扈": 2227,
      "扉": 2228,
      "手": 2229,
      "才": 2230,
      "扎": 2231,
      "扑": 2232,
      "扒": 2233,
      "打": 2234,
      "扔": 2235,
      "托": 2236,
      "扚": 2237,
      "扠": 2238,
      "扣": 2239,
      "扤": 2240,
      "执": 2241,
      "扫": 2242,
      "扭": 2243,
      "扮": 2244,
      "扯": 2245,
      "扱": 2246,
      "扲": 2247,
      "扳": 2248,
      "扶": 2249,
      "批": 2250,
      "扺": 2251,
      "扻": 2252,
      "扼": 2253,
      "扽": 2254,
      "找": 2255,
      "承": 2256,
      "技": 2257,
      "抄": 2258,
      "抆": 2259,
      "抉": 2260,
      "把": 2261,
      "抌": 2262,
      "抑": 2263,
      "抒": 2264,
      "抓": 2265,
      "抔": 2266,
      "投": 2267,
      "抖": 2268,
      "抗": 2269,
      "折": 2270,
      "抛": 2271,
      "护": 2272,
      "报": 2273,
      "抦": 2274,
      "抨": 2275,
      "披": 2276,
      "抬": 2277,
      "抰": 2278,
      "抱": 2279,
      "抳": 2280,
      "抵": 2281,
      "抹": 2282,
      "押": 2283,
      "抽": 2284,
      "抿": 2285,
      "拂": 2286,
      "拃": 2287,
      "担": 2288,
      "拆": 2289,
      "拇": 2290,
      "拉": 2291,
      "拋": 2292,
      "拌": 2293,
      "拍": 2294,
      "拎": 2295,
      "拏": 2296,
      "拐": 2297,
      "拑": 2298,
      "拒": 2299,
      "拓": 2300,
      "拔": 2301,
      "拖": 2302,
      "拗": 2303,
      "拘": 2304,
      "拙": 2305,
      "拚": 2306,
      "招": 2307,
      "拜": 2308,
      "拥": 2309,
      "拫": 2310,
      "括": 2311,
      "拭": 2312,
      "拮": 2313,
      "拯": 2314,
      "拱": 2315,
      "拳": 2316,
      "拷": 2317,
      "拼": 2318,
      "拾": 2319,
      "拿": 2320,
      "持": 2321,
      "挂": 2322,
      "指": 2323,
      "挈": 2324,
      "按": 2325,
      "挐": 2326,
      "挑": 2327,
      "挖": 2328,
      "挨": 2329,
      "挪": 2330,
      "挫": 2331,
      "挭": 2332,
      "振": 2333,
      "挱": 2334,
      "挲": 2335,
      "挹": 2336,
      "挺": 2337,
      "挻": 2338,
      "挼": 2339,
      "挽": 2340,
      "挾": 2341,
      "捅": 2342,
      "捆": 2343,
      "捉": 2344,
      "捋": 2345,
      "捌": 2346,
      "捍": 2347,
      "捎": 2348,
      "捏": 2349,
      "捐": 2350,
      "捕": 2351,
      "捗": 2352,
      "损": 2353,
      "换": 2354,
      "捧": 2355,
      "捨": 2356,
      "捩": 2357,
      "据": 2358,
      "捱": 2359,
      "捲": 2360,
      "捵": 2361,
      "捶": 2362,
      "捷": 2363,
      "捹": 2364,
      "捺": 2365,
      "捻": 2366,
      "捼": 2367,
      "捽": 2368,
      "掀": 2369,
      "掁": 2370,
      "掂": 2371,
      "掃": 2372,
      "掅": 2373,
      "授": 2374,
      "掉": 2375,
      "掌": 2376,
      "掏": 2377,
      "掐": 2378,
      "排": 2379,
      "掕": 2380,
      "掖": 2381,
      "掗": 2382,
      "掘": 2383,
      "掙": 2384,
      "掛": 2385,
      "掝": 2386,
      "掟": 2387,
      "掠": 2388,
      "採": 2389,
      "探": 2390,
      "掣": 2391,
      "接": 2392,
      "控": 2393,
      "推": 2394,
      "掩": 2395,
      "措": 2396,
      "掬": 2397,
      "掯": 2398,
      "掰": 2399,
      "掱": 2400,
      "掹": 2401,
      "揀": 2402,
      "揃": 2403,
      "揅": 2404,
      "揆": 2405,
      "揇": 2406,
      "揈": 2407,
      "揉": 2408,
      "描": 2409,
      "提": 2410,
      "插": 2411,
      "揖": 2412,
      "揗": 2413,
      "揙": 2414,
      "揚": 2415,
      "換": 2416,
      "揞": 2417,
      "握": 2418,
      "揢": 2419,
      "揣": 2420,
      "揤": 2421,
      "揦": 2422,
      "揩": 2423,
      "揪": 2424,
      "揭": 2425,
      "揮": 2426,
      "揳": 2427,
      "援": 2428,
      "揸": 2429,
      "揹": 2430,
      "揼": 2431,
      "揾": 2432,
      "搉": 2433,
      "搊": 2434,
      "搋": 2435,
      "損": 2436,
      "搏": 2437,
      "搐": 2438,
      "搓": 2439,
      "搔": 2440,
      "搕": 2441,
      "搖": 2442,
      "搗": 2443,
      "搜": 2444,
      "搞": 2445,
      "搣": 2446,
      "搥": 2447,
      "搦": 2448,
      "搧": 2449,
      "搨": 2450,
      "搪": 2451,
      "搬": 2452,
      "搭": 2453,
      "搲": 2454,
      "搴": 2455,
      "搵": 2456,
      "搶": 2457,
      "搽": 2458,
      "搾": 2459,
      "摀": 2460,
      "摄": 2461,
      "摆": 2462,
      "摑": 2463,
      "摒": 2464,
      "摔": 2465,
      "摘": 2466,
      "摙": 2467,
      "摜": 2468,
      "摞": 2469,
      "摟": 2470,
      "摥": 2471,
      "摧": 2472,
      "摩": 2473,
      "摮": 2474,
      "摯": 2475,
      "摱": 2476,
      "摳": 2477,
      "摵": 2478,
      "摶": 2479,
      "摷": 2480,
      "摸": 2481,
      "摺": 2482,
      "摻": 2483,
      "摼": 2484,
      "撃": 2485,
      "撇": 2486,
      "撈": 2487,
      "撍": 2488,
      "撏": 2489,
      "撐": 2490,
      "撑": 2491,
      "撒": 2492,
      "撓": 2493,
      "撕": 2494,
      "撘": 2495,
      "撚": 2496,
      "撝": 2497,
      "撞": 2498,
      "撟": 2499,
      "撠": 2500,
      "撢": 2501,
      "撤": 2502,
      "撥": 2503,
      "撦": 2504,
      "撩": 2505,
      "撫": 2506,
      "撬": 2507,
      "播": 2508,
      "撮": 2509,
      "撰": 2510,
      "撲": 2511,
      "撳": 2512,
      "撴": 2513,
      "撻": 2514,
      "撼": 2515,
      "撿": 2516,
      "擁": 2517,
      "擂": 2518,
      "擅": 2519,
      "擇": 2520,
      "擉": 2521,
      "擊": 2522,
      "擋": 2523,
      "操": 2524,
      "擎": 2525,
      "擏": 2526,
      "擒": 2527,
      "擔": 2528,
      "擗": 2529,
      "擘": 2530,
      "擙": 2531,
      "據": 2532,
      "擝": 2533,
      "擠": 2534,
      "擡": 2535,
      "擤": 2536,
      "擦": 2537,
      "擧": 2538,
      "擪": 2539,
      "擬": 2540,
      "擯": 2541,
      "擰": 2542,
      "擱": 2543,
      "擲": 2544,
      "擳": 2545,
      "擴": 2546,
      "擷": 2547,
      "擸": 2548,
      "擺": 2549,
      "擻": 2550,
      "擾": 2551,
      "攀": 2552,
      "攉": 2553,
      "攊": 2554,
      "攋": 2555,
      "攎": 2556,
      "攏": 2557,
      "攔": 2558,
      "攘": 2559,
      "攙": 2560,
      "攜": 2561,
      "攝": 2562,
      "攞": 2563,
      "攣": 2564,
      "攤": 2565,
      "攪": 2566,
      "攬": 2567,
      "支": 2568,
      "攰": 2569,
      "收": 2570,
      "攸": 2571,
      "改": 2572,
      "攻": 2573,
      "放": 2574,
      "政": 2575,
      "故": 2576,
      "效": 2577,
      "敍": 2578,
      "敎": 2579,
      "敏": 2580,
      "救": 2581,
      "敕": 2582,
      "敖": 2583,
      "敗": 2584,
      "敘": 2585,
      "教": 2586,
      "敝": 2587,
      "敞": 2588,
      "敢": 2589,
      "散": 2590,
      "敦": 2591,
      "敬": 2592,
      "数": 2593,
      "敲": 2594,
      "整": 2595,
      "敵": 2596,
      "敷": 2597,
      "數": 2598,
      "敹": 2599,
      "敻": 2600,
      "斂": 2601,
      "斃": 2602,
      "文": 2603,
      "斌": 2604,
      "斐": 2605,
      "斑": 2606,
      "斕": 2607,
      "斗": 2608,
      "料": 2609,
      "斛": 2610,
      "斜": 2611,
      "斟": 2612,
      "斤": 2613,
      "斥": 2614,
      "斧": 2615,
      "斫": 2616,
      "斬": 2617,
      "断": 2618,
      "斯": 2619,
      "新": 2620,
      "斲": 2621,
      "斷": 2622,
      "方": 2623,
      "於": 2624,
      "施": 2625,
      "旁": 2626,
      "旅": 2627,
      "旋": 2628,
      "族": 2629,
      "旗": 2630,
      "旛": 2631,
      "无": 2632,
      "既": 2633,
      "旣": 2634,
      "日": 2635,
      "旦": 2636,
      "旨": 2637,
      "早": 2638,
      "旬": 2639,
      "旭": 2640,
      "旮": 2641,
      "旯": 2642,
      "旱": 2643,
      "旳": 2644,
      "时": 2645,
      "旺": 2646,
      "旻": 2647,
      "昂": 2648,
      "昆": 2649,
      "昇": 2650,
      "昌": 2651,
      "昍": 2652,
      "明": 2653,
      "昏": 2654,
      "昐": 2655,
      "易": 2656,
      "昔": 2657,
      "昕": 2658,
      "星": 2659,
      "映": 2660,
      "昤": 2661,
      "春": 2662,
      "昧": 2663,
      "昨": 2664,
      "昭": 2665,
      "是": 2666,
      "昴": 2667,
      "显": 2668,
      "時": 2669,
      "晃": 2670,
      "晉": 2671,
      "晌": 2672,
      "晏": 2673,
      "晒": 2674,
      "晚": 2675,
      "晝": 2676,
      "晟": 2677,
      "晤": 2678,
      "晦": 2679,
      "晨": 2680,
      "晩": 2681,
      "晫": 2682,
      "普": 2683,
      "景": 2684,
      "晰": 2685,
      "晴": 2686,
      "晶": 2687,
      "智": 2688,
      "晾": 2689,
      "暄": 2690,
      "暇": 2691,
      "暈": 2692,
      "暉": 2693,
      "暑": 2694,
      "暓": 2695,
      "暖": 2696,
      "暗": 2697,
      "暚": 2698,
      "暢": 2699,
      "暨": 2700,
      "暪": 2701,
      "暫": 2702,
      "暮": 2703,
      "暱": 2704,
      "暴": 2705,
      "暸": 2706,
      "暹": 2707,
      "曀": 2708,
      "曆": 2709,
      "曇": 2710,
      "曈": 2711,
      "曉": 2712,
      "曙": 2713,
      "曚": 2714,
      "曜": 2715,
      "曝": 2716,
      "曠": 2717,
      "曦": 2718,
      "曬": 2719,
      "曰": 2720,
      "曱": 2721,
      "曲": 2722,
      "曳": 2723,
      "更": 2724,
      "書": 2725,
      "曹": 2726,
      "曼": 2727,
      "曾": 2728,
      "替": 2729,
      "最": 2730,
      "會": 2731,
      "月": 2732,
      "有": 2733,
      "朋": 2734,
      "服": 2735,
      "朔": 2736,
      "朕": 2737,
      "朗": 2738,
      "朘": 2739,
      "望": 2740,
      "朝": 2741,
      "期": 2742,
      "朢": 2743,
      "朦": 2744,
      "朧": 2745,
      "木": 2746,
      "未": 2747,
      "末": 2748,
      "本": 2749,
      "札": 2750,
      "术": 2751,
      "朱": 2752,
      "朴": 2753,
      "朵": 2754,
      "机": 2755,
      "朽": 2756,
      "权": 2757,
      "杆": 2758,
      "杈": 2759,
      "杉": 2760,
      "李": 2761,
      "杏": 2762,
      "材": 2763,
      "村": 2764,
      "杖": 2765,
      "杜": 2766,
      "杞": 2767,
      "束": 2768,
      "杠": 2769,
      "条": 2770,
      "来": 2771,
      "杪": 2772,
      "杭": 2773,
      "杯": 2774,
      "杰": 2775,
      "東": 2776,
      "杵": 2777,
      "松": 2778,
      "板": 2779,
      "极": 2780,
      "构": 2781,
      "枅": 2782,
      "枉": 2783,
      "枋": 2784,
      "析": 2785,
      "枕": 2786,
      "林": 2787,
      "枚": 2788,
      "果": 2789,
      "枝": 2790,
      "枯": 2791,
      "枱": 2792,
      "枳": 2793,
      "架": 2794,
      "枷": 2795,
      "柄": 2796,
      "柆": 2797,
      "柏": 2798,
      "某": 2799,
      "柑": 2800,
      "柒": 2801,
      "染": 2802,
      "柔": 2803,
      "柚": 2804,
      "柜": 2805,
      "柞": 2806,
      "柢": 2807,
      "查": 2808,
      "柩": 2809,
      "柬": 2810,
      "柯": 2811,
      "柱": 2812,
      "柳": 2813,
      "柴": 2814,
      "柵": 2815,
      "柺": 2816,
      "査": 2817,
      "柿": 2818,
      "标": 2819,
      "栓": 2820,
      "栗": 2821,
      "校": 2822,
      "栢": 2823,
      "栩": 2824,
      "株": 2825,
      "样": 2826,
      "核": 2827,
      "根": 2828,
      "格": 2829,
      "栽": 2830,
      "桀": 2831,
      "桁": 2832,
      "桂": 2833,
      "桃": 2834,
      "框": 2835,
      "案": 2836,
      "桌": 2837,
      "桐": 2838,
      "桑": 2839,
      "桔": 2840,
      "桩": 2841,
      "桶": 2842,
      "桷": 2843,
      "桿": 2844,
      "梁": 2845,
      "梅": 2846,
      "梆": 2847,
      "梓": 2848,
      "梗": 2849,
      "梘": 2850,
      "條": 2851,
      "梟": 2852,
      "梢": 2853,
      "梦": 2854,
      "梧": 2855,
      "梨": 2856,
      "梭": 2857,
      "梯": 2858,
      "械": 2859,
      "梳": 2860,
      "梵": 2861,
      "检": 2862,
      "棄": 2863,
      "棉": 2864,
      "棋": 2865,
      "棍": 2866,
      "棐": 2867,
      "棑": 2868,
      "棒": 2869,
      "棕": 2870,
      "棖": 2871,
      "棗": 2872,
      "棘": 2873,
      "棚": 2874,
      "棟": 2875,
      "棠": 2876,
      "棧": 2877,
      "森": 2878,
      "棯": 2879,
      "棱": 2880,
      "棲": 2881,
      "棵": 2882,
      "棹": 2883,
      "棺": 2884,
      "椅": 2885,
      "椊": 2886,
      "植": 2887,
      "椎": 2888,
      "椏": 2889,
      "椒": 2890,
      "椗": 2891,
      "椰": 2892,
      "楂": 2893,
      "楊": 2894,
      "楋": 2895,
      "楓": 2896,
      "楔": 2897,
      "楚": 2898,
      "楞": 2899,
      "楠": 2900,
      "楣": 2901,
      "楨": 2902,
      "楫": 2903,
      "業": 2904,
      "極": 2905,
      "楷": 2906,
      "概": 2907,
      "榃": 2908,
      "榆": 2909,
      "榊": 2910,
      "榔": 2911,
      "榕": 2912,
      "榖": 2913,
      "榚": 2914,
      "榛": 2915,
      "榜": 2916,
      "榨": 2917,
      "榭": 2918,
      "榮": 2919,
      "榴": 2920,
      "榷": 2921,
      "槃": 2922,
      "構": 2923,
      "槌": 2924,
      "槍": 2925,
      "槎": 2926,
      "槐": 2927,
      "槓": 2928,
      "様": 2929,
      "槤": 2930,
      "槧": 2931,
      "槳": 2932,
      "槽": 2933,
      "樁": 2934,
      "樂": 2935,
      "樊": 2936,
      "樑": 2937,
      "樓": 2938,
      "樔": 2939,
      "樖": 2940,
      "標": 2941,
      "樞": 2942,
      "樟": 2943,
      "模": 2944,
      "樣": 2945,
      "樨": 2946,
      "横": 2947,
      "樴": 2948,
      "樵": 2949,
      "樸": 2950,
      "樹": 2951,
      "樺": 2952,
      "樽": 2953,
      "樾": 2954,
      "橄": 2955,
      "橇": 2956,
      "橋": 2957,
      "橘": 2958,
      "橙": 2959,
      "橛": 2960,
      "機": 2961,
      "橡": 2962,
      "橢": 2963,
      "橫": 2964,
      "橱": 2965,
      "橺": 2966,
      "檀": 2967,
      "檐": 2968,
      "檔": 2969,
      "檢": 2970,
      "檬": 2971,
      "檯": 2972,
      "檳": 2973,
      "檸": 2974,
      "檻": 2975,
      "櫃": 2976,
      "櫈": 2977,
      "櫚": 2978,
      "櫛": 2979,
      "櫥": 2980,
      "櫳": 2981,
      "櫸": 2982,
      "櫻": 2983,
      "櫼": 2984,
      "欄": 2985,
      "權": 2986,
      "欖": 2987,
      "欞": 2988,
      "欠": 2989,
      "次": 2990,
      "欣": 2991,
      "欯": 2992,
      "欲": 2993,
      "欶": 2994,
      "欸": 2995,
      "欺": 2996,
      "欽": 2997,
      "款": 2998,
      "欿": 2999,
      "歇": 3000,
      "歉": 3001,
      "歌": 3002,
      "歎": 3003,
      "歐": 3004,
      "歛": 3005,
      "歟": 3006,
      "歡": 3007,
      "止": 3008,
      "正": 3009,
      "此": 3010,
      "步": 3011,
      "武": 3012,
      "歧": 3013,
      "歪": 3014,
      "歲": 3015,
      "歳": 3016,
      "歴": 3017,
      "歷": 3018,
      "歸": 3019,
      "歹": 3020,
      "死": 3021,
      "殂": 3022,
      "殃": 3023,
      "殆": 3024,
      "殉": 3025,
      "殊": 3026,
      "殍": 3027,
      "殖": 3028,
      "殘": 3029,
      "殞": 3030,
      "殤": 3031,
      "殭": 3032,
      "殮": 3033,
      "殯": 3034,
      "殲": 3035,
      "段": 3036,
      "殷": 3037,
      "殺": 3038,
      "殼": 3039,
      "殽": 3040,
      "殿": 3041,
      "毀": 3042,
      "毁": 3043,
      "毅": 3044,
      "毆": 3045,
      "毋": 3046,
      "母": 3047,
      "毎": 3048,
      "每": 3049,
      "毒": 3050,
      "毓": 3051,
      "比": 3052,
      "毗": 3053,
      "毛": 3054,
      "毡": 3055,
      "毫": 3056,
      "毯": 3057,
      "氈": 3058,
      "氏": 3059,
      "民": 3060,
      "氓": 3061,
      "气": 3062,
      "氛": 3063,
      "氟": 3064,
      "氣": 3065,
      "氦": 3066,
      "氧": 3067,
      "氨": 3068,
      "氪": 3069,
      "氫": 3070,
      "氬": 3071,
      "氮": 3072,
      "氯": 3073,
      "氰": 3074,
      "水": 3075,
      "永": 3076,
      "氹": 3077,
      "氼": 3078,
      "氾": 3079,
      "汀": 3080,
      "汁": 3081,
      "求": 3082,
      "汆": 3083,
      "汇": 3084,
      "汐": 3085,
      "汕": 3086,
      "汗": 3087,
      "汙": 3088,
      "汚": 3089,
      "汝": 3090,
      "汞": 3091,
      "江": 3092,
      "池": 3093,
      "污": 3094,
      "汪": 3095,
      "汰": 3096,
      "汲": 3097,
      "汶": 3098,
      "決": 3099,
      "汽": 3100,
      "汾": 3101,
      "沂": 3102,
      "沃": 3103,
      "沅": 3104,
      "沈": 3105,
      "沉": 3106,
      "沊": 3107,
      "沌": 3108,
      "沐": 3109,
      "沒": 3110,
      "沓": 3111,
      "沔": 3112,
      "沖": 3113,
      "沙": 3114,
      "沛": 3115,
      "沟": 3116,
      "没": 3117,
      "沢": 3118,
      "沫": 3119,
      "沬": 3120,
      "沮": 3121,
      "沱": 3122,
      "河": 3123,
      "沸": 3124,
      "油": 3125,
      "治": 3126,
      "沼": 3127,
      "沽": 3128,
      "沾": 3129,
      "沿": 3130,
      "況": 3131,
      "泄": 3132,
      "泅": 3133,
      "泉": 3134,
      "泊": 3135,
      "泌": 3136,
      "泓": 3137,
      "法": 3138,
      "泗": 3139,
      "泛": 3140,
      "泠": 3141,
      "泡": 3142,
      "波": 3143,
      "泣": 3144,
      "泥": 3145,
      "注": 3146,
      "泮": 3147,
      "泯": 3148,
      "泰": 3149,
      "泳": 3150,
      "泵": 3151,
      "洄": 3152,
      "洋": 3153,
      "洌": 3154,
      "洗": 3155,
      "洛": 3156,
      "洞": 3157,
      "津": 3158,
      "洩": 3159,
      "洪": 3160,
      "洮": 3161,
      "洱": 3162,
      "洲": 3163,
      "洵": 3164,
      "洶": 3165,
      "活": 3166,
      "洽": 3167,
      "派": 3168,
      "流": 3169,
      "测": 3170,
      "浙": 3171,
      "浚": 3172,
      "浣": 3173,
      "浦": 3174,
      "浩": 3175,
      "浪": 3176,
      "浬": 3177,
      "浭": 3178,
      "浮": 3179,
      "浴": 3180,
      "海": 3181,
      "浸": 3182,
      "浹": 3183,
      "涂": 3184,
      "涅": 3185,
      "涇": 3186,
      "消": 3187,
      "涉": 3188,
      "涌": 3189,
      "涎": 3190,
      "涕": 3191,
      "涙": 3192,
      "涨": 3193,
      "涯": 3194,
      "液": 3195,
      "涴": 3196,
      "涵": 3197,
      "涷": 3198,
      "涸": 3199,
      "涼": 3200,
      "涿": 3201,
      "淀": 3202,
      "淆": 3203,
      "淋": 3204,
      "淌": 3205,
      "淑": 3206,
      "淒": 3207,
      "淘": 3208,
      "淙": 3209,
      "淚": 3210,
      "淝": 3211,
      "淞": 3212,
      "淠": 3213,
      "淡": 3214,
      "淤": 3215,
      "淥": 3216,
      "淦": 3217,
      "淨": 3218,
      "淪": 3219,
      "淫": 3220,
      "淬": 3221,
      "淮": 3222,
      "淰": 3223,
      "深": 3224,
      "淳": 3225,
      "淵": 3226,
      "混": 3227,
      "淹": 3228,
      "淺": 3229,
      "添": 3230,
      "清": 3231,
      "渙": 3232,
      "減": 3233,
      "渜": 3234,
      "渝": 3235,
      "渠": 3236,
      "渡": 3237,
      "渣": 3238,
      "渦": 3239,
      "渧": 3240,
      "温": 3241,
      "測": 3242,
      "渭": 3243,
      "港": 3244,
      "渲": 3245,
      "渳": 3246,
      "渴": 3247,
      "游": 3248,
      "渺": 3249,
      "渾": 3250,
      "湃": 3251,
      "湊": 3252,
      "湖": 3253,
      "湘": 3254,
      "湛": 3255,
      "湧": 3256,
      "湯": 3257,
      "湴": 3258,
      "溉": 3259,
      "溏": 3260,
      "源": 3261,
      "準": 3262,
      "溚": 3263,
      "溜": 3264,
      "溝": 3265,
      "溟": 3266,
      "溢": 3267,
      "溦": 3268,
      "溪": 3269,
      "溫": 3270,
      "溯": 3271,
      "溶": 3272,
      "溺": 3273,
      "溼": 3274,
      "滂": 3275,
      "滄": 3276,
      "滅": 3277,
      "滇": 3278,
      "滉": 3279,
      "滋": 3280,
      "滌": 3281,
      "滑": 3282,
      "滓": 3283,
      "滔": 3284,
      "滘": 3285,
      "滙": 3286,
      "满": 3287,
      "滬": 3288,
      "滮": 3289,
      "滯": 3290,
      "滰": 3291,
      "滲": 3292,
      "滴": 3293,
      "滷": 3294,
      "滾": 3295,
      "滿": 3296,
      "漁": 3297,
      "漂": 3298,
      "漆": 3299,
      "漏": 3300,
      "漓": 3301,
      "演": 3302,
      "漕": 3303,
      "漖": 3304,
      "漚": 3305,
      "漠": 3306,
      "漢": 3307,
      "漣": 3308,
      "漦": 3309,
      "漩": 3310,
      "漪": 3311,
      "漫": 3312,
      "漬": 3313,
      "漮": 3314,
      "漱": 3315,
      "漲": 3316,
      "漳": 3317,
      "漸": 3318,
      "漾": 3319,
      "漿": 3320,
      "潎": 3321,
      "潑": 3322,
      "潔": 3323,
      "潘": 3324,
      "潛": 3325,
      "潜": 3326,
      "潞": 3327,
      "潟": 3328,
      "潢": 3329,
      "潤": 3330,
      "潦": 3331,
      "潭": 3332,
      "潮": 3333,
      "潯": 3334,
      "潰": 3335,
      "潲": 3336,
      "潷": 3337,
      "潺": 3338,
      "潻": 3339,
      "澀": 3340,
      "澂": 3341,
      "澄": 3342,
      "澆": 3343,
      "澇": 3344,
      "澈": 3345,
      "澍": 3346,
      "澎": 3347,
      "澗": 3348,
      "澠": 3349,
      "澡": 3350,
      "澤": 3351,
      "澩": 3352,
      "澱": 3353,
      "澳": 3354,
      "激": 3355,
      "濁": 3356,
      "濃": 3357,
      "濊": 3358,
      "濕": 3359,
      "濛": 3360,
      "濟": 3361,
      "濠": 3362,
      "濤": 3363,
      "濫": 3364,
      "濯": 3365,
      "濰": 3366,
      "濱": 3367,
      "濺": 3368,
      "濾": 3369,
      "瀄": 3370,
      "瀆": 3371,
      "瀉": 3372,
      "瀋": 3373,
      "瀎": 3374,
      "瀏": 3375,
      "瀑": 3376,
      "瀕": 3377,
      "瀚": 3378,
      "瀛": 3379,
      "瀝": 3380,
      "瀞": 3381,
      "瀟": 3382,
      "瀡": 3383,
      "瀨": 3384,
      "瀰": 3385,
      "瀼": 3386,
      "瀾": 3387,
      "灌": 3388,
      "灑": 3389,
      "灒": 3390,
      "灕": 3391,
      "灘": 3392,
      "灝": 3393,
      "灣": 3394,
      "火": 3395,
      "灭": 3396,
      "灰": 3397,
      "灶": 3398,
      "灸": 3399,
      "灼": 3400,
      "災": 3401,
      "炆": 3402,
      "炊": 3403,
      "炎": 3404,
      "炒": 3405,
      "炔": 3406,
      "炕": 3407,
      "炖": 3408,
      "炙": 3409,
      "炠": 3410,
      "炩": 3411,
      "炫": 3412,
      "炬": 3413,
      "炭": 3414,
      "炮": 3415,
      "炯": 3416,
      "炳": 3417,
      "炷": 3418,
      "炸": 3419,
      "点": 3420,
      "為": 3421,
      "烈": 3422,
      "烊": 3423,
      "烏": 3424,
      "烘": 3425,
      "烚": 3426,
      "烟": 3427,
      "烤": 3428,
      "热": 3429,
      "烯": 3430,
      "烷": 3431,
      "烹": 3432,
      "烺": 3433,
      "烽": 3434,
      "焉": 3435,
      "焊": 3436,
      "焗": 3437,
      "焙": 3438,
      "焚": 3439,
      "無": 3440,
      "焦": 3441,
      "焫": 3442,
      "焮": 3443,
      "焯": 3444,
      "焰": 3445,
      "然": 3446,
      "煀": 3447,
      "煉": 3448,
      "煋": 3449,
      "煌": 3450,
      "煎": 3451,
      "煒": 3452,
      "煖": 3453,
      "煙": 3454,
      "煞": 3455,
      "煠": 3456,
      "煤": 3457,
      "煥": 3458,
      "照": 3459,
      "煨": 3460,
      "煩": 3461,
      "煪": 3462,
      "煮": 3463,
      "煱": 3464,
      "煲": 3465,
      "煽": 3466,
      "熄": 3467,
      "熇": 3468,
      "熊": 3469,
      "熏": 3470,
      "熒": 3471,
      "熔": 3472,
      "熗": 3473,
      "熙": 3474,
      "熛": 3475,
      "熝": 3476,
      "熟": 3477,
      "熠": 3478,
      "熨": 3479,
      "熬": 3480,
      "熱": 3481,
      "熵": 3482,
      "熹": 3483,
      "熾": 3484,
      "燁": 3485,
      "燂": 3486,
      "燃": 3487,
      "燈": 3488,
      "燉": 3489,
      "燊": 3490,
      "燎": 3491,
      "燒": 3492,
      "燕": 3493,
      "燘": 3494,
      "燙": 3495,
      "營": 3496,
      "燥": 3497,
      "燦": 3498,
      "燬": 3499,
      "燭": 3500,
      "燴": 3501,
      "燶": 3502,
      "燼": 3503,
      "爆": 3504,
      "爉": 3505,
      "爌": 3506,
      "爍": 3507,
      "爐": 3508,
      "爛": 3509,
      "爨": 3510,
      "爪": 3511,
      "爬": 3512,
      "爭": 3513,
      "爰": 3514,
      "爱": 3515,
      "爲": 3516,
      "爵": 3517,
      "父": 3518,
      "爸": 3519,
      "爹": 3520,
      "爺": 3521,
      "爽": 3522,
      "爾": 3523,
      "牀": 3524,
      "牆": 3525,
      "片": 3526,
      "版": 3527,
      "牌": 3528,
      "牏": 3529,
      "牒": 3530,
      "牘": 3531,
      "牙": 3532,
      "牚": 3533,
      "牛": 3534,
      "牟": 3535,
      "牠": 3536,
      "牡": 3537,
      "牢": 3538,
      "牧": 3539,
      "物": 3540,
      "牯": 3541,
      "牲": 3542,
      "牴": 3543,
      "特": 3544,
      "牽": 3545,
      "犀": 3546,
      "犁": 3547,
      "犖": 3548,
      "犠": 3549,
      "犧": 3550,
      "犬": 3551,
      "犯": 3552,
      "状": 3553,
      "狀": 3554,
      "狂": 3555,
      "狄": 3556,
      "狎": 3557,
      "狐": 3558,
      "狒": 3559,
      "狗": 3560,
      "狙": 3561,
      "狠": 3562,
      "狡": 3563,
      "狩": 3564,
      "狸": 3565,
      "狹": 3566,
      "狼": 3567,
      "狽": 3568,
      "猄": 3569,
      "猋": 3570,
      "猖": 3571,
      "猗": 3572,
      "猙": 3573,
      "猛": 3574,
      "猜": 3575,
      "猝": 3576,
      "猞": 3577,
      "猥": 3578,
      "猩": 3579,
      "猫": 3580,
      "猴": 3581,
      "猶": 3582,
      "猷": 3583,
      "猾": 3584,
      "猿": 3585,
      "獄": 3586,
      "獅": 3587,
      "獎": 3588,
      "獗": 3589,
      "獠": 3590,
      "獨": 3591,
      "獰": 3592,
      "獲": 3593,
      "獳": 3594,
      "獵": 3595,
      "獷": 3596,
      "獸": 3597,
      "獺": 3598,
      "獻": 3599,
      "獼": 3600,
      "玄": 3601,
      "率": 3602,
      "玉": 3603,
      "王": 3604,
      "玟": 3605,
      "玩": 3606,
      "玫": 3607,
      "环": 3608,
      "现": 3609,
      "玲": 3610,
      "玳": 3611,
      "玷": 3612,
      "玻": 3613,
      "珀": 3614,
      "珈": 3615,
      "珊": 3616,
      "珍": 3617,
      "珏": 3618,
      "珒": 3619,
      "珙": 3620,
      "珞": 3621,
      "珠": 3622,
      "班": 3623,
      "現": 3624,
      "球": 3625,
      "理": 3626,
      "琉": 3627,
      "琚": 3628,
      "琛": 3629,
      "琢": 3630,
      "琥": 3631,
      "琦": 3632,
      "琪": 3633,
      "琫": 3634,
      "琮": 3635,
      "琳": 3636,
      "琴": 3637,
      "琵": 3638,
      "琶": 3639,
      "琼": 3640,
      "瑁": 3641,
      "瑆": 3642,
      "瑋": 3643,
      "瑒": 3644,
      "瑕": 3645,
      "瑙": 3646,
      "瑚": 3647,
      "瑛": 3648,
      "瑜": 3649,
      "瑞": 3650,
      "瑟": 3651,
      "瑣": 3652,
      "瑤": 3653,
      "瑧": 3654,
      "瑩": 3655,
      "瑪": 3656,
      "瑰": 3657,
      "瑾": 3658,
      "璀": 3659,
      "璂": 3660,
      "璃": 3661,
      "璇": 3662,
      "璈": 3663,
      "璉": 3664,
      "璋": 3665,
      "璐": 3666,
      "璟": 3667,
      "璠": 3668,
      "璣": 3669,
      "璧": 3670,
      "璨": 3671,
      "環": 3672,
      "璵": 3673,
      "璽": 3674,
      "瓊": 3675,
      "瓏": 3676,
      "瓜": 3677,
      "瓣": 3678,
      "瓤": 3679,
      "瓦": 3680,
      "瓮": 3681,
      "瓶": 3682,
      "瓷": 3683,
      "甄": 3684,
      "甌": 3685,
      "甑": 3686,
      "甕": 3687,
      "甖": 3688,
      "甘": 3689,
      "甚": 3690,
      "甜": 3691,
      "生": 3692,
      "產": 3693,
      "産": 3694,
      "甥": 3695,
      "甦": 3696,
      "用": 3697,
      "甩": 3698,
      "甫": 3699,
      "甯": 3700,
      "田": 3701,
      "由": 3702,
      "甲": 3703,
      "申": 3704,
      "甴": 3705,
      "电": 3706,
      "男": 3707,
      "甸": 3708,
      "町": 3709,
      "畀": 3710,
      "畋": 3711,
      "界": 3712,
      "畏": 3713,
      "畐": 3714,
      "畔": 3715,
      "留": 3716,
      "畜": 3717,
      "畝": 3718,
      "畢": 3719,
      "略": 3720,
      "畧": 3721,
      "番": 3722,
      "畫": 3723,
      "異": 3724,
      "當": 3725,
      "畸": 3726,
      "畿": 3727,
      "疃": 3728,
      "疆": 3729,
      "疇": 3730,
      "疊": 3731,
      "疋": 3732,
      "疏": 3733,
      "疑": 3734,
      "疔": 3735,
      "疗": 3736,
      "疚": 3737,
      "疤": 3738,
      "疫": 3739,
      "疲": 3740,
      "疴": 3741,
      "疵": 3742,
      "疹": 3743,
      "疼": 3744,
      "疾": 3745,
      "疿": 3746,
      "痄": 3747,
      "病": 3748,
      "症": 3749,
      "痊": 3750,
      "痍": 3751,
      "痔": 3752,
      "痕": 3753,
      "痘": 3754,
      "痙": 3755,
      "痛": 3756,
      "痞": 3757,
      "痠": 3758,
      "痢": 3759,
      "痣": 3760,
      "痧": 3761,
      "痰": 3762,
      "痱": 3763,
      "痲": 3764,
      "痴": 3765,
      "痹": 3766,
      "痺": 3767,
      "痾": 3768,
      "瘀": 3769,
      "瘁": 3770,
      "瘋": 3771,
      "瘌": 3772,
      "瘍": 3773,
      "瘓": 3774,
      "瘕": 3775,
      "瘜": 3776,
      "瘟": 3777,
      "瘠": 3778,
      "瘡": 3779,
      "瘤": 3780,
      "瘦": 3781,
      "瘧": 3782,
      "瘴": 3783,
      "瘸": 3784,
      "瘺": 3785,
      "療": 3786,
      "癆": 3787,
      "癇": 3788,
      "癈": 3789,
      "癌": 3790,
      "癐": 3791,
      "癒": 3792,
      "癖": 3793,
      "癟": 3794,
      "癡": 3795,
      "癢": 3796,
      "癥": 3797,
      "癦": 3798,
      "癩": 3799,
      "癪": 3800,
      "癬": 3801,
      "癮": 3802,
      "癰": 3803,
      "癱": 3804,
      "癲": 3805,
      "発": 3806,
      "登": 3807,
      "發": 3808,
      "白": 3809,
      "百": 3810,
      "皁": 3811,
      "皂": 3812,
      "的": 3813,
      "皆": 3814,
      "皇": 3815,
      "皈": 3816,
      "皋": 3817,
      "皎": 3818,
      "皓": 3819,
      "皖": 3820,
      "皙": 3821,
      "皮": 3822,
      "皺": 3823,
      "皻": 3824,
      "皽": 3825,
      "皿": 3826,
      "盂": 3827,
      "盃": 3828,
      "盅": 3829,
      "盆": 3830,
      "盈": 3831,
      "益": 3832,
      "盎": 3833,
      "盏": 3834,
      "盒": 3835,
      "盔": 3836,
      "盛": 3837,
      "盜": 3838,
      "盞": 3839,
      "盟": 3840,
      "盡": 3841,
      "監": 3842,
      "盤": 3843,
      "盧": 3844,
      "盪": 3845,
      "目": 3846,
      "盯": 3847,
      "盲": 3848,
      "直": 3849,
      "相": 3850,
      "盼": 3851,
      "盾": 3852,
      "省": 3853,
      "眈": 3854,
      "眉": 3855,
      "看": 3856,
      "眛": 3857,
      "眞": 3858,
      "真": 3859,
      "眠": 3860,
      "眢": 3861,
      "眨": 3862,
      "眩": 3863,
      "眯": 3864,
      "眶": 3865,
      "眷": 3866,
      "眸": 3867,
      "眺": 3868,
      "眼": 3869,
      "眾": 3870,
      "着": 3871,
      "睄": 3872,
      "睇": 3873,
      "睏": 3874,
      "睖": 3875,
      "睛": 3876,
      "睜": 3877,
      "睞": 3878,
      "睡": 3879,
      "督": 3880,
      "睥": 3881,
      "睦": 3882,
      "睩": 3883,
      "睫": 3884,
      "睬": 3885,
      "睸": 3886,
      "睹": 3887,
      "睺": 3888,
      "睽": 3889,
      "睿": 3890,
      "瞄": 3891,
      "瞅": 3892,
      "瞇": 3893,
      "瞋": 3894,
      "瞌": 3895,
      "瞎": 3896,
      "瞏": 3897,
      "瞑": 3898,
      "瞓": 3899,
      "瞞": 3900,
      "瞠": 3901,
      "瞧": 3902,
      "瞪": 3903,
      "瞬": 3904,
      "瞭": 3905,
      "瞰": 3906,
      "瞳": 3907,
      "瞻": 3908,
      "瞿": 3909,
      "矇": 3910,
      "矋": 3911,
      "矖": 3912,
      "矗": 3913,
      "矚": 3914,
      "矛": 3915,
      "矜": 3916,
      "矢": 3917,
      "矣": 3918,
      "知": 3919,
      "矩": 3920,
      "短": 3921,
      "矮": 3922,
      "矯": 3923,
      "石": 3924,
      "矺": 3925,
      "矽": 3926,
      "矿": 3927,
      "码": 3928,
      "砂": 3929,
      "砌": 3930,
      "砍": 3931,
      "砒": 3932,
      "研": 3933,
      "砣": 3934,
      "砥": 3935,
      "砧": 3936,
      "砬": 3937,
      "砰": 3938,
      "砲": 3939,
      "破": 3940,
      "砵": 3941,
      "砸": 3942,
      "硃": 3943,
      "硅": 3944,
      "硏": 3945,
      "硝": 3946,
      "硤": 3947,
      "硫": 3948,
      "硬": 3949,
      "确": 3950,
      "硯": 3951,
      "碇": 3952,
      "碌": 3953,
      "碍": 3954,
      "碎": 3955,
      "碑": 3956,
      "碗": 3957,
      "碘": 3958,
      "碞": 3959,
      "碟": 3960,
      "碧": 3961,
      "碩": 3962,
      "碭": 3963,
      "碰": 3964,
      "碳": 3965,
      "確": 3966,
      "碼": 3967,
      "碾": 3968,
      "磁": 3969,
      "磅": 3970,
      "磊": 3971,
      "磋": 3972,
      "磐": 3973,
      "磒": 3974,
      "磕": 3975,
      "磚": 3976,
      "磛": 3977,
      "磡": 3978,
      "磧": 3979,
      "磨": 3980,
      "磯": 3981,
      "磷": 3982,
      "磺": 3983,
      "礁": 3984,
      "礎": 3985,
      "礙": 3986,
      "礦": 3987,
      "礫": 3988,
      "示": 3989,
      "礼": 3990,
      "社": 3991,
      "祀": 3992,
      "祁": 3993,
      "祆": 3994,
      "祇": 3995,
      "祈": 3996,
      "祉": 3997,
      "祐": 3998,
      "祕": 3999,
      "祖": 4000,
      "祗": 4001,
      "祚": 4002,
      "祜": 4003,
      "祝": 4004,
      "神": 4005,
      "祟": 4006,
      "祠": 4007,
      "祢": 4008,
      "祥": 4009,
      "票": 4010,
      "祭": 4011,
      "祺": 4012,
      "祼": 4013,
      "祿": 4014,
      "禁": 4015,
      "禍": 4016,
      "福": 4017,
      "禛": 4018,
      "禡": 4019,
      "禤": 4020,
      "禦": 4021,
      "禧": 4022,
      "禪": 4023,
      "禮": 4024,
      "禱": 4025,
      "禺": 4026,
      "离": 4027,
      "禽": 4028,
      "禾": 4029,
      "禿": 4030,
      "秀": 4031,
      "私": 4032,
      "秅": 4033,
      "秉": 4034,
      "秋": 4035,
      "种": 4036,
      "科": 4037,
      "秒": 4038,
      "秘": 4039,
      "租": 4040,
      "秤": 4041,
      "秦": 4042,
      "秧": 4043,
      "秩": 4044,
      "秬": 4045,
      "积": 4046,
      "称": 4047,
      "移": 4048,
      "稀": 4049,
      "稅": 4050,
      "稈": 4051,
      "程": 4052,
      "稍": 4053,
      "税": 4054,
      "稔": 4055,
      "稗": 4056,
      "稚": 4057,
      "稜": 4058,
      "稟": 4059,
      "稠": 4060,
      "種": 4061,
      "稱": 4062,
      "稳": 4063,
      "稷": 4064,
      "稹": 4065,
      "稻": 4066,
      "稽": 4067,
      "稿": 4068,
      "穀": 4069,
      "穆": 4070,
      "穌": 4071,
      "積": 4072,
      "穎": 4073,
      "穗": 4074,
      "穚": 4075,
      "穢": 4076,
      "穩": 4077,
      "穫": 4078,
      "穴": 4079,
      "究": 4080,
      "空": 4081,
      "穿": 4082,
      "突": 4083,
      "窄": 4084,
      "窈": 4085,
      "窒": 4086,
      "窕": 4087,
      "窖": 4088,
      "窗": 4089,
      "窘": 4090,
      "窟": 4091,
      "窦": 4092,
      "窩": 4093,
      "窪": 4094,
      "窮": 4095,
      "窰": 4096,
      "窺": 4097,
      "窿": 4098,
      "竄": 4099,
      "竅": 4100,
      "竇": 4101,
      "竉": 4102,
      "竊": 4103,
      "立": 4104,
      "站": 4105,
      "竟": 4106,
      "章": 4107,
      "竣": 4108,
      "童": 4109,
      "竪": 4110,
      "竭": 4111,
      "端": 4112,
      "競": 4113,
      "竹": 4114,
      "竺": 4115,
      "竻": 4116,
      "竽": 4117,
      "竿": 4118,
      "笄": 4119,
      "笆": 4120,
      "笈": 4121,
      "笏": 4122,
      "笑": 4123,
      "笘": 4124,
      "笙": 4125,
      "笛": 4126,
      "笠": 4127,
      "笡": 4128,
      "符": 4129,
      "笨": 4130,
      "笪": 4131,
      "第": 4132,
      "笭": 4133,
      "笮": 4134,
      "笱": 4135,
      "筆": 4136,
      "等": 4137,
      "筋": 4138,
      "筍": 4139,
      "筏": 4140,
      "筐": 4141,
      "筒": 4142,
      "答": 4143,
      "策": 4144,
      "筞": 4145,
      "筠": 4146,
      "筲": 4147,
      "筵": 4148,
      "筷": 4149,
      "简": 4150,
      "箇": 4151,
      "箋": 4152,
      "箍": 4153,
      "箏": 4154,
      "箔": 4155,
      "箕": 4156,
      "算": 4157,
      "箝": 4158,
      "管": 4159,
      "箭": 4160,
      "箱": 4161,
      "箴": 4162,
      "箸": 4163,
      "箾": 4164,
      "節": 4165,
      "範": 4166,
      "篇": 4167,
      "築": 4168,
      "篋": 4169,
      "篙": 4170,
      "篡": 4171,
      "篤": 4172,
      "篦": 4173,
      "篩": 4174,
      "篮": 4175,
      "篷": 4176,
      "篸": 4177,
      "篼": 4178,
      "篾": 4179,
      "簁": 4180,
      "簇": 4181,
      "簋": 4182,
      "簕": 4183,
      "簜": 4184,
      "簟": 4185,
      "簡": 4186,
      "簧": 4187,
      "簪": 4188,
      "簫": 4189,
      "簷": 4190,
      "簸": 4191,
      "簽": 4192,
      "簾": 4193,
      "簿": 4194,
      "籃": 4195,
      "籌": 4196,
      "籍": 4197,
      "籐": 4198,
      "籟": 4199,
      "籠": 4200,
      "籤": 4201,
      "籬": 4202,
      "籮": 4203,
      "籲": 4204,
      "米": 4205,
      "类": 4206,
      "籽": 4207,
      "粉": 4208,
      "粑": 4209,
      "粒": 4210,
      "粗": 4211,
      "粘": 4212,
      "粟": 4213,
      "粥": 4214,
      "粧": 4215,
      "粱": 4216,
      "粵": 4217,
      "粹": 4218,
      "粼": 4219,
      "粽": 4220,
      "精": 4221,
      "粿": 4222,
      "糉": 4223,
      "糊": 4224,
      "糍": 4225,
      "糕": 4226,
      "糖": 4227,
      "糙": 4228,
      "糜": 4229,
      "糝": 4230,
      "糞": 4231,
      "糟": 4232,
      "糠": 4233,
      "糢": 4234,
      "糧": 4235,
      "糬": 4236,
      "糭": 4237,
      "糯": 4238,
      "糰": 4239,
      "糴": 4240,
      "糸": 4241,
      "系": 4242,
      "糾": 4243,
      "紀": 4244,
      "紂": 4245,
      "約": 4246,
      "紅": 4247,
      "紆": 4248,
      "紊": 4249,
      "紋": 4250,
      "納": 4251,
      "紐": 4252,
      "紓": 4253,
      "純": 4254,
      "紕": 4255,
      "紗": 4256,
      "紙": 4257,
      "級": 4258,
      "紛": 4259,
      "紜": 4260,
      "素": 4261,
      "紡": 4262,
      "索": 4263,
      "紥": 4264,
      "紧": 4265,
      "紫": 4266,
      "紮": 4267,
      "累": 4268,
      "細": 4269,
      "紳": 4270,
      "紹": 4271,
      "終": 4272,
      "絃": 4273,
      "組": 4274,
      "結": 4275,
      "絕": 4276,
      "絞": 4277,
      "絡": 4278,
      "絣": 4279,
      "給": 4280,
      "絨": 4281,
      "絮": 4282,
      "統": 4283,
      "絲": 4284,
      "絶": 4285,
      "絹": 4286,
      "綀": 4287,
      "綁": 4288,
      "綉": 4289,
      "綏": 4290,
      "綑": 4291,
      "經": 4292,
      "綖": 4293,
      "綜": 4294,
      "綟": 4295,
      "綠": 4296,
      "綢": 4297,
      "綦": 4298,
      "綪": 4299,
      "綫": 4300,
      "維": 4301,
      "綱": 4302,
      "網": 4303,
      "綴": 4304,
      "綵": 4305,
      "綸": 4306,
      "綹": 4307,
      "綺": 4308,
      "綻": 4309,
      "綽": 4310,
      "綾": 4311,
      "綿": 4312,
      "緃": 4313,
      "緊": 4314,
      "緋": 4315,
      "緍": 4316,
      "緒": 4317,
      "緘": 4318,
      "線": 4319,
      "緝": 4320,
      "緞": 4321,
      "締": 4322,
      "緣": 4323,
      "編": 4324,
      "緩": 4325,
      "緬": 4326,
      "緯": 4327,
      "練": 4328,
      "緻": 4329,
      "縈": 4330,
      "縉": 4331,
      "縊": 4332,
      "縐": 4333,
      "縑": 4334,
      "縛": 4335,
      "縝": 4336,
      "縣": 4337,
      "縫": 4338,
      "縮": 4339,
      "縱": 4340,
      "縷": 4341,
      "總": 4342,
      "績": 4343,
      "繁": 4344,
      "繃": 4345,
      "繄": 4346,
      "繅": 4347,
      "繆": 4348,
      "繐": 4349,
      "繑": 4350,
      "織": 4351,
      "繚": 4352,
      "繞": 4353,
      "繡": 4354,
      "繣": 4355,
      "繩": 4356,
      "繪": 4357,
      "繫": 4358,
      "繭": 4359,
      "繳": 4360,
      "繹": 4361,
      "繼": 4362,
      "繽": 4363,
      "纂": 4364,
      "纈": 4365,
      "纊": 4366,
      "續": 4367,
      "纍": 4368,
      "纏": 4369,
      "纒": 4370,
      "纔": 4371,
      "纖": 4372,
      "纜": 4373,
      "级": 4374,
      "纪": 4375,
      "纸": 4376,
      "纽": 4377,
      "线": 4378,
      "组": 4379,
      "细": 4380,
      "织": 4381,
      "终": 4382,
      "绍": 4383,
      "经": 4384,
      "绑": 4385,
      "结": 4386,
      "绘": 4387,
      "给": 4388,
      "绝": 4389,
      "统": 4390,
      "继": 4391,
      "续": 4392,
      "维": 4393,
      "缆": 4394,
      "缕": 4395,
      "编": 4396,
      "缮": 4397,
      "缸": 4398,
      "缺": 4399,
      "缽": 4400,
      "罄": 4401,
      "罅": 4402,
      "罉": 4403,
      "罌": 4404,
      "罐": 4405,
      "网": 4406,
      "罔": 4407,
      "罕": 4408,
      "罗": 4409,
      "罟": 4410,
      "罨": 4411,
      "罩": 4412,
      "罪": 4413,
      "置": 4414,
      "罯": 4415,
      "罰": 4416,
      "署": 4417,
      "罵": 4418,
      "罷": 4419,
      "罹": 4420,
      "羅": 4421,
      "羈": 4422,
      "羊": 4423,
      "羌": 4424,
      "美": 4425,
      "羔": 4426,
      "羚": 4427,
      "羞": 4428,
      "羣": 4429,
      "群": 4430,
      "羥": 4431,
      "羨": 4432,
      "義": 4433,
      "羯": 4434,
      "羲": 4435,
      "羹": 4436,
      "羽": 4437,
      "翁": 4438,
      "翅": 4439,
      "翊": 4440,
      "翌": 4441,
      "習": 4442,
      "翔": 4443,
      "翕": 4444,
      "翟": 4445,
      "翠": 4446,
      "翡": 4447,
      "翩": 4448,
      "翰": 4449,
      "翱": 4450,
      "翳": 4451,
      "翹": 4452,
      "翻": 4453,
      "翼": 4454,
      "耀": 4455,
      "老": 4456,
      "考": 4457,
      "者": 4458,
      "耆": 4459,
      "耇": 4460,
      "而": 4461,
      "耍": 4462,
      "耐": 4463,
      "耕": 4464,
      "耗": 4465,
      "耘": 4466,
      "耦": 4467,
      "耨": 4468,
      "耳": 4469,
      "耶": 4470,
      "耷": 4471,
      "耻": 4472,
      "耽": 4473,
      "耾": 4474,
      "耿": 4475,
      "聆": 4476,
      "聊": 4477,
      "联": 4478,
      "聖": 4479,
      "聘": 4480,
      "聚": 4481,
      "聞": 4482,
      "聯": 4483,
      "聰": 4484,
      "聲": 4485,
      "聳": 4486,
      "聴": 4487,
      "聶": 4488,
      "職": 4489,
      "聽": 4490,
      "聾": 4491,
      "聿": 4492,
      "肃": 4493,
      "肅": 4494,
      "肆": 4495,
      "肇": 4496,
      "肉": 4497,
      "肊": 4498,
      "肋": 4499,
      "肌": 4500,
      "肏": 4501,
      "肓": 4502,
      "肖": 4503,
      "肘": 4504,
      "肚": 4505,
      "肛": 4506,
      "肝": 4507,
      "股": 4508,
      "肢": 4509,
      "肥": 4510,
      "肨": 4511,
      "肩": 4512,
      "肪": 4513,
      "肯": 4514,
      "肱": 4515,
      "育": 4516,
      "肴": 4517,
      "肶": 4518,
      "肺": 4519,
      "肿": 4520,
      "胃": 4521,
      "胅": 4522,
      "背": 4523,
      "胎": 4524,
      "胐": 4525,
      "胖": 4526,
      "胘": 4527,
      "胚": 4528,
      "胞": 4529,
      "胡": 4530,
      "胤": 4531,
      "胥": 4532,
      "胭": 4533,
      "胰": 4534,
      "胳": 4535,
      "胵": 4536,
      "胸": 4537,
      "胺": 4538,
      "能": 4539,
      "脂": 4540,
      "脅": 4541,
      "脆": 4542,
      "脈": 4543,
      "脊": 4544,
      "脏": 4545,
      "脑": 4546,
      "脚": 4547,
      "脛": 4548,
      "脢": 4549,
      "脣": 4550,
      "脧": 4551,
      "脩": 4552,
      "脫": 4553,
      "脯": 4554,
      "脱": 4555,
      "脷": 4556,
      "脹": 4557,
      "脽": 4558,
      "脾": 4559,
      "腆": 4560,
      "腋": 4561,
      "腌": 4562,
      "腍": 4563,
      "腎": 4564,
      "腐": 4565,
      "腑": 4566,
      "腔": 4567,
      "腕": 4568,
      "腡": 4569,
      "腥": 4570,
      "腦": 4571,
      "腩": 4572,
      "腫": 4573,
      "腬": 4574,
      "腮": 4575,
      "腯": 4576,
      "腰": 4577,
      "腱": 4578,
      "腳": 4579,
      "腸": 4580,
      "腹": 4581,
      "腺": 4582,
      "腻": 4583,
      "腿": 4584,
      "膀": 4585,
      "膁": 4586,
      "膈": 4587,
      "膉": 4588,
      "膊": 4589,
      "膎": 4590,
      "膏": 4591,
      "膚": 4592,
      "膛": 4593,
      "膜": 4594,
      "膝": 4595,
      "膠": 4596,
      "膦": 4597,
      "膨": 4598,
      "膩": 4599,
      "膳": 4600,
      "膶": 4601,
      "膺": 4602,
      "膼": 4603,
      "膽": 4604,
      "膾": 4605,
      "膿": 4606,
      "臀": 4607,
      "臂": 4608,
      "臃": 4609,
      "臉": 4610,
      "臊": 4611,
      "臌": 4612,
      "臍": 4613,
      "臒": 4614,
      "臓": 4615,
      "臘": 4616,
      "臟": 4617,
      "臠": 4618,
      "臢": 4619,
      "臣": 4620,
      "臥": 4621,
      "臧": 4622,
      "臨": 4623,
      "自": 4624,
      "臭": 4625,
      "至": 4626,
      "致": 4627,
      "臺": 4628,
      "臻": 4629,
      "臼": 4630,
      "舂": 4631,
      "舅": 4632,
      "與": 4633,
      "興": 4634,
      "舉": 4635,
      "舊": 4636,
      "舋": 4637,
      "舌": 4638,
      "舍": 4639,
      "舐": 4640,
      "舒": 4641,
      "舔": 4642,
      "舖": 4643,
      "舗": 4644,
      "舜": 4645,
      "舞": 4646,
      "舟": 4647,
      "舢": 4648,
      "舦": 4649,
      "舨": 4650,
      "航": 4651,
      "舫": 4652,
      "般": 4653,
      "舵": 4654,
      "舶": 4655,
      "船": 4656,
      "艃": 4657,
      "艄": 4658,
      "艇": 4659,
      "艔": 4660,
      "艘": 4661,
      "艙": 4662,
      "艦": 4663,
      "艮": 4664,
      "良": 4665,
      "艱": 4666,
      "色": 4667,
      "艷": 4668,
      "艹": 4669,
      "艺": 4670,
      "艾": 4671,
      "芃": 4672,
      "芋": 4673,
      "芒": 4674,
      "芙": 4675,
      "芝": 4676,
      "芡": 4677,
      "芥": 4678,
      "芦": 4679,
      "芫": 4680,
      "芬": 4681,
      "芭": 4682,
      "芯": 4683,
      "花": 4684,
      "芳": 4685,
      "芷": 4686,
      "芸": 4687,
      "芹": 4688,
      "芻": 4689,
      "芽": 4690,
      "芾": 4691,
      "苇": 4692,
      "苑": 4693,
      "苓": 4694,
      "苔": 4695,
      "苗": 4696,
      "苛": 4697,
      "苜": 4698,
      "苞": 4699,
      "苟": 4700,
      "若": 4701,
      "苦": 4702,
      "苯": 4703,
      "英": 4704,
      "苴": 4705,
      "苷": 4706,
      "茁": 4707,
      "茂": 4708,
      "范": 4709,
      "茄": 4710,
      "茅": 4711,
      "茉": 4712,
      "茗": 4713,
      "茜": 4714,
      "茨": 4715,
      "茫": 4716,
      "茭": 4717,
      "茱": 4718,
      "茲": 4719,
      "茵": 4720,
      "茶": 4721,
      "茸": 4722,
      "茹": 4723,
      "荀": 4724,
      "荃": 4725,
      "荇": 4726,
      "草": 4727,
      "荊": 4728,
      "荏": 4729,
      "荒": 4730,
      "荔": 4731,
      "荣": 4732,
      "药": 4733,
      "荳": 4734,
      "荷": 4735,
      "荻": 4736,
      "荼": 4737,
      "荽": 4738,
      "莆": 4739,
      "莉": 4740,
      "莊": 4741,
      "莎": 4742,
      "莓": 4743,
      "莖": 4744,
      "莘": 4745,
      "莞": 4746,
      "莢": 4747,
      "莧": 4748,
      "莫": 4749,
      "莱": 4750,
      "获": 4751,
      "莽": 4752,
      "菀": 4753,
      "菁": 4754,
      "菂": 4755,
      "菇": 4756,
      "菊": 4757,
      "菌": 4758,
      "菓": 4759,
      "菖": 4760,
      "菜": 4761,
      "菟": 4762,
      "菠": 4763,
      "菢": 4764,
      "菩": 4765,
      "華": 4766,
      "菱": 4767,
      "菲": 4768,
      "菻": 4769,
      "萃": 4770,
      "萄": 4771,
      "萊": 4772,
      "萌": 4773,
      "萍": 4774,
      "萎": 4775,
      "萣": 4776,
      "萨": 4777,
      "萩": 4778,
      "萬": 4779,
      "萱": 4780,
      "萺": 4781,
      "萼": 4782,
      "落": 4783,
      "葆": 4784,
      "葉": 4785,
      "著": 4786,
      "葛": 4787,
      "葡": 4788,
      "董": 4789,
      "葩": 4790,
      "葫": 4791,
      "葬": 4792,
      "葯": 4793,
      "葱": 4794,
      "葳": 4795,
      "葵": 4796,
      "葸": 4797,
      "葺": 4798,
      "葾": 4799,
      "蒂": 4800,
      "蒐": 4801,
      "蒔": 4802,
      "蒙": 4803,
      "蒜": 4804,
      "蒝": 4805,
      "蒞": 4806,
      "蒲": 4807,
      "蒴": 4808,
      "蒸": 4809,
      "蒼": 4810,
      "蒽": 4811,
      "蒿": 4812,
      "蓄": 4813,
      "蓆": 4814,
      "蓉": 4815,
      "蓋": 4816,
      "蓓": 4817,
      "蓬": 4818,
      "蓮": 4819,
      "蓺": 4820,
      "蓼": 4821,
      "蓿": 4822,
      "蔑": 4823,
      "蔓": 4824,
      "蔔": 4825,
      "蔗": 4826,
      "蔘": 4827,
      "蔚": 4828,
      "蔡": 4829,
      "蔣": 4830,
      "蔥": 4831,
      "蔫": 4832,
      "蔬": 4833,
      "蔭": 4834,
      "蔴": 4835,
      "蔸": 4836,
      "蔻": 4837,
      "蔽": 4838,
      "蕁": 4839,
      "蕃": 4840,
      "蕉": 4841,
      "蕊": 4842,
      "蕎": 4843,
      "蕙": 4844,
      "蕢": 4845,
      "蕤": 4846,
      "蕩": 4847,
      "蕪": 4848,
      "蕭": 4849,
      "蕹": 4850,
      "蕾": 4851,
      "薄": 4852,
      "薇": 4853,
      "薈": 4854,
      "薊": 4855,
      "薏": 4856,
      "薑": 4857,
      "薛": 4858,
      "薦": 4859,
      "薨": 4860,
      "薩": 4861,
      "薪": 4862,
      "薯": 4863,
      "薰": 4864,
      "薳": 4865,
      "藂": 4866,
      "藉": 4867,
      "藍": 4868,
      "藏": 4869,
      "藐": 4870,
      "藕": 4871,
      "藜": 4872,
      "藝": 4873,
      "藞": 4874,
      "藤": 4875,
      "藥": 4876,
      "藩": 4877,
      "藴": 4878,
      "藷": 4879,
      "藹": 4880,
      "藺": 4881,
      "藻": 4882,
      "蘅": 4883,
      "蘆": 4884,
      "蘇": 4885,
      "蘊": 4886,
      "蘋": 4887,
      "蘑": 4888,
      "蘙": 4889,
      "蘭": 4890,
      "蘸": 4891,
      "蘿": 4892,
      "虎": 4893,
      "虐": 4894,
      "虓": 4895,
      "虔": 4896,
      "處": 4897,
      "虛": 4898,
      "虜": 4899,
      "虞": 4900,
      "號": 4901,
      "虧": 4902,
      "虱": 4903,
      "虹": 4904,
      "蚊": 4905,
      "蚌": 4906,
      "蚓": 4907,
      "蚚": 4908,
      "蚣": 4909,
      "蚤": 4910,
      "蚪": 4911,
      "蚯": 4912,
      "蚱": 4913,
      "蚵": 4914,
      "蚶": 4915,
      "蚺": 4916,
      "蛀": 4917,
      "蛇": 4918,
      "蛋": 4919,
      "蛙": 4920,
      "蛛": 4921,
      "蛟": 4922,
      "蛤": 4923,
      "蛻": 4924,
      "蛾": 4925,
      "蜀": 4926,
      "蜂": 4927,
      "蜃": 4928,
      "蜆": 4929,
      "蜇": 4930,
      "蜈": 4931,
      "蜊": 4932,
      "蜍": 4933,
      "蜎": 4934,
      "蜑": 4935,
      "蜓": 4936,
      "蜕": 4937,
      "蜘": 4938,
      "蜚": 4939,
      "蜜": 4940,
      "蜞": 4941,
      "蜢": 4942,
      "蜥": 4943,
      "蜮": 4944,
      "蜴": 4945,
      "蜻": 4946,
      "蝄": 4947,
      "蝌": 4948,
      "蝎": 4949,
      "蝕": 4950,
      "蝗": 4951,
      "蝙": 4952,
      "蝞": 4953,
      "蝠": 4954,
      "蝦": 4955,
      "蝨": 4956,
      "蝴": 4957,
      "蝶": 4958,
      "蝸": 4959,
      "蝻": 4960,
      "螂": 4961,
      "螄": 4962,
      "螆": 4963,
      "融": 4964,
      "螗": 4965,
      "螞": 4966,
      "螢": 4967,
      "螳": 4968,
      "螺": 4969,
      "蟀": 4970,
      "蟆": 4971,
      "蟋": 4972,
      "蟌": 4973,
      "蟎": 4974,
      "蟑": 4975,
      "蟛": 4976,
      "蟠": 4977,
      "蟥": 4978,
      "蟧": 4979,
      "蟬": 4980,
      "蟮": 4981,
      "蟲": 4982,
      "蟹": 4983,
      "蟻": 4984,
      "蟾": 4985,
      "蠄": 4986,
      "蠅": 4987,
      "蠋": 4988,
      "蠍": 4989,
      "蠔": 4990,
      "蠟": 4991,
      "蠢": 4992,
      "蠣": 4993,
      "蠱": 4994,
      "蠶": 4995,
      "蠹": 4996,
      "蠻": 4997,
      "血": 4998,
      "衆": 4999,
      "衊": 5000,
      "行": 5001,
      "衍": 5002,
      "術": 5003,
      "街": 5004,
      "衙": 5005,
      "衛": 5006,
      "衝": 5007,
      "衞": 5008,
      "衡": 5009,
      "衣": 5010,
      "表": 5011,
      "衩": 5012,
      "衫": 5013,
      "衬": 5014,
      "衰": 5015,
      "衲": 5016,
      "衷": 5017,
      "衾": 5018,
      "衿": 5019,
      "袁": 5020,
      "袋": 5021,
      "袍": 5022,
      "袒": 5023,
      "袖": 5024,
      "被": 5025,
      "袭": 5026,
      "袱": 5027,
      "裁": 5028,
      "裂": 5029,
      "裇": 5030,
      "裏": 5031,
      "裔": 5032,
      "裕": 5033,
      "裘": 5034,
      "裙": 5035,
      "補": 5036,
      "裝": 5037,
      "裡": 5038,
      "裤": 5039,
      "裨": 5040,
      "裱": 5041,
      "裴": 5042,
      "裸": 5043,
      "裹": 5044,
      "製": 5045,
      "褂": 5046,
      "複": 5047,
      "褐": 5048,
      "褒": 5049,
      "褓": 5050,
      "褚": 5051,
      "褥": 5052,
      "褦": 5053,
      "褪": 5054,
      "褫": 5055,
      "褲": 5056,
      "褶": 5057,
      "褸": 5058,
      "褻": 5059,
      "襁": 5060,
      "襄": 5061,
      "襌": 5062,
      "襟": 5063,
      "襠": 5064,
      "襤": 5065,
      "襪": 5066,
      "襯": 5067,
      "襲": 5068,
      "襶": 5069,
      "襻": 5070,
      "西": 5071,
      "要": 5072,
      "覆": 5073,
      "覈": 5074,
      "見": 5075,
      "規": 5076,
      "覓": 5077,
      "視": 5078,
      "覘": 5079,
      "覦": 5080,
      "覧": 5081,
      "親": 5082,
      "覬": 5083,
      "覮": 5084,
      "観": 5085,
      "覴": 5086,
      "覺": 5087,
      "覽": 5088,
      "觀": 5089,
      "见": 5090,
      "观": 5091,
      "视": 5092,
      "觉": 5093,
      "角": 5094,
      "解": 5095,
      "觥": 5096,
      "触": 5097,
      "觸": 5098,
      "言": 5099,
      "訂": 5100,
      "訃": 5101,
      "計": 5102,
      "訊": 5103,
      "訌": 5104,
      "討": 5105,
      "訓": 5106,
      "訕": 5107,
      "託": 5108,
      "記": 5109,
      "訛": 5110,
      "訝": 5111,
      "訟": 5112,
      "訣": 5113,
      "訥": 5114,
      "訪": 5115,
      "設": 5116,
      "許": 5117,
      "訴": 5118,
      "診": 5119,
      "註": 5120,
      "証": 5121,
      "詀": 5122,
      "詁": 5123,
      "詆": 5124,
      "詈": 5125,
      "詏": 5126,
      "詐": 5127,
      "詔": 5128,
      "評": 5129,
      "詛": 5130,
      "詞": 5131,
      "詠": 5132,
      "詡": 5133,
      "詢": 5134,
      "詣": 5135,
      "試": 5136,
      "詧": 5137,
      "詩": 5138,
      "詫": 5139,
      "詬": 5140,
      "詭": 5141,
      "詮": 5142,
      "話": 5143,
      "該": 5144,
      "詳": 5145,
      "詹": 5146,
      "詼": 5147,
      "誅": 5148,
      "誇": 5149,
      "誌": 5150,
      "認": 5151,
      "誒": 5152,
      "誓": 5153,
      "誔": 5154,
      "誕": 5155,
      "誘": 5156,
      "語": 5157,
      "誠": 5158,
      "誡": 5159,
      "誣": 5160,
      "誤": 5161,
      "誥": 5162,
      "誦": 5163,
      "誨": 5164,
      "說": 5165,
      "説": 5166,
      "誰": 5167,
      "課": 5168,
      "誹": 5169,
      "誼": 5170,
      "調": 5171,
      "諃": 5172,
      "諄": 5173,
      "談": 5174,
      "諉": 5175,
      "請": 5176,
      "諒": 5177,
      "論": 5178,
      "諗": 5179,
      "諛": 5180,
      "諜": 5181,
      "諡": 5182,
      "諦": 5183,
      "諧": 5184,
      "諫": 5185,
      "諭": 5186,
      "諮": 5187,
      "諱": 5188,
      "諷": 5189,
      "諸": 5190,
      "諺": 5191,
      "諾": 5192,
      "謀": 5193,
      "謁": 5194,
      "謂": 5195,
      "謊": 5196,
      "謎": 5197,
      "謔": 5198,
      "謗": 5199,
      "謙": 5200,
      "講": 5201,
      "謝": 5202,
      "謠": 5203,
      "謢": 5204,
      "謨": 5205,
      "謩": 5206,
      "謫": 5207,
      "謬": 5208,
      "謹": 5209,
      "謾": 5210,
      "譁": 5211,
      "譅": 5212,
      "證": 5213,
      "譎": 5214,
      "譖": 5215,
      "識": 5216,
      "譚": 5217,
      "譜": 5218,
      "譠": 5219,
      "警": 5220,
      "譫": 5221,
      "譬": 5222,
      "譯": 5223,
      "議": 5224,
      "譲": 5225,
      "譴": 5226,
      "護": 5227,
      "譽": 5228,
      "讀": 5229,
      "讁": 5230,
      "變": 5231,
      "讎": 5232,
      "讒": 5233,
      "讓": 5234,
      "讕": 5235,
      "讚": 5236,
      "计": 5237,
      "订": 5238,
      "认": 5239,
      "讨": 5240,
      "让": 5241,
      "议": 5242,
      "记": 5243,
      "讲": 5244,
      "评": 5245,
      "识": 5246,
      "诉": 5247,
      "诊": 5248,
      "词": 5249,
      "译": 5250,
      "试": 5251,
      "话": 5252,
      "诞": 5253,
      "该": 5254,
      "语": 5255,
      "误": 5256,
      "诱": 5257,
      "请": 5258,
      "诸": 5259,
      "诺": 5260,
      "读": 5261,
      "调": 5262,
      "谊": 5263,
      "谢": 5264,
      "谱": 5265,
      "谷": 5266,
      "谿": 5267,
      "豁": 5268,
      "豂": 5269,
      "豆": 5270,
      "豈": 5271,
      "豉": 5272,
      "豎": 5273,
      "豐": 5274,
      "豔": 5275,
      "豚": 5276,
      "象": 5277,
      "豪": 5278,
      "豫": 5279,
      "豬": 5280,
      "豹": 5281,
      "貂": 5282,
      "貅": 5283,
      "貌": 5284,
      "貓": 5285,
      "貔": 5286,
      "貝": 5287,
      "貞": 5288,
      "負": 5289,
      "財": 5290,
      "貢": 5291,
      "貧": 5292,
      "貨": 5293,
      "販": 5294,
      "貪": 5295,
      "貫": 5296,
      "責": 5297,
      "貯": 5298,
      "貳": 5299,
      "貴": 5300,
      "貶": 5301,
      "買": 5302,
      "貸": 5303,
      "費": 5304,
      "貼": 5305,
      "貽": 5306,
      "貿": 5307,
      "賀": 5308,
      "賂": 5309,
      "賃": 5310,
      "賄": 5311,
      "賅": 5312,
      "資": 5313,
      "賈": 5314,
      "賊": 5315,
      "賑": 5316,
      "賒": 5317,
      "賓": 5318,
      "賜": 5319,
      "賞": 5320,
      "賠": 5321,
      "賢": 5322,
      "賣": 5323,
      "賤": 5324,
      "賦": 5325,
      "賧": 5326,
      "質": 5327,
      "賬": 5328,
      "賭": 5329,
      "賴": 5330,
      "賺": 5331,
      "購": 5332,
      "賽": 5333,
      "贅": 5334,
      "贈": 5335,
      "贊": 5336,
      "贍": 5337,
      "贏": 5338,
      "贓": 5339,
      "贖": 5340,
      "贗": 5341,
      "贛": 5342,
      "货": 5343,
      "质": 5344,
      "贵": 5345,
      "贼": 5346,
      "赏": 5347,
      "赐": 5348,
      "赖": 5349,
      "赠": 5350,
      "赢": 5351,
      "赤": 5352,
      "赦": 5353,
      "赧": 5354,
      "赫": 5355,
      "走": 5356,
      "赴": 5357,
      "起": 5358,
      "趁": 5359,
      "超": 5360,
      "越": 5361,
      "趌": 5362,
      "趕": 5363,
      "趙": 5364,
      "趜": 5365,
      "趟": 5366,
      "趣": 5367,
      "趨": 5368,
      "趯": 5369,
      "趲": 5370,
      "足": 5371,
      "趴": 5372,
      "趷": 5373,
      "趺": 5374,
      "趻": 5375,
      "趾": 5376,
      "趿": 5377,
      "跁": 5378,
      "跆": 5379,
      "跈": 5380,
      "跋": 5381,
      "跌": 5382,
      "跑": 5383,
      "跙": 5384,
      "跛": 5385,
      "距": 5386,
      "跟": 5387,
      "跡": 5388,
      "跣": 5389,
      "跤": 5390,
      "跨": 5391,
      "跩": 5392,
      "跪": 5393,
      "路": 5394,
      "跲": 5395,
      "跳": 5396,
      "跴": 5397,
      "踎": 5398,
      "踏": 5399,
      "踐": 5400,
      "踜": 5401,
      "踝": 5402,
      "踞": 5403,
      "踢": 5404,
      "踩": 5405,
      "踪": 5406,
      "踭": 5407,
      "踮": 5408,
      "踱": 5409,
      "踴": 5410,
      "踵": 5411,
      "踹": 5412,
      "踼": 5413,
      "踿": 5414,
      "蹄": 5415,
      "蹅": 5416,
      "蹈": 5417,
      "蹉": 5418,
      "蹊": 5419,
      "蹋": 5420,
      "蹔": 5421,
      "蹟": 5422,
      "蹤": 5423,
      "蹦": 5424,
      "蹱": 5425,
      "蹲": 5426,
      "蹴": 5427,
      "蹸": 5428,
      "蹺": 5429,
      "躀": 5430,
      "躁": 5431,
      "躂": 5432,
      "躆": 5433,
      "躉": 5434,
      "躋": 5435,
      "躍": 5436,
      "躓": 5437,
      "躝": 5438,
      "躡": 5439,
      "身": 5440,
      "躬": 5441,
      "躭": 5442,
      "躯": 5443,
      "躲": 5444,
      "躺": 5445,
      "躽": 5446,
      "軀": 5447,
      "車": 5448,
      "軌": 5449,
      "軍": 5450,
      "軑": 5451,
      "軒": 5452,
      "軔": 5453,
      "軚": 5454,
      "軛": 5455,
      "軟": 5456,
      "軨": 5457,
      "軭": 5458,
      "軸": 5459,
      "軻": 5460,
      "軼": 5461,
      "軾": 5462,
      "較": 5463,
      "載": 5464,
      "輋": 5465,
      "輔": 5466,
      "輕": 5467,
      "輘": 5468,
      "輛": 5469,
      "輝": 5470,
      "輟": 5471,
      "輩": 5472,
      "輪": 5473,
      "輯": 5474,
      "輵": 5475,
      "輷": 5476,
      "輸": 5477,
      "輻": 5478,
      "輾": 5479,
      "輿": 5480,
      "轄": 5481,
      "轅": 5482,
      "轆": 5483,
      "轇": 5484,
      "轉": 5485,
      "轍": 5486,
      "轎": 5487,
      "轔": 5488,
      "轕": 5489,
      "轟": 5490,
      "车": 5491,
      "转": 5492,
      "轻": 5493,
      "辛": 5494,
      "辜": 5495,
      "辟": 5496,
      "辣": 5497,
      "辦": 5498,
      "辨": 5499,
      "辭": 5500,
      "辮": 5501,
      "辯": 5502,
      "辰": 5503,
      "辱": 5504,
      "農": 5505,
      "边": 5506,
      "迂": 5507,
      "迄": 5508,
      "迅": 5509,
      "迆": 5510,
      "过": 5511,
      "迎": 5512,
      "运": 5513,
      "近": 5514,
      "返": 5515,
      "还": 5516,
      "这": 5517,
      "进": 5518,
      "远": 5519,
      "违": 5520,
      "连": 5521,
      "迢": 5522,
      "迥": 5523,
      "迦": 5524,
      "迪": 5525,
      "迫": 5526,
      "迭": 5527,
      "述": 5528,
      "迴": 5529,
      "迷": 5530,
      "迹": 5531,
      "迺": 5532,
      "追": 5533,
      "迾": 5534,
      "退": 5535,
      "送": 5536,
      "逃": 5537,
      "逅": 5538,
      "逆": 5539,
      "逊": 5540,
      "逍": 5541,
      "透": 5542,
      "逐": 5543,
      "逑": 5544,
      "途": 5545,
      "逕": 5546,
      "逗": 5547,
      "這": 5548,
      "通": 5549,
      "逛": 5550,
      "逝": 5551,
      "逞": 5552,
      "速": 5553,
      "造": 5554,
      "逢": 5555,
      "連": 5556,
      "逮": 5557,
      "週": 5558,
      "進": 5559,
      "逵": 5560,
      "逸": 5561,
      "逹": 5562,
      "逼": 5563,
      "逾": 5564,
      "遁": 5565,
      "遂": 5566,
      "遇": 5567,
      "遊": 5568,
      "運": 5569,
      "遍": 5570,
      "過": 5571,
      "遏": 5572,
      "遐": 5573,
      "道": 5574,
      "達": 5575,
      "違": 5576,
      "遙": 5577,
      "遜": 5578,
      "遞": 5579,
      "遠": 5580,
      "遢": 5581,
      "遣": 5582,
      "遨": 5583,
      "適": 5584,
      "遭": 5585,
      "遮": 5586,
      "遯": 5587,
      "遲": 5588,
      "遴": 5589,
      "遵": 5590,
      "遶": 5591,
      "遷": 5592,
      "選": 5593,
      "遺": 5594,
      "遼": 5595,
      "避": 5596,
      "邀": 5597,
      "邁": 5598,
      "邂": 5599,
      "還": 5600,
      "邇": 5601,
      "邈": 5602,
      "邉": 5603,
      "邊": 5604,
      "邋": 5605,
      "邏": 5606,
      "邑": 5607,
      "邕": 5608,
      "邢": 5609,
      "那": 5610,
      "邦": 5611,
      "邨": 5612,
      "邪": 5613,
      "邰": 5614,
      "邱": 5615,
      "邵": 5616,
      "邸": 5617,
      "郁": 5618,
      "郃": 5619,
      "郊": 5620,
      "郎": 5621,
      "郝": 5622,
      "郡": 5623,
      "部": 5624,
      "郭": 5625,
      "郴": 5626,
      "郵": 5627,
      "都": 5628,
      "郾": 5629,
      "鄂": 5630,
      "鄉": 5631,
      "鄒": 5632,
      "鄙": 5633,
      "鄜": 5634,
      "鄧": 5635,
      "鄭": 5636,
      "鄰": 5637,
      "鄺": 5638,
      "酉": 5639,
      "酋": 5640,
      "酌": 5641,
      "配": 5642,
      "酎": 5643,
      "酒": 5644,
      "酗": 5645,
      "酚": 5646,
      "酡": 5647,
      "酢": 5648,
      "酣": 5649,
      "酥": 5650,
      "酪": 5651,
      "酬": 5652,
      "酮": 5653,
      "酱": 5654,
      "酵": 5655,
      "酶": 5656,
      "酷": 5657,
      "酸": 5658,
      "酹": 5659,
      "醃": 5660,
      "醇": 5661,
      "醉": 5662,
      "醋": 5663,
      "醒": 5664,
      "醖": 5665,
      "醛": 5666,
      "醜": 5667,
      "醫": 5668,
      "醬": 5669,
      "醮": 5670,
      "醺": 5671,
      "釀": 5672,
      "釁": 5673,
      "采": 5674,
      "釋": 5675,
      "里": 5676,
      "重": 5677,
      "野": 5678,
      "量": 5679,
      "釐": 5680,
      "金": 5681,
      "釗": 5682,
      "釘": 5683,
      "釜": 5684,
      "針": 5685,
      "釣": 5686,
      "釦": 5687,
      "釧": 5688,
      "鈅": 5689,
      "鈈": 5690,
      "鈉": 5691,
      "鈊": 5692,
      "鈍": 5693,
      "鈎": 5694,
      "鈐": 5695,
      "鈒": 5696,
      "鈔": 5697,
      "鈕": 5698,
      "鈞": 5699,
      "鈣": 5700,
      "鈪": 5701,
      "鈴": 5702,
      "鈺": 5703,
      "鉀": 5704,
      "鉅": 5705,
      "鉎": 5706,
      "鉗": 5707,
      "鉚": 5708,
      "鉛": 5709,
      "鉞": 5710,
      "鉤": 5711,
      "鉸": 5712,
      "鉻": 5713,
      "銀": 5714,
      "銃": 5715,
      "銅": 5716,
      "銓": 5717,
      "銘": 5718,
      "銜": 5719,
      "銬": 5720,
      "銲": 5721,
      "銳": 5722,
      "銷": 5723,
      "銹": 5724,
      "銻": 5725,
      "銼": 5726,
      "鋁": 5727,
      "鋃": 5728,
      "鋅": 5729,
      "鋆": 5730,
      "鋒": 5731,
      "鋤": 5732,
      "鋪": 5733,
      "鋭": 5734,
      "鋰": 5735,
      "鋸": 5736,
      "鋼": 5737,
      "錄": 5738,
      "錇": 5739,
      "錐": 5740,
      "錑": 5741,
      "錔": 5742,
      "錘": 5743,
      "錚": 5744,
      "錢": 5745,
      "錦": 5746,
      "錨": 5747,
      "錫": 5748,
      "錯": 5749,
      "録": 5750,
      "錶": 5751,
      "鍀": 5752,
      "鍇": 5753,
      "鍊": 5754,
      "鍋": 5755,
      "鍍": 5756,
      "鍔": 5757,
      "鍘": 5758,
      "鍚": 5759,
      "鍛": 5760,
      "鍟": 5761,
      "鍥": 5762,
      "鍵": 5763,
      "鍾": 5764,
      "鎂": 5765,
      "鎄": 5766,
      "鎅": 5767,
      "鎇": 5768,
      "鎊": 5769,
      "鎏": 5770,
      "鎔": 5771,
      "鎖": 5772,
      "鎗": 5773,
      "鎚": 5774,
      "鎝": 5775,
      "鎢": 5776,
      "鎧": 5777,
      "鎭": 5778,
      "鎮": 5779,
      "鏈": 5780,
      "鏍": 5781,
      "鏗": 5782,
      "鏘": 5783,
      "鏟": 5784,
      "鏡": 5785,
      "鏢": 5786,
      "鏨": 5787,
      "鏵": 5788,
      "鏹": 5789,
      "鏽": 5790,
      "鐐": 5791,
      "鐘": 5792,
      "鐡": 5793,
      "鐦": 5794,
      "鐮": 5795,
      "鐳": 5796,
      "鐵": 5797,
      "鐸": 5798,
      "鐺": 5799,
      "鑄": 5800,
      "鑊": 5801,
      "鑑": 5802,
      "鑒": 5803,
      "鑣": 5804,
      "鑥": 5805,
      "鑪": 5806,
      "鑫": 5807,
      "鑲": 5808,
      "鑼": 5809,
      "鑽": 5810,
      "鑿": 5811,
      "针": 5812,
      "钟": 5813,
      "钱": 5814,
      "错": 5815,
      "長": 5816,
      "镽": 5817,
      "門": 5818,
      "閂": 5819,
      "閃": 5820,
      "閉": 5821,
      "開": 5822,
      "閏": 5823,
      "閑": 5824,
      "閒": 5825,
      "間": 5826,
      "閘": 5827,
      "閡": 5828,
      "閣": 5829,
      "閤": 5830,
      "閥": 5831,
      "閨": 5832,
      "閩": 5833,
      "閪": 5834,
      "閬": 5835,
      "閱": 5836,
      "閲": 5837,
      "閹": 5838,
      "閻": 5839,
      "闆": 5840,
      "闈": 5841,
      "闊": 5842,
      "闋": 5843,
      "闌": 5844,
      "闍": 5845,
      "闒": 5846,
      "闓": 5847,
      "闔": 5848,
      "闕": 5849,
      "闖": 5850,
      "關": 5851,
      "闡": 5852,
      "闢": 5853,
      "闭": 5854,
      "问": 5855,
      "间": 5856,
      "闻": 5857,
      "阅": 5858,
      "阜": 5859,
      "阪": 5860,
      "阮": 5861,
      "阱": 5862,
      "防": 5863,
      "阵": 5864,
      "阻": 5865,
      "阿": 5866,
      "陀": 5867,
      "陂": 5868,
      "附": 5869,
      "陋": 5870,
      "陌": 5871,
      "降": 5872,
      "限": 5873,
      "陔": 5874,
      "陜": 5875,
      "陝": 5876,
      "陞": 5877,
      "陡": 5878,
      "院": 5879,
      "陣": 5880,
      "除": 5881,
      "险": 5882,
      "陪": 5883,
      "陰": 5884,
      "陳": 5885,
      "陵": 5886,
      "陶": 5887,
      "陷": 5888,
      "陸": 5889,
      "陽": 5890,
      "隂": 5891,
      "隅": 5892,
      "隆": 5893,
      "隊": 5894,
      "隋": 5895,
      "隍": 5896,
      "階": 5897,
      "随": 5898,
      "隐": 5899,
      "隔": 5900,
      "隕": 5901,
      "隘": 5902,
      "隙": 5903,
      "際": 5904,
      "障": 5905,
      "隟": 5906,
      "隧": 5907,
      "隨": 5908,
      "險": 5909,
      "隱": 5910,
      "隴": 5911,
      "隸": 5912,
      "隻": 5913,
      "难": 5914,
      "雀": 5915,
      "雁": 5916,
      "雄": 5917,
      "雅": 5918,
      "集": 5919,
      "雇": 5920,
      "雉": 5921,
      "雋": 5922,
      "雌": 5923,
      "雍": 5924,
      "雒": 5925,
      "雕": 5926,
      "雖": 5927,
      "雙": 5928,
      "雛": 5929,
      "雜": 5930,
      "雞": 5931,
      "離": 5932,
      "難": 5933,
      "雨": 5934,
      "雪": 5935,
      "雯": 5936,
      "雲": 5937,
      "零": 5938,
      "雷": 5939,
      "雹": 5940,
      "電": 5941,
      "需": 5942,
      "霄": 5943,
      "霆": 5944,
      "震": 5945,
      "霉": 5946,
      "霍": 5947,
      "霎": 5948,
      "霑": 5949,
      "霓": 5950,
      "霖": 5951,
      "霜": 5952,
      "霞": 5953,
      "霧": 5954,
      "露": 5955,
      "霸": 5956,
      "霹": 5957,
      "霽": 5958,
      "霾": 5959,
      "靂": 5960,
      "靄": 5961,
      "靇": 5962,
      "靈": 5963,
      "青": 5964,
      "靖": 5965,
      "静": 5966,
      "靚": 5967,
      "靛": 5968,
      "靜": 5969,
      "非": 5970,
      "靠": 5971,
      "靡": 5972,
      "面": 5973,
      "靦": 5974,
      "革": 5975,
      "靴": 5976,
      "靶": 5977,
      "靼": 5978,
      "鞅": 5979,
      "鞋": 5980,
      "鞍": 5981,
      "鞏": 5982,
      "鞘": 5983,
      "鞠": 5984,
      "鞦": 5985,
      "鞫": 5986,
      "鞭": 5987,
      "韃": 5988,
      "韆": 5989,
      "韋": 5990,
      "韌": 5991,
      "韓": 5992,
      "韜": 5993,
      "韞": 5994,
      "韦": 5995,
      "韧": 5996,
      "音": 5997,
      "韶": 5998,
      "韻": 5999,
      "響": 6000,
      "頁": 6001,
      "頂": 6002,
      "頃": 6003,
      "項": 6004,
      "順": 6005,
      "頇": 6006,
      "須": 6007,
      "頌": 6008,
      "預": 6009,
      "頑": 6010,
      "頒": 6011,
      "頓": 6012,
      "頗": 6013,
      "領": 6014,
      "頡": 6015,
      "頤": 6016,
      "頭": 6017,
      "頰": 6018,
      "頴": 6019,
      "頸": 6020,
      "頹": 6021,
      "頻": 6022,
      "頽": 6023,
      "顆": 6024,
      "題": 6025,
      "額": 6026,
      "顏": 6027,
      "顔": 6028,
      "願": 6029,
      "顛": 6030,
      "類": 6031,
      "顧": 6032,
      "顫": 6033,
      "顯": 6034,
      "顱": 6035,
      "顳": 6036,
      "顴": 6037,
      "项": 6038,
      "须": 6039,
      "顾": 6040,
      "频": 6041,
      "题": 6042,
      "额": 6043,
      "風": 6044,
      "颯": 6045,
      "颱": 6046,
      "颳": 6047,
      "颶": 6048,
      "飄": 6049,
      "飆": 6050,
      "风": 6051,
      "飓": 6052,
      "飚": 6053,
      "飛": 6054,
      "飞": 6055,
      "食": 6056,
      "飢": 6057,
      "飣": 6058,
      "飩": 6059,
      "飪": 6060,
      "飯": 6061,
      "飲": 6062,
      "飴": 6063,
      "飼": 6064,
      "飽": 6065,
      "飾": 6066,
      "餃": 6067,
      "餅": 6068,
      "餈": 6069,
      "餉": 6070,
      "養": 6071,
      "餋": 6072,
      "餌": 6073,
      "餐": 6074,
      "餒": 6075,
      "餓": 6076,
      "餘": 6077,
      "餚": 6078,
      "餛": 6079,
      "餞": 6080,
      "餡": 6081,
      "館": 6082,
      "餲": 6083,
      "餵": 6084,
      "餸": 6085,
      "餼": 6086,
      "餽": 6087,
      "餾": 6088,
      "餿": 6089,
      "饅": 6090,
      "饈": 6091,
      "饉": 6092,
      "饊": 6093,
      "饋": 6094,
      "饌": 6095,
      "饑": 6096,
      "饒": 6097,
      "饭": 6098,
      "首": 6099,
      "馗": 6100,
      "香": 6101,
      "馨": 6102,
      "馩": 6103,
      "馬": 6104,
      "馭": 6105,
      "馮": 6106,
      "馱": 6107,
      "馳": 6108,
      "馴": 6109,
      "駁": 6110,
      "駐": 6111,
      "駒": 6112,
      "駕": 6113,
      "駛": 6114,
      "駝": 6115,
      "駟": 6116,
      "駭": 6117,
      "駱": 6118,
      "駿": 6119,
      "騎": 6120,
      "騙": 6121,
      "騭": 6122,
      "騮": 6123,
      "騰": 6124,
      "騷": 6125,
      "騾": 6126,
      "驀": 6127,
      "驅": 6128,
      "驍": 6129,
      "驕": 6130,
      "驗": 6131,
      "驚": 6132,
      "驛": 6133,
      "驟": 6134,
      "驢": 6135,
      "马": 6136,
      "验": 6137,
      "骨": 6138,
      "骯": 6139,
      "骰": 6140,
      "骲": 6141,
      "骳": 6142,
      "骷": 6143,
      "骸": 6144,
      "骹": 6145,
      "骼": 6146,
      "骾": 6147,
      "髀": 6148,
      "髁": 6149,
      "髆": 6150,
      "髏": 6151,
      "髒": 6152,
      "髓": 6153,
      "體": 6154,
      "髖": 6155,
      "高": 6156,
      "髦": 6157,
      "髧": 6158,
      "髮": 6159,
      "髹": 6160,
      "髻": 6161,
      "鬃": 6162,
      "鬆": 6163,
      "鬍": 6164,
      "鬙": 6165,
      "鬚": 6166,
      "鬟": 6167,
      "鬠": 6168,
      "鬥": 6169,
      "鬧": 6170,
      "鬯": 6171,
      "鬱": 6172,
      "鬼": 6173,
      "魁": 6174,
      "魂": 6175,
      "魄": 6176,
      "魅": 6177,
      "魍": 6178,
      "魎": 6179,
      "魏": 6180,
      "魑": 6181,
      "魔": 6182,
      "魚": 6183,
      "魟": 6184,
      "魯": 6185,
      "魷": 6186,
      "鮋": 6187,
      "鮑": 6188,
      "鮓": 6189,
      "鮫": 6190,
      "鮭": 6191,
      "鮮": 6192,
      "鯁": 6193,
      "鯇": 6194,
      "鯉": 6195,
      "鯊": 6196,
      "鯖": 6197,
      "鯨": 6198,
      "鯪": 6199,
      "鯭": 6200,
      "鯰": 6201,
      "鯿": 6202,
      "鰂": 6203,
      "鰓": 6204,
      "鰨": 6205,
      "鰭": 6206,
      "鰲": 6207,
      "鰻": 6208,
      "鱈": 6209,
      "鱉": 6210,
      "鱒": 6211,
      "鱔": 6212,
      "鱗": 6213,
      "鱟": 6214,
      "鱧": 6215,
      "鱲": 6216,
      "鱷": 6217,
      "鱸": 6218,
      "鳥": 6219,
      "鳩": 6220,
      "鳳": 6221,
      "鳴": 6222,
      "鳶": 6223,
      "鴉": 6224,
      "鴕": 6225,
      "鴛": 6226,
      "鴣": 6227,
      "鴦": 6228,
      "鴨": 6229,
      "鴻": 6230,
      "鴿": 6231,
      "鵑": 6232,
      "鵝": 6233,
      "鵡": 6234,
      "鵪": 6235,
      "鵬": 6236,
      "鵰": 6237,
      "鵲": 6238,
      "鶇": 6239,
      "鶉": 6240,
      "鶥": 6241,
      "鶩": 6242,
      "鶴": 6243,
      "鶻": 6244,
      "鷂": 6245,
      "鷄": 6246,
      "鷓": 6247,
      "鷗": 6248,
      "鷯": 6249,
      "鷲": 6250,
      "鷸": 6251,
      "鷹": 6252,
      "鷺": 6253,
      "鸚": 6254,
      "鸝": 6255,
      "鸞": 6256,
      "鸟": 6257,
      "鹅": 6258,
      "鹈": 6259,
      "鹕": 6260,
      "鹵": 6261,
      "鹹": 6262,
      "鹼": 6263,
      "鹽": 6264,
      "鹿": 6265,
      "麂": 6266,
      "麈": 6267,
      "麊": 6268,
      "麋": 6269,
      "麒": 6270,
      "麓": 6271,
      "麖": 6272,
      "麗": 6273,
      "麝": 6274,
      "麟": 6275,
      "麥": 6276,
      "麪": 6277,
      "麫": 6278,
      "麵": 6279,
      "麻": 6280,
      "麼": 6281,
      "麽": 6282,
      "黃": 6283,
      "黎": 6284,
      "黏": 6285,
      "黐": 6286,
      "黑": 6287,
      "黔": 6288,
      "默": 6289,
      "黙": 6290,
      "黚": 6291,
      "黛": 6292,
      "黜": 6293,
      "黝": 6294,
      "點": 6295,
      "黢": 6296,
      "黨": 6297,
      "黯": 6298,
      "黴": 6299,
      "黷": 6300,
      "黸": 6301,
      "黹": 6302,
      "鼆": 6303,
      "鼎": 6304,
      "鼐": 6305,
      "鼓": 6306,
      "鼠": 6307,
      "鼻": 6308,
      "鼾": 6309,
      "齃": 6310,
      "齊": 6311,
      "齋": 6312,
      "齐": 6313,
      "齒": 6314,
      "齙": 6315,
      "齟": 6316,
      "齡": 6317,
      "齣": 6318,
      "齧": 6319,
      "龍": 6320,
      "龐": 6321,
      "龑": 6322,
      "龔": 6323,
      "龕": 6324,
      "龙": 6325,
      "龜": 6326,
      "가": 6327,
      "김": 6328,
      "남": 6329,
      "년": 6330,
      "봉": 6331,
      "북": 6332,
      "빈": 6333,
      "산": 6334,
      "상": 6335,
      "서": 6336,
      "소": 6337,
      "이": 6338,
      "정": 6339,
      "족": 6340,
      "주": 6341,
      "지": 6342,
      "진": 6343,
      "한": 6344,
      "현": 6345,
      "훈": 6346,
      "": 6347,
      "": 6348,
      "": 6349,
      "": 6350,
      "": 6351,
      "": 6352,
      "": 6353,
      "": 6354,
      "": 6355,
      "": 6356,
      "來": 6357,
      "不": 6358,
      "年": 6359,
      "利": 6360,
      "行": 6361,
      "︰": 6362,
      "﹐": 6363,
      "﹑": 6364,
      "﹕": 6365,
      "﹖": 6366,
      "！": 6367,
      "＂": 6368,
      "％": 6369,
      "（": 6370,
      "）": 6371,
      "＋": 6372,
      "，": 6373,
      "－": 6374,
      "．": 6375,
      "／": 6376,
      "２": 6377,
      "３": 6378,
      "４": 6379,
      "：": 6380,
      "；": 6381,
      "？": 6382,
      "Ａ": 6383,
      "Ｂ": 6384,
      "Ｄ": 6385,
      "Ｉ": 6386,
      "Ｋ": 6387,
      "Ｍ": 6388,
      "Ｎ": 6389,
      "Ｏ": 6390,
      "Ｐ": 6391,
      "Ｑ": 6392,
      "～": 6393,
      "￼": 6394,
      "𠌥": 6395,
      "𠓼": 6396,
      "𠜱": 6397,
      "𠝹": 6398,
      "𠮨": 6399,
      "𠮩": 6400,
      "𠰋": 6401,
      "𠰲": 6402,
      "𠱁": 6403,
      "𠱂": 6404,
      "𠱃": 6405,
      "𠱓": 6406,
      "𠱸": 6407,
      "𠲵": 6408,
      "𠳖": 6409,
      "𠴕": 6410,
      "𠵇": 6411,
      "𠵈": 6412,
      "𠵼": 6413,
      "𠵿": 6414,
      "𠶜": 6415,
      "𠸊": 6416,
      "𠸎": 6417,
      "𠸏": 6418,
      "𠹌": 6419,
      "𠹭": 6420,
      "𠹳": 6421,
      "𠹹": 6422,
      "𠹻": 6423,
      "𠺌": 6424,
      "𠺘": 6425,
      "𠺝": 6426,
      "𠺢": 6427,
      "𠺫": 6428,
      "𠺬": 6429,
      "𠻘": 6430,
      "𠻹": 6431,
      "𠻺": 6432,
      "𠼭": 6433,
      "𠼰": 6434,
      "𠼱": 6435,
      "𠼻": 6436,
      "𠽌": 6437,
      "𠽤": 6438,
      "𠾍": 6439,
      "𠾭": 6440,
      "𠾴": 6441,
      "𠾵": 6442,
      "𠾶": 6443,
      "𠾼": 6444,
      "𠿪": 6445,
      "𠿬": 6446,
      "𠿭": 6447,
      "𡀔": 6448,
      "𡀝": 6449,
      "𡀞": 6450,
      "𡁯": 6451,
      "𡁵": 6452,
      "𡁷": 6453,
      "𡁸": 6454,
      "𡁻": 6455,
      "𡂖": 6456,
      "𡂝": 6457,
      "𡃁": 6458,
      "𡃈": 6459,
      "𡃉": 6460,
      "𡃤": 6461,
      "𡃴": 6462,
      "𡃵": 6463,
      "𡄵": 6464,
      "𡄽": 6465,
      "𡆀": 6466,
      "𡆇": 6467,
      "𡇙": 6468,
      "𡚒": 6469,
      "𡲢": 6470,
      "𢃇": 6471,
      "𢆡": 6472,
      "𢚖": 6473,
      "𢛴": 6474,
      "𢝵": 6475,
      "𢞵": 6476,
      "𢤹": 6477,
      "𢪎": 6478,
      "𢫏": 6479,
      "𢫕": 6480,
      "𢫦": 6481,
      "𢬿": 6482,
      "𢭃": 6483,
      "𢯊": 6484,
      "𢯎": 6485,
      "𢰸": 6486,
      "𢱑": 6487,
      "𢱕": 6488,
      "𢱢": 6489,
      "𢲈": 6490,
      "𢲡": 6491,
      "𢲲": 6492,
      "𢲷": 6493,
      "𢳂": 6494,
      "𢳆": 6495,
      "𢴈": 6496,
      "𢵄": 6497,
      "𢵌": 6498,
      "𢵧": 6499,
      "𢶍": 6500,
      "𢶠": 6501,
      "𢶤": 6502,
      "𢷮": 6503,
      "𢷿": 6504,
      "𢺋": 6505,
      "𢺳": 6506,
      "𣘚": 6507,
      "𣚺": 6508,
      "𣤩": 6509,
      "𣲷": 6510,
      "𣿅": 6511,
      "𤁢": 6512,
      "𤓓": 6513,
      "𤗈": 6514,
      "𤶸": 6515,
      "𤷪": 6516,
      "𤺧": 6517,
      "𤿎": 6518,
      "𥀬": 6519,
      "𥁒": 6520,
      "𥄫": 6521,
      "𥇣": 6522,
      "𥋇": 6523,
      "𥔿": 6524,
      "𥚃": 6525,
      "𥹉": 6526,
      "𦂗": 6527,
      "𦂥": 6528,
      "𦉘": 6529,
      "𦛚": 6530,
      "𦟌": 6531,
      "𦠿": 6532,
      "𦡆": 6533,
      "𦢊": 6534,
      "𦣇": 6535,
      "𦧲": 6536,
      "𦧺": 6537,
      "𦻐": 6538,
      "𧊅": 6539,
      "𧕴": 6540,
      "𧘹": 6541,
      "𧝞": 6542,
      "𧟘": 6543,
      "𧢝": 6544,
      "𧣈": 6545,
      "𧥺": 6546,
      "𧨾": 6547,
      "𧬊": 6548,
      "𧶄": 6549,
      "𧽼": 6550,
      "𨀤": 6551,
      "𨂽": 6552,
      "𨂾": 6553,
      "𨃩": 6554,
      "𨅝": 6555,
      "𨆯": 6556,
      "𨈇": 6557,
      "𨉖": 6558,
      "𨋢": 6559,
      "𨳊": 6560,
      "𨳍": 6561,
      "𨳒": 6562,
      "𨶙": 6563,
      "𩓥": 6564,
      "𩗴": 6565,
      "𩜠": 6566,
      "𩟔": 6567,
      "𩩍": 6568,
      "𩬎": 6569,
      "𪘁": 6570,
      "𪘲": 6571,
      "𪙛": 6572,
      "𪚩": 6573,
      "𫫃": 6574,
      "𫬿": 6575,
      "𫭊": 6576,
      "𫲭": 6577,
      "𬜐": 6578,
      "𬦠": 6579,
      "𬧊": 6580,
      "𬧯": 6581,
      "𭨡": 6582,
      "𮄫": 6583,
      "周": 6584,
      "慈": 6585,
      "滋": 6586,
      "我哋": 6587,
      "可以": 6588,
      "一個": 6589,
      "佢哋": 6590,
      "呢個": 6591,
      "唔好": 6592,
      "真係": 6593,
      "唔係": 6594,
      "即係": 6595,
      "香港": 6596,
      "好多": 6597,
      "但係": 6598,
      "自己": 6599,
      "都係": 6600,
      "而家": 6601,
      "因為": 6602,
      "都唔": 6603,
      "所以": 6604,
      "如果": 6605,
      "20": 6606,
      "就係": 6607,
      "19": 6608,
      "覺得": 6609,
      "乜嘢": 6610,
      "好似": 6611,
      "之後": 6612,
      "今日": 6613,
      "唔知": 6614,
      "呢啲": 6615,
      "成日": 6616,
      "鍾意": 6617,
      "公司": 6618,
      "唔到": 6619,
      "有啲": 6620,
      "已經": 6621,
      "同埋": 6622,
      "嗰啲": 6623,
      "屋企": 6624,
      "你哋": 6625,
      "朋友": 6626,
      "喺度": 6627,
      "其實": 6628,
      "問題": 6629,
      "嗰個": 6630,
      "或者": 6631,
      "嘅人": 6632,
      "開始": 6633,
      "大家": 6634,
      "可能": 6635,
      "唔會": 6636,
      "噉樣": 6637,
      "見到": 6638,
      "應該": 6639,
      "時間": 6640,
      "知道": 6641,
      "點解": 6642,
      "不過": 6643,
      "中國": 6644,
      "時候": 6645,
      "世界": 6646,
      "兩個": 6647,
      "佢嘅": 6648,
      "嗰陣": 6649,
      "有冇": 6650,
      "咁多": 6651,
      "唔使": 6652,
      "呢度": 6653,
      "嘅嘢": 6654,
      "政府": 6655,
      "有個": 6656,
      "學生": 6657,
      "邊個": 6658,
      "都有": 6659,
      "我想": 6660,
      "都冇": 6661,
      "個人": 6662,
      "佢係": 6663,
      "需要": 6664,
      "一齊": 6665,
      "我嘅": 6666,
      "其他": 6667,
      "我唔": 6668,
      "第一": 6669,
      "快啲": 6670,
      "201": 6671,
      "都會": 6672,
      "一定": 6673,
      "00": 6674,
      "俾人": 6675,
      "嗰度": 6676,
      "出嚟": 6677,
      "an": 6678,
      "大學": 6679,
      "on": 6680,
      "工作": 6681,
      "er": 6682,
      "件事": 6683,
      "有人": 6684,
      "記得": 6685,
      "跟住": 6686,
      "我覺得": 6687,
      "唔同": 6688,
      "笑聲": 6689,
      "同我": 6690,
      "一啲": 6691,
      "地方": 6692,
      "就會": 6693,
      "嘅時候": 6694,
      "in": 6695,
      "呢間": 6696,
      "今次": 6697,
      "依家": 6698,
      "都好": 6699,
      "人哋": 6700,
      "啲嘢": 6701,
      "美國": 6702,
      "唔可以": 6703,
      "細路": 6704,
      "係唔係": 6705,
      "同佢": 6706,
      "電話": 6707,
      "點樣": 6708,
      "廣州": 6709,
      "幾多": 6710,
      "真係好": 6711,
      "一樣": 6712,
      "你嘅": 6713,
      "都要": 6714,
      "學校": 6715,
      "幾個": 6716,
      "生活": 6717,
      "200": 6718,
      "研究": 6719,
      "得好": 6720,
      "我就": 6721,
      "有一": 6722,
      "唔該": 6723,
      "人嘅": 6724,
      "佢話": 6725,
      "巴士": 6726,
      "邊度": 6727,
      "入面": 6728,
      "社會": 6729,
      "國家": 6730,
      "㗎喇": 6731,
      "英文": 6732,
      "電視": 6733,
      "做嘢": 6734,
      "我好": 6735,
      "住喺": 6736,
      "佢好": 6737,
      "如果你": 6738,
      "係啊": 6739,
      "咗一": 6740,
      "佢喺": 6741,
      "所有": 6742,
      "頭先": 6743,
      "），": 6744,
      "有好多": 6745,
      "第二": 6746,
      "唔得": 6747,
      "然後": 6748,
      "希望": 6749,
      "之前": 6750,
      "哩個": 6751,
      "唔見": 6752,
      "重要": 6753,
      "我去": 6754,
      "發現": 6755,
      "發展": 6756,
      "ar": 6757,
      "我諗": 6758,
      "好大": 6759,
      "女仔": 6760,
      "發生": 6761,
      "你要": 6762,
      "啱啱": 6763,
      "我都": 6764,
      "開心": 6765,
      "決定": 6766,
      "以前": 6767,
      "星期": 6768,
      "最後": 6769,
      "雖然": 6770,
      "en": 6771,
      "係咪": 6772,
      "你唔": 6773,
      "你唔好": 6774,
      "啲人": 6775,
      "淨係": 6776,
      "附近": 6777,
      "我喺": 6778,
      "睇到": 6779,
      "今晚": 6780,
      "咗個": 6781,
      "我哋嘅": 6782,
      "仲有": 6783,
      "都幾": 6784,
      "為咗": 6785,
      "只係": 6786,
      "上面": 6787,
      "九龍": 6788,
      "同你": 6789,
      "譬如": 6790,
      "我要": 6791,
      "梗係": 6792,
      "認為": 6793,
      "方法": 6794,
      "你咁": 6795,
      "嘅事": 6796,
      "老師": 6797,
      "好好": 6798,
      "醫生": 6799,
      "去到": 6800,
      "有無": 6801,
      "小心": 6802,
      "嘅話": 6803,
      "日本": 6804,
      "最好": 6805,
      "聽日": 6806,
      "宜家": 6807,
      "嘅一": 6808,
      "我係": 6809,
      "經濟": 6810,
      "音樂": 6811,
      "呢件事": 6812,
      "先至": 6813,
      "計劃": 6814,
      "更加": 6815,
      "非常": 6816,
      "老婆": 6817,
      "不如": 6818,
      "個月": 6819,
      "設計": 6820,
      "咁大": 6821,
      "廣東": 6822,
      "運動": 6823,
      "呢種": 6824,
      "食飯": 6825,
      "係一": 6826,
      "而且": 6827,
      "返屋企": 6828,
      "al": 6829,
      "元朗": 6830,
      "得到": 6831,
      "or": 6832,
      "嗰陣時": 6833,
      "一次": 6834,
      "情況": 6835,
      "我會": 6836,
      "部分": 6837,
      "睇下": 6838,
      "其中": 6839,
      "佢就": 6840,
      "個仔": 6841,
      "吖嗎": 6842,
      "裏面": 6843,
      "十年": 6844,
      "唔夠": 6845,
      "系統": 6846,
      "請問": 6847,
      "意思": 6848,
      "10": 6849,
      "原來": 6850,
      "呢條": 6851,
      "咗好多": 6852,
      "好耐": 6853,
      "我一": 6854,
      "佢哋嘅": 6855,
      "成個": 6856,
      "8年": 6857,
      "佢一": 6858,
      "有咩": 6859,
      "服務": 6860,
      "能夠": 6861,
      "講嘢": 6862,
      "一個人": 6863,
      "電影": 6864,
      "你知": 6865,
      "咁樣": 6866,
      "唔識": 6867,
      "生意": 6868,
      "代表": 6869,
      "畀人": 6870,
      "電腦": 6871,
      "係喺": 6872,
      "個個": 6873,
      "以為": 6874,
      "少少": 6875,
      "公園": 6876,
      "影響": 6877,
      "都唔知": 6878,
      "任何": 6879,
      "你可以": 6880,
      "機會": 6881,
      "at": 6882,
      "歷史": 6883,
      "包括": 6884,
      "幫我": 6885,
      "結果": 6886,
      "嚟講": 6887,
      "幾時": 6888,
      "我地": 6889,
      "當時": 6890,
      "分鐘": 6891,
      "去咗": 6892,
      "同時": 6893,
      "成為": 6894,
      "12": 6895,
      "。」": 6896,
      "阿媽": 6897,
      "好多人": 6898,
      "本書": 6899,
      "係一個": 6900,
      "做到": 6901,
      "冇人": 6902,
      "出現": 6903,
      "通常": 6904,
      "7年": 6905,
      "你就": 6906,
      "出去": 6907,
      "咗佢": 6908,
      "中學": 6909,
      "做乜": 6910,
      "樣嘢": 6911,
      "大佬": 6912,
      "後生": 6913,
      "架車": 6914,
      "建築": 6915,
      "教育": 6916,
      "同學": 6917,
      "就好似": 6918,
      "198": 6919,
      "0年": 6920,
      "俾佢": 6921,
      "參加": 6922,
      "學家": 6923,
      "落去": 6924,
      "喺香港": 6925,
      "特別": 6926,
      "自己嘅": 6927,
      "三個": 6928,
      "嘅係": 6929,
      "多啲": 6930,
      "好難": 6931,
      "有時": 6932,
      "比較": 6933,
      "讀書": 6934,
      "199": 6935,
      "中心": 6936,
      "今年": 6937,
      "老細": 6938,
      "要去": 6939,
      "過去": 6940,
      "唔記得": 6941,
      "小巴": 6942,
      "活動": 6943,
      "繼續": 6944,
      "考試": 6945,
      "語言": 6946,
      "佢個": 6947,
      "st": 6948,
      "全部": 6949,
      "我同": 6950,
      "新聞": 6951,
      "佢唔": 6952,
      "例如": 6953,
      "都可以": 6954,
      "𡃉喎": 6955,
      "多謝": 6956,
      "細佬": 6957,
      "老公": 6958,
      "健康": 6959,
      "即刻": 6960,
      "城市": 6961,
      "月2": 6962,
      "遊戲": 6963,
      "都未": 6964,
      "仲要": 6965,
      "完全": 6966,
      "文化": 6967,
      "相信": 6968,
      "6年": 6969,
      "故事": 6970,
      "2年": 6971,
      "ch": 6972,
      "冇乜": 6973,
      "掌聲": 6974,
      "身體": 6975,
      "之間": 6976,
      "有幾": 6977,
      "精神": 6978,
      "臺灣": 6979,
      "醫院": 6980,
      "人類": 6981,
      "仲未": 6982,
      "你會": 6983,
      "使用": 6984,
      "女人": 6985,
      "佢做": 6986,
      "叫做": 6987,
      "於是": 6988,
      "中文": 6989,
      "主要": 6990,
      "件衫": 6991,
      "關係": 6992,
      "㗎啦": 6993,
      "我話": 6994,
      "旅行": 6995,
      "𡃉嚹": 6996,
      "唔多": 6997,
      "垃圾": 6998,
      "畀我": 6999,
      "18": 7000,
      "可唔可以": 7001,
      "大嘅": 7002,
      "禮拜": 7003,
      "老闆": 7004,
      "」，": 7005,
      "呢排": 7006,
      "改變": 7007,
      "自然": 7008,
      "曾經": 7009,
      "的士": 7010,
      "am": 7011,
      "係噉": 7012,
      "1年": 7013,
      "4年": 7014,
      "你個": 7015,
      "功課": 7016,
      "我冇": 7017,
      "日日": 7018,
      "5年": 7019,
      "9年": 7020,
      "ou": 7021,
      "你都": 7022,
      "佢地": 7023,
      "嚟㗎": 7024,
      "我有": 7025,
      "有關": 7026,
      "話佢": 7027,
      "it": 7028,
      "噉𠻺": 7029,
      "清楚": 7030,
      "終於": 7031,
      "餐廳": 7032,
      "市場": 7033,
      "成功": 7034,
      "手機": 7035,
      "甚至": 7036,
      "等緊": 7037,
      "俾你": 7038,
      "畢業": 7039,
      "銀行": 7040,
      "一隻": 7041,
      "係好": 7042,
      "原因": 7043,
      "一種": 7044,
      "就算": 7045,
      "到佢": 7046,
      "科技": 7047,
      "主席": 7048,
      "又係": 7049,
      "國際": 7050,
      "政治": 7051,
      "流浪": 7052,
      "環境": 7053,
      "突然": 7054,
      "簡單": 7055,
      "安全": 7056,
      "容易": 7057,
      "幾好": 7058,
      "」。": 7059,
      "你做": 7060,
      "去左": 7061,
      "比賽": 7062,
      "結婚": 7063,
      "re": 7064,
      "一直": 7065,
      "好有": 7066,
      "工程": 7067,
      "幾年": 7068,
      "我做": 7069,
      "一陣": 7070,
      "就要": 7071,
      "我個": 7072,
      "一年": 7073,
      "女性": 7074,
      "沙田": 7075,
      "呢個係": 7076,
      "細路仔": 7077,
      "辛苦": 7078,
      "辦法": 7079,
      "冇得": 7080,
      "根本": 7081,
      "我哋要": 7082,
      "一定要": 7083,
      "唔見左": 7084,
      "呢隻": 7085,
      "方式": 7086,
      "英國": 7087,
      "一間": 7088,
      "係囖": 7089,
      "支持": 7090,
      "諗住": 7091,
      "議員": 7092,
      "點去": 7093,
      "點知": 7094,
      "司機": 7095,
      "噉嘅": 7096,
      "資料": 7097,
      "嘅地方": 7098,
      "基本": 7099,
      "係喇": 7100,
      "係香港": 7101,
      "委員": 7102,
      "搞到": 7103,
      "經過": 7104,
      "老人": 7105,
      "份人": 7106,
      "佢有": 7107,
      "屯門": 7108,
      "月1": 7109,
      "但係唔知": 7110,
      "你係": 7111,
      "佢講": 7112,
      "幫手": 7113,
      "感覺": 7114,
      "返工": 7115,
      "le": 7116,
      "合作": 7117,
      "嗰時": 7118,
      "接受": 7119,
      "節目": 7120,
      "聽到": 7121,
      "：「": 7122,
      "上嘅": 7123,
      "出來": 7124,
      "會有": 7125,
      "記者": 7126,
      "進行": 7127,
      "大陸": 7128,
      "一日": 7129,
      "事實": 7130,
      "二十": 7131,
      "天氣": 7132,
      "家姐": 7133,
      "得咁": 7134,
      "方面": 7135,
      "男人": 7136,
      "畀你": 7137,
      "要求": 7138,
      "中華": 7139,
      "細個": 7140,
      "組織": 7141,
      "行為": 7142,
      "變成": 7143,
      "解決": 7144,
      "無論": 7145,
      "嗰間": 7146,
      "對於": 7147,
      "病人": 7148,
      "北京": 7149,
      "唔少": 7150,
      "提供": 7151,
      "我哋可以": 7152,
      "第一次": 7153,
      "令人": 7154,
      "另外": 7155,
      "畀佢": 7156,
      "舒服": 7157,
      "你講": 7158,
      "俾我": 7159,
      "噉你": 7160,
      "警察": 7161,
      "om": 7162,
      "三十": 7163,
      "佢成日": 7164,
      "呢就": 7165,
      "太陽": 7166,
      "當然": 7167,
      "緊要": 7168,
      "能力": 7169,
      "主義": 7170,
      "咗啲": 7171,
      "存在": 7172,
      "最近": 7173,
      "食物": 7174,
      "）。": 7175,
      "呢一": 7176,
      "圖書": 7177,
      "有一個": 7178,
      "負責": 7179,
      "ic": 7180,
      "is": 7181,
      "亦都": 7182,
      "人工": 7183,
      "仲係": 7184,
      "大埔": 7185,
      "小朋友": 7186,
      "新嘅": 7187,
      "科學": 7188,
      "你知唔知": 7189,
      "全球": 7190,
      "會唔會": 7191,
      "自由": 7192,
      "就可以": 7193,
      "成立": 7194,
      "每日": 7195,
      "準備": 7196,
      "隻手": 7197,
      "3年": 7198,
      "一百": 7199,
      "作為": 7200,
      "你話": 7201,
      "澳門": 7202,
      "試過": 7203,
      "起身": 7204,
      "唔係好": 7205,
      "197": 7206,
      "人民": 7207,
      "因住": 7208,
      "走咗": 7209,
      "el": 7210,
      "令到": 7211,
      "努力": 7212,
      "落嚟": 7213,
      "裡面": 7214,
      "銀包": 7215,
      "一路": 7216,
      "唔想": 7217,
      "地球": 7218,
      "一般": 7219,
      "幫你": 7220,
      "控制": 7221,
      "睇吓": 7222,
      "11": 7223,
      "同事": 7224,
      "搵到": 7225,
      "經歷": 7226,
      "飛機": 7227,
      "後生仔": 7228,
      "BB": 7229,
      "嘅問題": 7230,
      "好鍾意": 7231,
      "我們": 7232,
      "我又": 7233,
      "所謂": 7234,
      "技術": 7235,
      "等我": 7236,
      "管理": 7237,
      "認真": 7238,
      "你有": 7239,
      "係我": 7240,
      "咁耐": 7241,
      "單車": 7242,
      "師傅": 7243,
      "民主": 7244,
      "返嚟": 7245,
      "30": 7246,
      "你去": 7247,
      "出咗": 7248,
      "咁好": 7249,
      "部份": 7250,
      "壓力": 7251,
      "夜晚": 7252,
      "我唔知": 7253,
      "小學": 7254,
      "市民": 7255,
      "乜嘢啊": 7256,
      "ing": 7257,
      "買咗": 7258,
      "我想去": 7259,
      "你想": 7260,
      "出世": 7261,
      "會議": 7262,
      "生物": 7263,
      "經已": 7264,
      "老豆": 7265,
      "通過": 7266,
      "都唔會": 7267,
      "唔同嘅": 7268,
      "保護": 7269,
      "嗰次": 7270,
      "我真係": 7271,
      "投資": 7272,
      "普通": 7273,
      "生命": 7274,
      "空間": 7275,
      "見過": 7276,
      "交通": 7277,
      "企業": 7278,
      "你有冇": 7279,
      "佢都": 7280,
      "先生": 7281,
      "好快": 7282,
      "知識": 7283,
      "落雨": 7284,
      "et": 7285,
      "今朝": 7286,
      "出街": 7287,
      "報紙": 7288,
      "大腦": 7289,
      "搵唔到": 7290,
      "呢啲嘢": 7291,
      "有啲人": 7292,
      "ac": 7293,
      "做咩": 7294,
      "嚴重": 7295,
      "外國": 7296,
      "有乜": 7297,
      "本身": 7298,
      "裏邊": 7299,
      "解釋": 7300,
      "識得": 7301,
      "除咗": 7302,
      "你又": 7303,
      "佢啲": 7304,
      "佢會": 7305,
      "學習": 7306,
      "幾日": 7307,
      "父母": 7308,
      "由於": 7309,
      "荃灣": 7310,
      "圖書館": 7311,
      "停車": 7312,
      "入邊": 7313,
      "周圍": 7314,
      "哩啲": 7315,
      "地區": 7316,
      "女朋友": 7317,
      "係咩": 7318,
      "係因為": 7319,
      "只要": 7320,
      "慢慢": 7321,
      "藝術": 7322,
      "香港人": 7323,
      "委員會": 7324,
      "作品": 7325,
      "係有": 7326,
      "到我": 7327,
      "受到": 7328,
      "唔啱": 7329,
      "當中": 7330,
      "事件": 7331,
      "十二": 7332,
      "有得": 7333,
      "泊車": 7334,
      "犀利": 7335,
      "諗法": 7336,
      "il": 7337,
      "佢冇": 7338,
      "傳統": 7339,
      "士多": 7340,
      "理由": 7341,
      "琴晚": 7342,
      "酒店": 7343,
      "麻煩": 7344,
      "有無人": 7345,
      "es": 7346,
      "世紀": 7347,
      "份工": 7348,
      "佢咁": 7349,
      "學院": 7350,
      "正式": 7351,
      "超過": 7352,
      "做咗": 7353,
      "哲學": 7354,
      "大概": 7355,
      "工人": 7356,
      "消息": 7357,
      "處理": 7358,
      "人口": 7359,
      "人士": 7360,
      "入去": 7361,
      "咖啡": 7362,
      "媽咪": 7363,
      "選舉": 7364,
      "唔好咁": 7365,
      "ro": 7366,
      "動物": 7367,
      "媽媽": 7368,
      "差唔多": 7369,
      "得閒": 7370,
      "機器": 7371,
      "間屋": 7372,
      "所以我": 7373,
      "195": 7374,
      "之一": 7375,
      "仍然": 7376,
      "住個": 7377,
      "十五": 7378,
      "呢單": 7379,
      "就有": 7380,
      "明白": 7381,
      "晒啲": 7382,
      "爸爸": 7383,
      "老友": 7384,
      "資源": 7385,
      "頭髮": 7386,
      "而家喺": 7387,
      "你仲": 7388,
      "嚟嘅": 7389,
      "會喺": 7390,
      "肯定": 7391,
      "舖頭": 7392,
      "行政": 7393,
      "返去": 7394,
      "做得": 7395,
      "先得": 7396,
      "地下": 7397,
      "家庭": 7398,
      "我今日": 7399,
      "方便": 7400,
      "過嚟": 7401,
      "𡃉喇": 7402,
      "一條": 7403,
      "上海": 7404,
      "八號": 7405,
      "只有": 7406,
      "多數": 7407,
      "心機": 7408,
      "思想": 7409,
      "文章": 7410,
      "維基": 7411,
      "表示": 7412,
      "身份": 7413,
      "過程": 7414,
      "ad": 7415,
      "呢張": 7416,
      "就冇": 7417,
      "時代": 7418,
      "每個": 7419,
      "當你": 7420,
      "直接": 7421,
      "呢個人": 7422,
      "停車場": 7423,
      "三年": 7424,
      "咗我": 7425,
      "喺邊度": 7426,
      "收到": 7427,
      "產品": 7428,
      "究竟": 7429,
      "人都": 7430,
      "報告": 7431,
      "好嘅": 7432,
      "我睇": 7433,
      "我知": 7434,
      "經驗": 7435,
      "要搭": 7436,
      "記憶": 7437,
      "銅鑼": 7438,
      "關於": 7439,
      "隔籬": 7440,
      "50": 7441,
      "ow": 7442,
      "下午": 7443,
      "你啲": 7444,
      "唔通": 7445,
      "得意": 7446,
      "機構": 7447,
      "舅父": 7448,
      "面對": 7449,
      "因為我": 7450,
      "個個都": 7451,
      "佢啦": 7452,
      "喺屋企": 7453,
      "噉就": 7454,
      "因此": 7455,
      "好彩": 7456,
      "期間": 7457,
      "根據": 7458,
      "申請": 7459,
      "當我": 7460,
      "粵語": 7461,
      "經理": 7462,
      "行動": 7463,
      "選擇": 7464,
      "門口": 7465,
      "麻雀": 7466,
      "成日都": 7467,
      "請問我想去": 7468,
      "銅鑼灣": 7469,
      "便利": 7470,
      "同樣": 7471,
      "唔住": 7472,
      "實際": 7473,
      "平時": 7474,
      "數據": 7475,
      "更多": 7476,
      "演員": 7477,
      "乜嘢車": 7478,
      "Ch": 7479,
      "介紹": 7480,
      "佢又": 7481,
      "地鐵": 7482,
      "埋一齊": 7483,
      "必須": 7484,
      "意見": 7485,
      "成績": 7486,
      "我可以": 7487,
      "我而家": 7488,
      "男仔": 7489,
      "網絡": 7490,
      "總統": 7491,
      "興趣": 7492,
      "路線": 7493,
      "透過": 7494,
      "194": 7495,
      "000": 7496,
      "ol": 7497,
      "分別": 7498,
      "利用": 7499,
      "危險": 7500,
      "去邊": 7501,
      "參與": 7502,
      "有乜嘢": 7503,
      "灣仔": 7504,
      "生日": 7505,
      "說話": 7506,
      "集團": 7507,
      "快啲啦": 7508,
      "se": 7509,
      "你睇": 7510,
      "同人": 7511,
      "呢套": 7512,
      "抑鬱": 7513,
      "西貢": 7514,
      "講到": 7515,
      "過咗": 7516,
      "重新": 7517,
      "食晏": 7518,
      "以及": 7519,
      "你真係": 7520,
      "係嘞": 7521,
      "內容": 7522,
      "千蚊": 7523,
      "呢次": 7524,
      "嘅大": 7525,
      "建立": 7526,
      "放學": 7527,
      "文件": 7528,
      "討論": 7529,
      "警方": 7530,
      "風球": 7531,
      "點啊": 7532,
      "可能會": 7533,
      "……": 7534,
      "佢份人": 7535,
      "好少": 7536,
      "實驗": 7537,
      "有限": 7538,
      "而係": 7539,
      "鐘意": 7540,
      "我哋會": 7541,
      "其他人": 7542,
      "佢對": 7543,
      "信息": 7544,
      "唔鍾意": 7545,
      "噉呢": 7546,
      "增加": 7547,
      "我聽": 7548,
      "正一": 7549,
      "聲音": 7550,
      "遇到": 7551,
      "雞蛋": 7552,
      "中環": 7553,
      "兄弟": 7554,
      "先啦": 7555,
      "先可以": 7556,
      "公路": 7557,
      "喺我": 7558,
      "四個": 7559,
      "我依家": 7560,
      "擔心": 7561,
      "早啲": 7562,
      "條女": 7563,
      "一下": 7564,
      "他們": 7565,
      "個銀包": 7566,
      "工具": 7567,
      "未來": 7568,
      "汽水": 7569,
      "演講": 7570,
      "考慮": 7571,
      "邊間": 7572,
      "五十": 7573,
      "仔女": 7574,
      "先去到": 7575,
      "各位": 7576,
      "咁嘅": 7577,
      "咗幾": 7578,
      "大廈": 7579,
      "將會": 7580,
      "每次": 7581,
      "理論": 7582,
      "男朋友": 7583,
      "瞓覺": 7584,
      "竟然": 7585,
      "英語": 7586,
      "蜘蛛": 7587,
      "買餸": 7588,
      "都得": 7589,
      "同我講": 7590,
      "--": 7591,
      "你好": 7592,
      "另一": 7593,
      "定係": 7594,
      "將啲": 7595,
      "廁所": 7596,
      "我講": 7597,
      "死咗": 7598,
      "細妹": 7599,
      "經常": 7600,
      "表演": 7601,
      "變咗": 7602,
      "便利店": 7603,
      "主持": 7604,
      "亞伯": 7605,
      "係由": 7606,
      "反應": 7607,
      "呢樣嘢": 7608,
      "噉但係": 7609,
      "失路": 7610,
      "好靚": 7611,
      "就嚟": 7612,
      "年嘅": 7613,
      "後來": 7614,
      "立法": 7615,
      "第一個": 7616,
      "練習": 7617,
      "證明": 7618,
      "阿松": 7619,
      "我哋喺": 7620,
      "ong": 7621,
      "係唔係啊": 7622,
      "乜嘢車先去到": 7623,
      "中央": 7624,
      "人員": 7625,
      "你咪": 7626,
      "唔出": 7627,
      "太多": 7628,
      "就喺": 7629,
      "就好": 7630,
      "意外": 7631,
      "搵個": 7632,
      "攪到": 7633,
      "數學": 7634,
      "死亡": 7635,
      "自我": 7636,
      "蛋糕": 7637,
      "趕住": 7638,
      "項目": 7639,
      "食齋": 7640,
      "首歌": 7641,
      "體育": 7642,
      "點算": 7643,
      "de": 7644,
      "ec": 7645,
      "un": 7646,
      "住佢": 7647,
      "又要": 7648,
      "單位": 7649,
      "噉做": 7650,
      "幫助": 7651,
      "我對": 7652,
      "有錢": 7653,
      "獲得": 7654,
      "部手機": 7655,
      "離開": 7656,
      "食得": 7657,
      "有個亞伯": 7658,
      "唔見左個銀包": 7659,
      "事實上": 7660,
      "有個亞伯喺": 7661,
      "人生": 7662,
      "入咗": 7663,
      "紅磡": 7664,
      "電子": 7665,
      "點鐘": 7666,
      "邊個會": 7667,
      "ter": 7668,
      "》，": 7669,
      "去睇": 7670,
      "唔掂": 7671,
      "姨媽": 7672,
      "完成": 7673,
      "幾耐": 7674,
      "想像": 7675,
      "條友": 7676,
      "買啲嘢": 7677,
      "一個月": 7678,
      "嗰個人": 7679,
      "好耐無": 7680,
      "ir": 7681,
      "ion": 7682,
      "、《": 7683,
      "乾淨": 7684,
      "到你": 7685,
      "吸引": 7686,
      "呢樣": 7687,
      "就得": 7688,
      "心理": 7689,
      "我最": 7690,
      "機械": 7691,
      "用嘅": 7692,
      "真正": 7693,
      "第三": 7694,
      "要搭乜嘢車先去到": 7695,
      "位置": 7696,
      "住我": 7697,
      "佢同": 7698,
      "創造": 7699,
      "啤梨": 7700,
      "好啲": 7701,
      "年前": 7702,
      "手指": 7703,
      "最多": 7704,
      "永遠": 7705,
      "用咗": 7706,
      "返學": 7707,
      "造成": 7708,
      "都唔識": 7709,
      "巴士站": 7710,
      "其中一個": 7711,
      "垃圾桶": 7712,
      "八號風球": 7713,
      "之外": 7714,
      "位於": 7715,
      "兒童": 7716,
      "全世界": 7717,
      "嗰日": 7718,
      "太空": 7719,
      "屬於": 7720,
      "我同佢": 7721,
      "旺角": 7722,
      "歡迎": 7723,
      "落緊": 7724,
      "，「": 7725,
      "2018年": 7726,
      "不斷": 7727,
      "中嘅": 7728,
      "乒乓": 7729,
      "了解": 7730,
      "做過": 7731,
      "公仔": 7732,
      "咗喇": 7733,
      "唔單": 7734,
      "大量": 7735,
      "就唔好": 7736,
      "得唔得": 7737,
      "改善": 7738,
      "神經": 7739,
      "站等緊": 7740,
      "紀念": 7741,
      "自殺": 7742,
      "你哋快啲啦": 7743,
      "and": 7744,
      "頭先喺": 7745,
      "好耐無去": 7746,
      "站等緊你哋": 7747,
      "佢想": 7748,
      "分享": 7749,
      "叫我": 7750,
      "呢兩": 7751,
      "唔怪": 7752,
      "商場": 7753,
      "噉咪": 7754,
      "好唔": 7755,
      "對開": 7756,
      "探舅父": 7757,
      "每年": 7758,
      "琴日": 7759,
      "生產": 7760,
      "百科": 7761,
      "車站": 7762,
      "風橫": 7763,
      "我哋有": 7764,
      "呢個問題": 7765,
      "下午茶": 7766,
      "he": 7767,
      "㗎咋": 7768,
      "一係": 7769,
      "以後": 7770,
      "來𡃉": 7771,
      "唔去": 7772,
      "嘅情況": 7773,
      "收養": 7774,
      "歌手": 7775,
      "無人": 7776,
      "現實": 7777,
      "用嚟": 7778,
      "點會": 7779,
      "有個老人": 7780,
      "好大風": 7781,
      "15": 7782,
      "ay": 7783,
      "上嚟": 7784,
      "令我": 7785,
      "出面": 7786,
      "印度": 7787,
      "咗一個": 7788,
      "嘅一個": 7789,
      "大嫂": 7790,
      "意識": 7791,
      "新界": 7792,
      "橫風橫": 7793,
      "緊張": 7794,
      "佢哋而家喺": 7795,
      "有個老人去左": 7796,
      "橫風橫雨": 7797,
      "..": 7798,
      "㗎喎": 7799,
      "之中": 7800,
      "公眾": 7801,
      "唔錯": 7802,
      "將軍": 7803,
      "就話": 7804,
      "建議": 7805,
      "治療": 7806,
      "百萬": 7807,
      "紐約": 7808,
      "聽講": 7809,
      "雲吞": 7810,
      "顯示": 7811,
      "196": 7812,
      "士多啤梨": 7813,
      "有無人知道": 7814,
      "17": 7815,
      "ur": 7816,
      "乜都": 7817,
      "係咁": 7818,
      "價值": 7819,
      "到底": 7820,
      "前面": 7821,
      "又唔": 7822,
      "呢件": 7823,
      "國民": 7824,
      "就唔": 7825,
      "德國": 7826,
      "提出": 7827,
      "文字": 7828,
      "民國": 7829,
      "法律": 7830,
      "盪失路": 7831,
      "葵涌": 7832,
      "表姐": 7833,
      "調查": 7834,
      "跌打": 7835,
      "都唔係": 7836,
      "隻腳": 7837,
      "面前": 7838,
      "附近有": 7839,
      "點去㗎": 7840,
      "乒乓波": 7841,
      "CD": 7842,
      "依個": 7843,
      "係點去㗎": 7844,
      "員工": 7845,
      "唯一": 7846,
      "多過": 7847,
      "奶茶": 7848,
      "好過": 7849,
      "將佢": 7850,
      "我住喺": 7851,
      "目標": 7852,
      "移民": 7853,
      "等等": 7854,
      "網站": 7855,
      "花園": 7856,
      "訓練": 7857,
      "返來": 7858,
      "幾個圈": 7859,
      "te": 7860,
      "》、《": 7861,
      "一步": 7862,
      "交易": 7863,
      "你而家": 7864,
      "公共": 7865,
      "同一": 7866,
      "同我哋": 7867,
      "嘗試": 7868,
      "本地": 7869,
      "死人": 7870,
      "每個人": 7871,
      "目前": 7872,
      "老鼠": 7873,
      "表現": 7874,
      "觀眾": 7875,
      "變化": 7876,
      "轉頭": 7877,
      "進入": 7878,
      "野食": 7879,
      "韆鞦": 7880,
      "流浪狗": 7881,
      "流浪貓": 7882,
      "趕住去": 7883,
      "落緊雨": 7884,
      "一切": 7885,
      "你喺": 7886,
      "做人": 7887,
      "到嘅": 7888,
      "博物": 7889,
      "呢場": 7890,
      "四十": 7891,
      "埋啲": 7892,
      "幫佢": 7893,
      "引起": 7894,
      "從來": 7895,
      "我啲": 7896,
      "戰爭": 7897,
      "有幾多": 7898,
      "標準": 7899,
      "爺爺": 7900,
      "疾病": 7901,
      "百分": 7902,
      "睡眠": 7903,
      "社區": 7904,
      "粉嶺": 7905,
      "要做": 7906,
      "足球": 7907,
      "跌左": 7908,
      "隔離": 7909,
      "隻狗": 7910,
      "食咗": 7911,
      "食完": 7912,
      "馬路": 7913,
      "依家橫風橫雨": 7914,
      "廣東話": 7915,
      "八號風球好大風": 7916,
      "ke": 7917,
      "一張": 7918,
      "主角": 7919,
      "佢真係": 7920,
      "例子": 7921,
      "係佢": 7922,
      "反對": 7923,
      "叫佢": 7924,
      "嘅方法": 7925,
      "嘅垃圾桶": 7926,
      "安排": 7927,
      "意義": 7928,
      "打乒乓波": 7929,
      "投票": 7930,
      "搵野食": 7931,
      "時期": 7932,
      "正常": 7933,
      "玩家": 7934,
      "股票": 7935,
      "蘋果": 7936,
      "走去": 7937,
      "間公司": 7938,
      "首先": 7939,
      "大家都": 7940,
      "嗰度買啲嘢": 7941,
      "呢間公司": 7942,
      "唔該快啲": 7943,
      "重要嘅": 7944,
      "老婆婆": 7945,
      "的士喺": 7946,
      "話佢知": 7947,
      "大嫂要去": 7948,
      "流浪貓喺": 7949,
      "嘅垃圾桶搵野食": 7950,
      "sh": 7951,
      "你自己": 7952,
      "係個": 7953,
      "個鐘": 7954,
      "兜左": 7955,
      "出名": 7956,
      "去過": 7957,
      "另一個": 7958,
      "唯有": 7959,
      "嚟到": 7960,
      "好唔好": 7961,
      "實在": 7962,
      "左一隻": 7963,
      "我屋企": 7964,
      "我見到": 7965,
      "持續": 7966,
      "擁有": 7967,
      "深水": 7968,
      "游水": 7969,
      "萬蚊": 7970,
      "製造": 7971,
      "唔好意思": 7972,
      "大佬唔該快啲": 7973,
      "司機大佬唔該快啲": 7974,
      "收養左一隻": 7975,
      "跌左部手機": 7976,
      "兜左幾個圈": 7977,
      "收養左一隻流浪狗": 7978,
      "一位": 7979,
      "上下": 7980,
      "入嚟": 7981,
      "北角": 7982,
      "去邊度": 7983,
      "嘢食": 7984,
      "大聲": 7985,
      "差佬": 7986,
      "打韆鞦": 7987,
      "教授": 7988,
      "深圳": 7989,
      "班人": 7990,
      "百蚊": 7991,
      "相當": 7992,
      "聽過": 7993,
      "街係喺": 7994,
      "請你": 7995,
      "？」": 7996,
      "香港嘅": 7997,
      "細佬喺": 7998,
      "維基百科": 7999,
      "oo": 8000,
      "上去": 8001,
      "共和": 8002,
      "反而": 8003,
      "呢部": 8004,
      "大人": 8005,
      "幫個": 8006,
      "打麻雀": 8007,
      "校長": 8008,
      "歐洲": 8009,
      "牛肉": 8010,
      "獨立": 8011,
      "現代": 8012,
      "聖誕": 8013,
      "自動": 8014,
      "諗下": 8015,
      "返到": 8016,
      "有個老婆婆": 8017,
      "同我去": 8018,
      "公園打韆鞦": 8019,
      "等緊小巴": 8020,
      "泊車嗎": 8021,
      "停車場泊車嗎": 8022,
      "放學去左": 8023,
      "我依家喺": 8024,
      "便利店買": 8025,
      "表姐放學去左": 8026,
      "附近有停車場泊車嗎": 8027,
      "博物館": 8028,
      "有個老婆婆喺": 8029,
      "中間": 8030,
      "係中國": 8031,
      "信心": 8032,
      "各種": 8033,
      "大話": 8034,
      "尖沙": 8035,
      "師奶": 8036,
      "放棄": 8037,
      "最高": 8038,
      "格仔": 8039,
      "次次": 8040,
      "法國": 8041,
      "約左": 8042,
      "舉行": 8043,
      "複雜": 8044,
      "觀塘": 8045,
      "變得": 8046,
      "身上": 8047,
      "（）": 8048,
      "巴士路線": 8049,
      "仲要趕住去": 8050,
      "姨媽同我去": 8051,
      "落緊雨仲要趕住去": 8052,
      "ap": 8053,
      "並且": 8054,
      "使乜": 8055,
      "功能": 8056,
      "十八": 8057,
      "去做": 8058,
      "去旅行": 8059,
      "咗你": 8060,
      "哎吔": 8061,
      "大部分": 8062,
      "媒體": 8063,
      "導致": 8064,
      "年輕": 8065,
      "廣告": 8066,
      "我已經": 8067,
      "政策": 8068,
      "文學": 8069,
      "最終": 8070,
      "產生": 8071,
      "答案": 8072,
      "規則": 8073,
      "間房": 8074,
      "飲下午茶": 8075,
      "如果我哋": 8076,
      "鍾意食": 8077,
      "屋企人": 8078,
      "嗰個巴士站": 8079,
      "點解唔見左": 8080,
      "有限公司": 8081,
      "對開嗰個巴士站": 8082,
      "100": 8083,
      "一場": 8084,
      "亞爸": 8085,
      "仔糕": 8086,
      "保持": 8087,
      "全國": 8088,
      "呢位": 8089,
      "咗兩": 8090,
      "問我": 8091,
      "大約": 8092,
      "我自己": 8093,
      "發覺": 8094,
      "睇跌打": 8095,
      "絕對": 8096,
      "缽仔糕": 8097,
      "自從": 8098,
      "辦公": 8099,
      "佢哋會": 8100,
      "佢哋兩個": 8101,
      "呢個就係": 8102,
      "所以我哋": 8103,
      "如果佢喺": 8104,
      "嗰啲呢": 8105,
      "art": 8106,
      "0年代": 8107,
      "你知唔知點去": 8108,
      "搵唔到便利店買": 8109,
      "雲吞麵": 8110,
      "搵唔到便利店買汽水": 8111,
      "li": 8112,
      "、「": 8113,
      "仲唔": 8114,
      "係我哋": 8115,
      "創作": 8116,
      "咁高": 8117,
      "好易": 8118,
      "宣佈": 8119,
      "對我": 8120,
      "左右": 8121,
      "我唔係": 8122,
      "手術": 8123,
      "放喺": 8124,
      "明星": 8125,
      "玻璃": 8126,
      "睇佢": 8127,
      "站附近": 8128,
      "經嗰度": 8129,
      "運作": 8130,
      "開放": 8131,
      "見到有": 8132,
      "有冇小巴": 8133,
      "學生話佢知": 8134,
      "廣州市": 8135,
      "ent": 8136,
      "附近有無": 8137,
      "但係唔知有冇小巴": 8138,
      "家姐話": 8139,
      "嗰間缽仔糕": 8140,
      "食晏飲下午茶": 8141,
      "細妹約左": 8142,
      "但係唔知有冇小巴經嗰度": 8143,
      "細妹約左我去": 8144,
      "ri": 8145,
      "上次": 8146,
      "傾偈": 8147,
      "千祈": 8148,
      "啲啦": 8149,
      "嚟自": 8150,
      "後尾": 8151,
      "我仲": 8152,
      "我阿": 8153,
      "智能": 8154,
      "生存": 8155,
      "留意": 8156,
      "禮物": 8157,
      "行路": 8158,
      "規模": 8159,
      "革命": 8160,
      "黃師傅": 8161,
      "最好食": 8162,
      "係一種": 8163,
      "後生仔睇跌打": 8164,
      "幫個後生仔睇跌打": 8165,
      "黃師傅去": 8166,
      "不可": 8167,
      "不知": 8168,
      "之下": 8169,
      "你冇": 8170,
      "分析": 8171,
      "博士": 8172,
      "呢本書": 8173,
      "咩事": 8174,
      "啫嗎": 8175,
      "嗰隻": 8176,
      "噉講": 8177,
      "居民": 8178,
      "打電話": 8179,
      "批評": 8180,
      "日子": 8181,
      "條路": 8182,
      "紅色": 8183,
      "網上": 8184,
      "翻譯": 8185,
      "豆腐": 8186,
      "都無": 8187,
      "開會": 8188,
      "食嘢": 8189,
      "我唔想": 8190,
      "九龍塘": 8191,
      "但係唔知巴士路線": 8192,
      "中華民國": 8193,
      "邊間雲吞麵": 8194,
      "邊個會知道": 8195,
      "共和國": 8196,
      "邊間雲吞麵最好食": 8197,
      "你唔使": 8198,
      "個頭": 8199,
      "價錢": 8200,
      "原本": 8201,
      "呢份": 8202,
      "塊面": 8203,
      "太太": 8204,
      "好食": 8205,
      "律師": 8206,
      "概念": 8207,
      "機場": 8208,
      "測試": 8209,
      "男友": 8210,
      "發表": 8211,
      "目的": 8212,
      "粵文": 8213,
      "聯合": 8214,
      "藥物": 8215,
      "貿易": 8216,
      "麻地": 8217,
      "基本上": 8218,
      "深水埗": 8219,
      "》。": 8220,
      "三磅": 8221,
      "事情": 8222,
      "你一": 8223,
      "你呀": 8224,
      "係點": 8225,
      "到咗": 8226,
      "奇怪": 8227,
      "年代": 8228,
      "本來": 8229,
      "注意": 8230,
      "碼頭": 8231,
      "科學家": 8232,
      "習慣": 8233,
      "邊有": 8234,
      "錄音": 8235,
      "長嘅": 8236,
      "雪糕": 8237,
      "類似": 8238,
      "唔好再": 8239,
      "噉樣囖": 8240,
      "all": 8241,
      "雞蛋仔": 8242,
      "尖沙咀": 8243,
      "as": 8244,
      "of": 8245,
      "做完": 8246,
      "出版": 8247,
      "分子": 8248,
      "加入": 8249,
      "十一": 8250,
      "呢首歌": 8251,
      "咗去": 8252,
      "唔應該": 8253,
      "啲錢": 8254,
      "好鬼": 8255,
      "小說": 8256,
      "年紀": 8257,
      "揾到": 8258,
      "收入": 8259,
      "數字": 8260,
      "相關": 8261,
      "秘密": 8262,
      "行街": 8263,
      "買左": 8264,
      "起嚟": 8265,
      "開咗": 8266,
      "雜誌": 8267,
      "小心啲": 8268,
      "唔怪得": 8269,
      "em": 8270,
      "冇咁": 8271,
      "制度": 8272,
      "吖嘛": 8273,
      "嘢做": 8274,
      "坐喺": 8275,
      "對方": 8276,
      "恐怖": 8277,
      "應承": 8278,
      "朝早": 8279,
      "相機": 8280,
      "表達": 8281,
      "角色": 8282,
      "認識": 8283,
      "領域": 8284,
      "點做": 8285,
      "嗰次喺": 8286,
      "亞爸喺": 8287,
      "16": 8288,
      "不同": 8289,
      "但我": 8290,
      "你可唔可以": 8291,
      "佢而家": 8292,
      "值得": 8293,
      "冠軍": 8294,
      "創意": 8295,
      "十幾": 8296,
      "十蚊": 8297,
      "只會": 8298,
      "唔要": 8299,
      "問佢": 8300,
      "專業": 8301,
      "性嘅": 8302,
      "情緒": 8303,
      "步跑": 8304,
      "理解": 8305,
      "細胞": 8306,
      "舊年": 8307,
      "證據": 8308,
      "都話": 8309,
      "醫療": 8310,
      "鎖匙": 8311,
      "靚仔": 8312,
      "193": 8313,
      "士多啤梨返屋企": 8314,
      "三磅士多啤梨返屋企": 8315,
      "買左三磅士多啤梨返屋企": 8316,
      "gr": 8317,
      "lo": 8318,
      "」、「": 8319,
      "估唔到": 8320,
      "半山": 8321,
      "咁快": 8322,
      "嘅時間": 8323,
      "噉我": 8324,
      "小姐": 8325,
      "平均": 8326,
      "心臟": 8327,
      "我都係": 8328,
      "掛住": 8329,
      "方案": 8330,
      "未呀": 8331,
      "眼鏡": 8332,
      "職業": 8333,
      "角度": 8334,
      "遲到": 8335,
      "之後就": 8336,
      "唔知道": 8337,
      "幾個月": 8338,
      "立法會": 8339,
      "im": 8340,
      "一份": 8341,
      "你點": 8342,
      "個樣": 8343,
      "做嘅": 8344,
      "公開": 8345,
      "力量": 8346,
      "好人": 8347,
      "好高": 8348,
      "始終": 8349,
      "幾乎": 8350,
      "成員": 8351,
      "手提": 8352,
      "指數": 8353,
      "睇嚟": 8354,
      "結構": 8355,
      "設施": 8356,
      "講嘅": 8357,
      "鄉下": 8358,
      "餅賣": 8359,
      "嗰啲嘢": 8360,
      "朋友一齊": 8361,
      "格仔餅賣": 8362,
      "見到有雞蛋仔": 8363,
      "見到有雞蛋仔格仔餅賣": 8364,
      "一邊": 8365,
      "你覺得": 8366,
      "係最": 8367,
      "入便": 8368,
      "利亞": 8369,
      "只不過": 8370,
      "唱歌": 8371,
      "喺200": 8372,
      "噉佢": 8373,
      "推出": 8374,
      "未必": 8375,
      "沒有": 8376,
      "油麻地": 8377,
      "病毒": 8378,
      "發明": 8379,
      "緩步跑": 8380,
      "製作": 8381,
      "記住": 8382,
      "身邊": 8383,
      "唔係咁": 8384,
      "即係話": 8385,
      "譬如話": 8386,
      "抑鬱症": 8387,
      "三日": 8388,
      "上堂": 8389,
      "下次": 8390,
      "主題": 8391,
      "互相": 8392,
      "以上": 8393,
      "仲好": 8394,
      "企喺": 8395,
      "做緊": 8396,
      "兩年": 8397,
      "大角": 8398,
      "好容易": 8399,
      "態度": 8400,
      "所有人": 8401,
      "當地": 8402,
      "組成": 8403,
      "講下": 8404,
      "買嘢": 8405,
      "資訊": 8406,
      "過你": 8407,
      "金融": 8408,
      "錯咗": 8409,
      "阿明": 8410,
      "顏色": 8411,
      "麻麻": 8412,
      "好多嘢": 8413,
      "幾多錢": 8414,
      "唔得閒": 8415,
      "唔見咗": 8416,
      "參加緩步跑": 8417,
      "唔記得去": 8418,
      "老友唔記得去": 8419,
      "參加緩步跑練習": 8420,
      "9月": 8421,
      "任務": 8422,
      "個女": 8423,
      "個女仔": 8424,
      "做乜嘢": 8425,
      "到一": 8426,
      "嗰邊": 8427,
      "嘅工作": 8428,
      "土瓜": 8429,
      "多多": 8430,
      "夠鐘": 8431,
      "定義": 8432,
      "將來": 8433,
      "幾大": 8434,
      "成身": 8435,
      "拍拖": 8436,
      "挑戰": 8437,
      "旅遊": 8438,
      "最大嘅": 8439,
      "沙灣": 8440,
      "消失": 8441,
      "照顧": 8442,
      "破壞": 8443,
      "紀錄": 8444,
      "距離": 8445,
      "退休": 8446,
      "可以喺": 8447,
      "突然間": 8448,
      "土瓜灣": 8449,
      "14": 8450,
      "事業": 8451,
      "使唔使": 8452,
      "依然": 8453,
      "係要": 8454,
      "區域": 8455,
      "嘅水": 8456,
      "土地": 8457,
      "多次": 8458,
      "天后": 8459,
      "工業": 8460,
      "差人": 8461,
      "擔任": 8462,
      "攝影": 8463,
      "早就": 8464,
      "星球": 8465,
      "泳池": 8466,
      "粗口": 8467,
      "而唔係": 8468,
      "行星": 8469,
      "試下": 8470,
      "避免": 8471,
      "我哋都": 8472,
      "第二個": 8473,
      "唔單止": 8474,
      "」（": 8475,
      "交流": 8476,
      "人物": 8477,
      "作家": 8478,
      "你今日": 8479,
      "你成日": 8480,
      "係用": 8481,
      "加拿": 8482,
      "動作": 8483,
      "半年": 8484,
      "又有": 8485,
      "同一個": 8486,
      "唔再": 8487,
      "唔開心": 8488,
      "啲水": 8489,
      "嚟越": 8490,
      "困難": 8491,
      "婆婆": 8492,
      "家人": 8493,
      "專家": 8494,
      "形成": 8495,
      "快樂": 8496,
      "我開始": 8497,
      "打開": 8498,
      "新鮮": 8499,
      "方向": 8500,
      "有嘅": 8501,
      "未啊": 8502,
      "正確": 8503,
      "污糟": 8504,
      "流行": 8505,
      "消費": 8506,
      "減少": 8507,
      "等於": 8508,
      "結束": 8509,
      "至得": 8510,
      "要用": 8511,
      "資格": 8512,
      "超級": 8513,
      "食品": 8514,
      "）、": 8515,
      "我哋需要": 8516,
      "如果唔係": 8517,
      "2016年": 8518,
      "一定會": 8519,
      "辦公室": 8520,
      "op": 8521,
      "冇辦法": 8522,
      "化學": 8523,
      "又話": 8524,
      "嘅啫": 8525,
      "團隊": 8526,
      "多士": 8527,
      "大個": 8528,
      "尤其": 8529,
      "我的": 8530,
      "我鍾意": 8531,
      "我知道": 8532,
      "攞到": 8533,
      "最佳": 8534,
      "材料": 8535,
      "植物": 8536,
      "母親": 8537,
      "生嘅": 8538,
      "留低": 8539,
      "董事": 8540,
      "訪問": 8541,
      "講真": 8542,
      "進步": 8543,
      "鐘頭": 8544,
      "阿拉": 8545,
      "我哋就": 8546,
      "192": 8547,
      "其實係": 8548,
      "普通話": 8549,
      "機械人": 8550,
      "25": 8551,
      "中咗": 8552,
      "佢仲": 8553,
      "佢去": 8554,
      "假期": 8555,
      "即使": 8556,
      "呢件衫": 8557,
      "咗三": 8558,
      "唔切": 8559,
      "啲乜嘢": 8560,
      "喺美國": 8561,
      "埋嚟": 8562,
      "執行": 8563,
      "心水": 8564,
      "我希望": 8565,
      "把聲": 8566,
      "撞到": 8567,
      "有三": 8568,
      "有趣": 8569,
      "條件": 8570,
      "森林": 8571,
      "油炸": 8572,
      "溝通": 8573,
      "火星": 8574,
      "火車": 8575,
      "狀態": 8576,
      "程度": 8577,
      "經營": 8578,
      "臺銘": 8579,
      "講過": 8580,
      "越嚟越": 8581,
      "郭臺銘": 8582,
      "韓國": 8583,
      "飛行": 8584,
      "因為佢": 8585,
      "咁多人": 8586,
      "咁多嘢": 8587,
      "ant": 8588,
      "廣東省": 8589,
      "建築物": 8590,
      "百分之": 8591,
      "-，": 8592,
      "ag": 8593,
      "一部": 8594,
      "以下": 8595,
      "來講": 8596,
      "出嘅": 8597,
      "出席": 8598,
      "口水": 8599,
      "唔做": 8600,
      "商業": 8601,
      "大樓": 8602,
      "失敗": 8603,
      "好心": 8604,
      "娛樂": 8605,
      "定嘅": 8606,
      "富汗": 8607,
      "導演": 8608,
      "我都唔": 8609,
      "我唔會": 8610,
      "我啱啱": 8611,
      "水浸": 8612,
      "物理": 8613,
      "空氣": 8614,
      "行山": 8615,
      "話要": 8616,
      "阿富汗": 8617,
      "陳師奶": 8618,
      "飲食": 8619,
      "唔係啊": 8620,
      "因為我哋": 8621,
      "如果我": 8622,
      "一齊去": 8623,
      "佢個樣": 8624,
      "13": 8625,
      "7月": 8626,
      "係你": 8627,
      "勤力": 8628,
      "合格": 8629,
      "唔明": 8630,
      "地產": 8631,
      "夠膽": 8632,
      "後面": 8633,
      "探索": 8634,
      "新年": 8635,
      "有兩": 8636,
      "沖涼": 8637,
      "波士": 8638,
      "範圍": 8639,
      "系列": 8640,
      "講得": 8641,
      "費事": 8642,
      "連接": 8643,
      "達到": 8644,
      "部門": 8645,
      "鐵路": 8646,
      "長沙灣": 8647,
      "關注": 8648,
      "陣時": 8649,
      "青年": 8650,
      "風險": 8651,
      "𡃉咋": 8652,
      "就係話": 8653,
      "佢係個": 8654,
      "end": 8655,
      "8月": 8656,
      "dow": 8657,
      "一件": 8658,
      "一千": 8659,
      "事務": 8660,
      "你應該": 8661,
      "佢俾": 8662,
      "佢個人": 8663,
      "到死": 8664,
      "又或者": 8665,
      "叫你": 8666,
      "咁做": 8667,
      "咗喺": 8668,
      "唔肯": 8669,
      "唔能夠": 8670,
      "啲咩": 8671,
      "嘅方式": 8672,
      "基督": 8673,
      "家長": 8674,
      "就是": 8675,
      "張枱": 8676,
      "感情": 8677,
      "我呀": 8678,
      "我食": 8679,
      "我都唔知": 8680,
      "手尾": 8681,
      "暴力": 8682,
      "模式": 8683,
      "水平": 8684,
      "汽車": 8685,
      "營養": 8686,
      "現場": 8687,
      "睇住": 8688,
      "第日": 8689,
      "臨時": 8690,
      "行到": 8691,
      "開發": 8692,
      "間餐廳": 8693,
      "隨時": 8694,
      "食西": 8695,
      "！」": 8696,
      "2000": 8697,
      "19年": 8698,
      "一樣嘢": 8699,
      "九龍城": 8700,
      "千祈唔好": 8701,
      "5月": 8702,
      "不能": 8703,
      "之嘛": 8704,
      "什麼": 8705,
      "傳媒": 8706,
      "冇錢": 8707,
      "咗好耐": 8708,
      "嘅名": 8709,
      "大圍": 8710,
      "大氣": 8711,
      "大部份": 8712,
      "好開心": 8713,
      "學位": 8714,
      "就知": 8715,
      "打交": 8716,
      "打工": 8717,
      "暑假": 8718,
      "最大": 8719,
      "最鍾意": 8720,
      "最緊要": 8721,
      "核突": 8722,
      "正在": 8723,
      "每一個": 8724,
      "澳洲": 8725,
      "睇落": 8726,
      "聯絡": 8727,
      "豬肉": 8728,
      "速度": 8729,
      "遲啲": 8730,
      "鋼琴": 8731,
      "佢哋係": 8732,
      "因為佢哋": 8733,
      "中國大陸": 8734,
      "2015年": 8735,
      "星期日": 8736,
      "12月": 8737,
      "油炸鬼": 8738,
      "ED": 8739,
      "Jo": 8740,
      "上水": 8741,
      "何文": 8742,
      "你識": 8743,
      "佢呢": 8744,
      "佢將": 8745,
      "出聲": 8746,
      "加坡": 8747,
      "喺呢度": 8748,
      "嘅新": 8749,
      "噉所以": 8750,
      "噉跟住": 8751,
      "大仙": 8752,
      "形式": 8753,
      "得人": 8754,
      "得滯": 8755,
      "應用": 8756,
      "懷疑": 8757,
      "我同你": 8758,
      "打個": 8759,
      "拒絕": 8760,
      "搞掂": 8761,
      "改革": 8762,
      "放假": 8763,
      "水灣": 8764,
      "綠色": 8765,
      "維持": 8766,
      "者嘅": 8767,
      "聖經": 8768,
      "行人": 8769,
      "衰人": 8770,
      "質素": 8771,
      "輸咗": 8772,
      "過佢": 8773,
      "重點": 8774,
      "黃大仙": 8775,
      "真係要": 8776,
      "覺得好": 8777,
      "咁多年": 8778,
      "都幾好": 8779,
      "呢單嘢": 8780,
      "實際上": 8781,
      "將軍澳": 8782,
      "加拿大": 8783,
      "阿拉伯": 8784,
      "何文田": 8785,
      "1號": 8786,
      "ei": 8787,
      "ut": 8788,
      "一聲": 8789,
      "中意": 8790,
      "亞洲": 8791,
      "似乎": 8792,
      "你估": 8793,
      "佢已經": 8794,
      "來嘅": 8795,
      "係邊個": 8796,
      "冷氣": 8797,
      "創新": 8798,
      "古力": 8799,
      "咁啱": 8800,
      "唔理": 8801,
      "唔舒服": 8802,
      "嘅學生": 8803,
      "基因": 8804,
      "尋晚": 8805,
      "對唔住": 8806,
      "得個": 8807,
      "成本": 8808,
      "我先": 8809,
      "我啦": 8810,
      "我點": 8811,
      "我成日": 8812,
      "打到": 8813,
      "打機": 8814,
      "教學": 8815,
      "日頭": 8816,
      "早餐": 8817,
      "有成": 8818,
      "有效": 8819,
      "朱古力": 8820,
      "條街": 8821,
      "氣候": 8822,
      "沙律": 8823,
      "海洋": 8824,
      "無端": 8825,
      "真實": 8826,
      "稱為": 8827,
      "行李": 8828,
      "街食齋": 8829,
      "講緊": 8830,
      "軍隊": 8831,
      "道理": 8832,
      "邊嘅": 8833,
      "阿爸": 8834,
      "限制": 8835,
      "都唔使": 8836,
      "唔知啊": 8837,
      "2014年": 8838,
      "電視劇": 8839,
      "之間嘅": 8840,
      "搵個朋友一齊": 8841,
      "陳師奶要去": 8842,
      "搵個朋友一齊打麻雀": 8843,
      ")，": 8844,
      "Win": 8845,
      "下一": 8846,
      "不得": 8847,
      "不足": 8848,
      "主任": 8849,
      "亦係": 8850,
      "令你": 8851,
      "你再": 8852,
      "佢俾人": 8853,
      "參選": 8854,
      "各地": 8855,
      "同意": 8856,
      "呢句": 8857,
      "唔信": 8858,
      "嘅生活": 8859,
      "堅持": 8860,
      "報導": 8861,
      "大會": 8862,
      "好想": 8863,
      "好處": 8864,
      "字典": 8865,
      "尋日": 8866,
      "工廠": 8867,
      "影相": 8868,
      "恐懼": 8869,
      "打爛": 8870,
      "打算": 8871,
      "拼音": 8872,
      "接觸": 8873,
      "搞笑": 8874,
      "明顯": 8875,
      "暫時": 8876,
      "樓下": 8877,
      "殺人": 8878,
      "炒麵": 8879,
      "舉辦": 8880,
      "艇仔": 8881,
      "落地": 8882,
      "街市": 8883,
      "衰仔": 8884,
      "豐富": 8885,
      "適合": 8886,
      "都咁": 8887,
      "都算": 8888,
      "阿婆": 8889,
      "頭角": 8890,
      "點呀": 8891,
      "有一日": 8892,
      "ation": 8893,
      "oun": 8894,
      "5號": 8895,
      "ub": 8896,
      "”，": 8897,
      "上環": 8898,
      "人喺": 8899,
      "你啦": 8900,
      "係呀": 8901,
      "做生意": 8902,
      "冇晒": 8903,
      "出便": 8904,
      "剛才": 8905,
      "十六": 8906,
      "吓佢": 8907,
      "呢班": 8908,
      "宗教": 8909,
      "封信": 8910,
      "巴閉": 8911,
      "得㗎": 8912,
      "微博": 8913,
      "心情": 8914,
      "感到": 8915,
      "成年": 8916,
      "我買": 8917,
      "我個仔": 8918,
      "民族": 8919,
      "無法": 8920,
      "營盤": 8921,
      "當我哋": 8922,
      "皮膚": 8923,
      "示威": 8924,
      "競爭": 8925,
      "翻嚟": 8926,
      "聰明": 8927,
      "表面": 8928,
      "要有": 8929,
      "講者": 8930,
      "議會": 8931,
      "責任": 8932,
      "起碼": 8933,
      "跌咗": 8934,
      "邀請": 8935,
      "長洲": 8936,
      "關心": 8937,
      "靚女": 8938,
      "鼓勵": 8939,
      "唔好食": 8940,
      "即係你": 8941,
      "2019年": 8942,
      "今日天氣": 8943,
      "或者係": 8944,
      "都冇用": 8945,
      "我一直": 8946,
      "40": 8947,
      "ed": 8948,
      "po": 8949,
      "um": 8950,
      "下個": 8951,
      "互動": 8952,
      "亦有": 8953,
      "亦都係": 8954,
      "仆街": 8955,
      "作用": 8956,
      "你諗": 8957,
      "你係咪": 8958,
      "佢都唔": 8959,
      "倫敦": 8960,
      "共同": 8961,
      "出車": 8962,
      "創辦": 8963,
      "原則": 8964,
      "又冇": 8965,
      "名嘅": 8966,
      "唔起": 8967,
      "喺邊": 8968,
      "壞咗": 8969,
      "夢想": 8970,
      "好啦": 8971,
      "好得意": 8972,
      "官員": 8973,
      "少年": 8974,
      "得罪": 8975,
      "性格": 8976,
      "愛情": 8977,
      "感受": 8978,
      "我驚": 8979,
      "效果": 8980,
      "檢查": 8981,
      "消防": 8982,
      "爆發": 8983,
      "球場": 8984,
      "畀啲": 8985,
      "當年": 8986,
      "直到": 8987,
      "睇戲": 8988,
      "睇過": 8989,
      "社交": 8990,
      "穩定": 8991,
      "簡直": 8992,
      "網民": 8993,
      "能量": 8994,
      "荔枝": 8995,
      "蛋白": 8996,
      "計算": 8997,
      "過我": 8998,
      "電郵": 8999,
      "飲茶": 9000,
      "飲奶茶": 9001,
      "世界上": 9002,
      "人民共和國": 9003,
      "好鍾意去": 9004,
      "一半": 9005,
      "一名": 9006,
      "中共": 9007,
      "佢自己": 9008,
      "佢做嘢": 9009,
      "佢啱啱": 9010,
      "係冇": 9011,
      "個細路": 9012,
      "先好": 9013,
      "公平": 9014,
      "冬天": 9015,
      "十分": 9016,
      "十萬": 9017,
      "千幾": 9018,
      "取消": 9019,
      "古惑": 9020,
      "同佢哋": 9021,
      "唔覺": 9022,
      "啲嘅": 9023,
      "地圖": 9024,
      "坐低": 9025,
      "坐喺度": 9026,
      "大型": 9027,
      "對手": 9028,
      "居然": 9029,
      "幫襯": 9030,
      "張紙": 9031,
      "思考": 9032,
      "想要": 9033,
      "措施": 9034,
      "有咗": 9035,
      "望住": 9036,
      "滿足": 9037,
      "發行": 9038,
      "的人": 9039,
      "確保": 9040,
      "簡稱": 9041,
      "編輯": 9042,
      "藍色": 9043,
      "蜜蜂": 9044,
      "記錄": 9045,
      "設立": 9046,
      "課程": 9047,
      "請我去": 9048,
      "諗過": 9049,
      "講法": 9050,
      "部機": 9051,
      "離婚": 9052,
      "面積": 9053,
      "點半": 9054,
      "已經係": 9055,
      "兩個月": 9056,
      "35": 9057,
      "6月": 9058,
      "pro": 9059,
      "ta": 9060,
      "一句": 9061,
      "一段": 9062,
      "上網": 9063,
      "五年": 9064,
      "你鍾意": 9065,
      "來自": 9066,
      "做法": 9067,
      "免費": 9068,
      "公里": 9069,
      "冇嘢": 9070,
      "出發": 9071,
      "即時": 9072,
      "呢幅": 9073,
      "周身": 9074,
      "味道": 9075,
      "咗婚": 9076,
      "唔順": 9077,
      "啊真係": 9078,
      "嘅原因": 9079,
      "外交": 9080,
      "大鑊": 9081,
      "小明": 9082,
      "小時": 9083,
      "尼亞": 9084,
      "心嘅": 9085,
      "我相信": 9086,
      "戲院": 9087,
      "晒喇": 9088,
      "法庭": 9089,
      "狼人": 9090,
      "環保": 9091,
      "畀佢哋": 9092,
      "睇法": 9093,
      "美金": 9094,
      "翻版": 9095,
      "脾氣": 9096,
      "西營盤": 9097,
      "賺錢": 9098,
      "酒樓": 9099,
      "願意": 9100,
      "公司嘅": 9101,
      "應該係": 9102,
      "ang": 9103,
      "同佢講": 9104,
      "中華人民共和國": 9105,
      "ect": 9106,
      "一套": 9107,
      "一班": 9108,
      "三文": 9109,
      "你啊": 9110,
      "冇咗": 9111,
      "化嘅": 9112,
      "區嘅": 9113,
      "又好": 9114,
      "同啲": 9115,
      "喺個": 9116,
      "嘅相": 9117,
      "太平": 9118,
      "工會": 9119,
      "張相": 9120,
      "影片": 9121,
      "想做": 9122,
      "我用": 9123,
      "打波": 9124,
      "提高": 9125,
      "損失": 9126,
      "收集": 9127,
      "早期": 9128,
      "明明": 9129,
      "時時": 9130,
      "普遍": 9131,
      "有好": 9132,
      "未見過": 9133,
      "洗手": 9134,
      "洪水": 9135,
      "演唱": 9136,
      "為主": 9137,
      "畀我哋": 9138,
      "程式": 9139,
      "筲箕": 9140,
      "總共": 9141,
      "至少": 9142,
      "至於": 9143,
      "興建": 9144,
      "蘿蔔": 9145,
      "行得": 9146,
      "西方": 9147,
      "起上嚟": 9148,
      "跑馬": 9149,
      "過嘅": 9150,
      "都喺": 9151,
      "錯誤": 9152,
      "我哋去": 9153,
      "但係佢": 9154,
      "但係呢": 9155,
      "但係我": 9156,
      "呢間屋": 9157,
      "運動員": 9158,
      "老人家": 9159,
      "早啲返屋企": 9160,
      "體育館": 9161,
      "for": 9162,
      "iv": 9163,
      "la": 9164,
      "part": 9165,
      "”。": 9166,
      "三角": 9167,
      "不是": 9168,
      "人有": 9169,
      "今個": 9170,
      "仲可以": 9171,
      "但佢": 9172,
      "佛教": 9173,
      "佢兩個": 9174,
      "係點樣": 9175,
      "俾啲": 9176,
      "充滿": 9177,
      "出入": 9178,
      "到時": 9179,
      "同其他": 9180,
      "唔需要": 9181,
      "喺嗰度": 9182,
      "嚟做": 9183,
      "大隻": 9184,
      "女友": 9185,
      "好驚": 9186,
      "好辛苦": 9187,
      "婚姻": 9188,
      "山頂": 9189,
      "手袋": 9190,
      "指出": 9191,
      "數碼": 9192,
      "權利": 9193,
      "流流": 9194,
      "海外": 9195,
      "游泳池": 9196,
      "演出": 9197,
      "牌子": 9198,
      "現象": 9199,
      "疫情": 9200,
      "程序": 9201,
      "總之": 9202,
      "肚餓": 9203,
      "背後": 9204,
      "舊時": 9205,
      "街坊": 9206,
      "規劃": 9207,
      "話自己": 9208,
      "軟件": 9209,
      "近年": 9210,
      "隨便": 9211,
      "領導": 9212,
      "食到": 9213,
      "飲酒": 9214,
      "而家啲": 9215,
      "20年": 9216,
      "噉樣嘅": 9217,
      "佢係一個": 9218,
      "4月": 9219,
      "下晝": 9220,
      "不停": 9221,
      "令我哋": 9222,
      "作者": 9223,
      "佢用": 9224,
      "保險": 9225,
      "借錢": 9226,
      "先會": 9227,
      "內地": 9228,
      "兩次": 9229,
      "句子": 9230,
      "呢幾日": 9231,
      "咗成": 9232,
      "咩嘢": 9233,
      "唔落": 9234,
      "唔講": 9235,
      "啤啤": 9236,
      "喺呢個": 9237,
      "噉啊": 9238,
      "因素": 9239,
      "好貴": 9240,
      "學者": 9241,
      "成個人": 9242,
      "我識": 9243,
      "揸住": 9244,
      "揸車": 9245,
      "日常": 9246,
      "有機會": 9247,
      "水喉": 9248,
      "無聊": 9249,
      "當局": 9250,
      "發出": 9251,
      "發達": 9252,
      "睇得": 9253,
      "股市": 9254,
      "街盪失路": 9255,
      "見面": 9256,
      "設備": 9257,
      "試吓": 9258,
      "話係": 9259,
      "跟著": 9260,
      "連續": 9261,
      "都唔好": 9262,
      "重建": 9263,
      "閱讀": 9264,
      "陣間": 9265,
      "食煙": 9266,
      "食過": 9267,
      "點幾": 9268,
      "我哋應該": 9269,
      "真係冇": 9270,
      "真係唔": 9271,
      "可能係": 9272,
      "有冇人": 9273,
      "2012年": 9274,
      "唔該你": 9275,
      "老師問": 9276,
      "呢條友": 9277,
      "全部都係": 9278,
      "日日都": 9279,
      "一帶": 9280,
      "一於": 9281,
      "上咗": 9282,
      "並唔係": 9283,
      "令佢": 9284,
      "休息": 9285,
      "你嚟": 9286,
      "你聽": 9287,
      "你幾時": 9288,
      "來越": 9289,
      "俾個": 9290,
      "做功課": 9291,
      "冇理由": 9292,
      "利是": 9293,
      "合理": 9294,
      "咁貴": 9295,
      "啦啦": 9296,
      "噉囖": 9297,
      "多個": 9298,
      "大自然": 9299,
      "學識": 9300,
      "小小": 9301,
      "就去": 9302,
      "帶嚟": 9303,
      "廚房": 9304,
      "形容": 9305,
      "後果": 9306,
      "慶祝": 9307,
      "搵食": 9308,
      "播放": 9309,
      "放工": 9310,
      "有兩個": 9311,
      "未有": 9312,
      "正如": 9313,
      "清朝": 9314,
      "漢字": 9315,
      "犯法": 9316,
      "畀個": 9317,
      "畀錢": 9318,
      "真嘅": 9319,
      "興奮": 9320,
      "芝士": 9321,
      "花生": 9322,
      "血管": 9323,
      "西藏": 9324,
      "註冊": 9325,
      "起咗": 9326,
      "逐漸": 9327,
      "醫學": 9328,
      "階段": 9329,
      "非洲": 9330,
      "食油炸鬼": 9331,
      "魯士": 9332,
      "佢哋都": 9333,
      "呢個計劃": 9334,
      "因為你": 9335,
      "202": 9336,
      "有啲嘢": 9337,
      "一啲都唔": 9338,
      "呢間餐廳": 9339,
      "呢間舖頭": 9340,
      "入面嘅": 9341,
      "老闆請我去": 9342,
      "意識到": 9343,
      "ook": 9344,
      "多士飲奶茶": 9345,
      "間餐廳食西": 9346,
      "艇仔粥": 9347,
      "筲箕灣": 9348,
      "間餐廳食西多士飲奶茶": 9349,
      "1月": 9350,
      "3月": 9351,
      "ie": 9352,
      "一點": 9353,
      "何老師問": 9354,
      "入到": 9355,
      "公民": 9356,
      "共產": 9357,
      "加埋": 9358,
      "勸學生": 9359,
      "危機": 9360,
      "哥哥": 9361,
      "嗰種": 9362,
      "嘅機會": 9363,
      "嘅故事": 9364,
      "噚日": 9365,
      "基礎": 9366,
      "基金": 9367,
      "大哥": 9368,
      "天水": 9369,
      "好睇": 9370,
      "寫字": 9371,
      "對象": 9372,
      "就已經": 9373,
      "差啲": 9374,
      "平安": 9375,
      "平方": 9376,
      "廣場": 9377,
      "得多": 9378,
      "改名": 9379,
      "數量": 9380,
      "業主": 9381,
      "模型": 9382,
      "清潔": 9383,
      "為人": 9384,
      "為止": 9385,
      "然之後": 9386,
      "爆炸": 9387,
      "爛咗": 9388,
      "特登": 9389,
      "現正在": 9390,
      "病咗": 9391,
      "發言": 9392,
      "統計": 9393,
      "羅斯": 9394,
      "老母": 9395,
      "老竇": 9396,
      "老虎": 9397,
      "耳仔": 9398,
      "荷蘭": 9399,
      "葡萄": 9400,
      "諗到": 9401,
      "遊樂": 9402,
      "郵票": 9403,
      "我哋係": 9404,
      "我哋想": 9405,
      "可以用": 9406,
      "都係咁": 9407,
      "今日嘅": 9408,
      "嗰啲人": 9409,
      "點解會": 9410,
      "咁多錢": 9411,
      "2017年": 9412,
      "一定係": 9413,
      "好大嘅": 9414,
      "九龍灣": 9415,
      "非常之": 9416,
      "十年代": 9417,
      "爺爺好鍾意去": 9418,
      "Window": 9419,
      "炒麵艇仔粥": 9420,
      "食油炸鬼炒麵艇仔粥": 9421,
      "何老師問現正在": 9422,
      "勸學生早啲返屋企": 9423,
      "4號": 9424,
      "OK": 9425,
      "qu": 9426,
      "一九": 9427,
      "一人": 9428,
      "下個月": 9429,
      "之所以": 9430,
      "乘客": 9431,
      "仲會": 9432,
      "你㗎": 9433,
      "你條": 9434,
      "你有無": 9435,
      "係唔": 9436,
      "俄羅斯": 9437,
      "做唔到": 9438,
      "兩日": 9439,
      "八月": 9440,
      "六合": 9441,
      "冇啊": 9442,
      "冇問題": 9443,
      "利益": 9444,
      "剩係": 9445,
      "千萬": 9446,
      "呢係": 9447,
      "呢段": 9448,
      "唔開": 9449,
      "啤酒": 9450,
      "喺198": 9451,
      "嘅呢": 9452,
      "嘅車": 9453,
      "嘅感覺": 9454,
      "噉即係": 9455,
      "地盤": 9456,
      "夏天": 9457,
      "大多數": 9458,
      "天文": 9459,
      "失望": 9460,
      "字母": 9461,
      "客人": 9462,
      "小販": 9463,
      "居住": 9464,
      "居魯士": 9465,
      "幸福": 9466,
      "恢復": 9467,
      "我認為": 9468,
      "我以為": 9469,
      "搵佢": 9470,
      "收埋": 9471,
      "有事": 9472,
      "柴灣": 9473,
      "比起": 9474,
      "求其": 9475,
      "海鮮": 9476,
      "測驗": 9477,
      "特首": 9478,
      "球員": 9479,
      "着數": 9480,
      "睇見": 9481,
      "統一": 9482,
      "義工": 9483,
      "聯繫": 9484,
      "職員": 9485,
      "落咗": 9486,
      "街買餸": 9487,
      "衰嘢": 9488,
      "越來越": 9489,
      "通知": 9490,
      "部電腦": 9491,
      "釋放": 9492,
      "阻止": 9493,
      "阿爺": 9494,
      "隧道": 9495,
      "隨著": 9496,
      "鬼佬": 9497,
      "鹹濕": 9498,
      "黃金": 9499,
      "好似好": 9500,
      "已經有": 9501,
      "兩個人": 9502,
      "呢度係": 9503,
      "政府嘅": 9504,
      "2010年": 9505,
      "出嚟嘅": 9506,
      "我都覺得": 9507,
      "一百蚊": 9508,
      "實驗室": 9509,
      "ung": 9510,
      "粵文維基百科": 9511,
      "無端端": 9512,
      "天水圍": 9513,
      "Windows": 9514,
      "24": 9515,
      "Cant": 9516,
      "ep": 9517,
      "tr": 9518,
      "》（": 9519,
      "上邊": 9520,
      "乜你咁": 9521,
      "互聯": 9522,
      "你係唔係": 9523,
      "佢講嘢": 9524,
      "係指": 9525,
      "再次": 9526,
      "加強": 9527,
      "十三": 9528,
      "呢篇": 9529,
      "哩度": 9530,
      "唔准": 9531,
      "唔怕": 9532,
      "喺199": 9533,
      "埋去": 9534,
      "好叻": 9535,
      "如何": 9536,
      "婦女": 9537,
      "年齡": 9538,
      "強烈": 9539,
      "得起": 9540,
      "想去": 9541,
      "排隊": 9542,
      "攪掂": 9543,
      "放心": 9544,
      "日報": 9545,
      "日文": 9546,
      "枝筆": 9547,
      "泳灘": 9548,
      "無謂": 9549,
      "版本": 9550,
      "生人": 9551,
      "用途": 9552,
      "眼瞓": 9553,
      "福利": 9554,
      "美元": 9555,
      "耶穌": 9556,
      "臺北": 9557,
      "航空": 9558,
      "色嘅": 9559,
      "英雄": 9560,
      "行吓": 9561,
      "行業": 9562,
      "街嘅垃圾桶搵野食": 9563,
      "裝修": 9564,
      "西蘭": 9565,
      "認得": 9566,
      "貸款": 9567,
      "贏咗": 9568,
      "通訊": 9569,
      "開頭": 9570,
      "高度": 9571,
      "高級": 9572,
      "鰂魚": 9573,
      "佢哋喺": 9574,
      "唔好講": 9575,
      "時間去": 9576,
      "星期六": 9577,
      "最好嘅": 9578,
      "蜘蛛絲": 9579,
      "出車音樂": 9580,
      "古惑仔": 9581,
      "六合彩": 9582,
      "23": 9583,
      "7號": 9584,
      "㗎嘞": 9585,
      "七年": 9586,
      "上市": 9587,
      "下嘅": 9588,
      "下面": 9589,
      "主人": 9590,
      "低咗": 9591,
      "你用": 9592,
      "你都唔": 9593,
      "佢嚟": 9594,
      "供應": 9595,
      "信用": 9596,
      "做好": 9597,
      "傳播": 9598,
      "傷害": 9599,
      "冇見": 9600,
      "冇錯": 9601,
      "到而家": 9602,
      "加上": 9603,
      "十九": 9604,
      "又點": 9605,
      "又唔係": 9606,
      "叉燒": 9607,
      "取得": 9608,
      "哩樣嘢": 9609,
      "哲學家": 9610,
      "唔食": 9611,
      "喺我哋": 9612,
      "嘅地": 9613,
      "嘅小": 9614,
      "在於": 9615,
      "夠晒": 9616,
      "大眾": 9617,
      "天地": 9618,
      "姊妹": 9619,
      "威脅": 9620,
      "學到": 9621,
      "寧願": 9622,
      "對面": 9623,
      "就快": 9624,
      "幫我哋": 9625,
      "幾次": 9626,
      "成就": 9627,
      "成晚": 9628,
      "成班": 9629,
      "我真係好": 9630,
      "我發現": 9631,
      "我細個": 9632,
      "抵得": 9633,
      "描述": 9634,
      "搵你": 9635,
      "架巴士": 9636,
      "水塘": 9637,
      "玩具": 9638,
      "的確": 9639,
      "直程": 9640,
      "瞓唔": 9641,
      "確實": 9642,
      "私人": 9643,
      "等陣": 9644,
      "聲明": 9645,
      "能源": 9646,
      "西灣": 9647,
      "認同": 9648,
      "識講": 9649,
      "足夠": 9650,
      "辭職": 9651,
      "阿仔": 9652,
      "需求": 9653,
      "高興": 9654,
      "今次真係": 9655,
      "所有嘢": 9656,
      "好多人都": 9657,
      "噉𠻺係": 9658,
      "一陣間": 9659,
      "大角咀": 9660,
      "Joh": 9661,
      "洪水橋": 9662,
      "鰂魚涌": 9663,
      "In": 9664,
      "Su": 9665,
      "au": 9666,
      "之內": 9667,
      "五個": 9668,
      "今天": 9669,
      "作出": 9670,
      "你地": 9671,
      "你對": 9672,
      "係乜嘢": 9673,
      "分手": 9674,
      "到個": 9675,
      "到咁": 9676,
      "同情": 9677,
      "呢齣": 9678,
      "唔畀": 9679,
      "喺廣州": 9680,
      "嗰條": 9681,
      "大利": 9682,
      "大把": 9683,
      "大學生": 9684,
      "太子": 9685,
      "失去": 9686,
      "好啊": 9687,
      "好重要": 9688,
      "宇宙": 9689,
      "宿舍": 9690,
      "實施": 9691,
      "將個": 9692,
      "尊重": 9693,
      "小組": 9694,
      "就開始": 9695,
      "提醒": 9696,
      "晏晝": 9697,
      "有心": 9698,
      "梳化": 9699,
      "檔案": 9700,
      "牛奶": 9701,
      "物質": 9702,
      "現金": 9703,
      "男女": 9704,
      "畫面": 9705,
      "眼淚": 9706,
      "睇唔到": 9707,
      "石油": 9708,
      "秘書": 9709,
      "第四": 9710,
      "肌肉": 9711,
      "荷包": 9712,
      "落水": 9713,
      "裡邊": 9714,
      "解放": 9715,
      "課室": 9716,
      "財政": 9717,
      "邏輯": 9718,
      "開口": 9719,
      "阻住": 9720,
      "難以": 9721,
      "電臺": 9722,
      "駕駛": 9723,
      "黑社會": 9724,
      "鍾意佢": 9725,
      "噉樣喇": 9726,
      "唔使咁": 9727,
      "ans": 9728,
      "有人話": 9729,
      "所有嘅": 9730,
      "ard": 9731,
      "ort": 9732,
      "精神病": 9733,
      "Sh": 9734,
      "call": 9735,
      "fe": 9736,
      "ip": 9737,
      "一世": 9738,
      "一大": 9739,
      "一片": 9740,
      "一號": 9741,
      "上升": 9742,
      "主演": 9743,
      "人人": 9744,
      "人心": 9745,
      "以至": 9746,
      "伊朗": 9747,
      "作曲": 9748,
      "你唔係": 9749,
      "係會": 9750,
      "保安": 9751,
      "做埋": 9752,
      "做錯": 9753,
      "儒家": 9754,
      "受歡迎": 9755,
      "同年": 9756,
      "咪得": 9757,
      "唔駛": 9758,
      "喺佢": 9759,
      "喺一個": 9760,
      "嘅特": 9761,
      "噉嘅嘢": 9762,
      "埋一": 9763,
      "大使": 9764,
      "失業": 9765,
      "奧運": 9766,
      "就走": 9767,
      "山道": 9768,
      "市區": 9769,
      "市政": 9770,
      "希臘": 9771,
      "心口": 9772,
      "我問": 9773,
      "我都會": 9774,
      "打得": 9775,
      "招呼": 9776,
      "接近": 9777,
      "整個": 9778,
      "既然": 9779,
      "晒啦": 9780,
      "晚晚": 9781,
      "最重要": 9782,
      "會好": 9783,
      "期望": 9784,
      "本土": 9785,
      "條魚": 9786,
      "歲嘅": 9787,
      "浪費": 9788,
      "燒酒": 9789,
      "物件": 9790,
      "現在": 9791,
      "用到": 9792,
      "皇后": 9793,
      "直至": 9794,
      "相同": 9795,
      "算喇": 9796,
      "結咗婚": 9797,
      "老實": 9798,
      "行過": 9799,
      "街依家橫風橫雨": 9800,
      "衞生": 9801,
      "裝置": 9802,
      "話唔": 9803,
      "追求": 9804,
      "道路": 9805,
      "重有": 9806,
      "金鐘": 9807,
      "針對": 9808,
      "長大": 9809,
      "阿叔": 9810,
      "除非": 9811,
      "障礙": 9812,
      "非法": 9813,
      "馬來": 9814,
      "𡃉啫": 9815,
      "但係你": 9816,
      "都係噉": 9817,
      "2020年": 9818,
      "唔知點解": 9819,
      "噉樣呢": 9820,
      "2011年": 9821,
      "點樣去": 9822,
      "電視台": 9823,
      "年輕人": 9824,
      "今日天氣好": 9825,
      "Canton": 9826,
      "ig": 9827,
      "us": 9828,
      "——": 9829,
      "中山": 9830,
      "主教": 9831,
      "亂咁": 9832,
      "今時": 9833,
      "你同我": 9834,
      "佢唔係": 9835,
      "傷口": 9836,
      "入口": 9837,
      "出奇": 9838,
      "十四": 9839,
      "十字": 9840,
      "呢一個": 9841,
      "呢就係": 9842,
      "呢份工": 9843,
      "咁滯": 9844,
      "和平": 9845,
      "咗之後": 9846,
      "咪咁": 9847,
      "唔關": 9848,
      "唱片": 9849,
      "喺你": 9850,
      "嘅舊": 9851,
      "嘅研究": 9852,
      "嚟緊": 9853,
      "多人": 9854,
      "好正": 9855,
      "學術": 9856,
      "官方": 9857,
      "客戶": 9858,
      "客氣": 9859,
      "局長": 9860,
      "展覽": 9861,
      "幫人": 9862,
      "平台": 9863,
      "幾蚊": 9864,
      "得太": 9865,
      "得返": 9866,
      "循環": 9867,
      "思維": 9868,
      "想法": 9869,
      "手語": 9870,
      "打咗": 9871,
      "掌握": 9872,
      "控股": 9873,
      "搵人": 9874,
      "攻擊": 9875,
      "智慧": 9876,
      "有問題": 9877,
      "權力": 9878,
      "法官": 9879,
      "煮飯": 9880,
      "生咗": 9881,
      "異形": 9882,
      "發咗": 9883,
      "矛盾": 9884,
      "綜合": 9885,
      "聯邦": 9886,
      "街收養左一隻流浪狗": 9887,
      "西亞": 9888,
      "西裝": 9889,
      "言論": 9890,
      "訊息": 9891,
      "評論": 9892,
      "論文": 9893,
      "赤柱": 9894,
      "返個": 9895,
      "返啲": 9896,
      "間學校": 9897,
      "阿哥": 9898,
      "麵包": 9899,
      "我哋已經": 9900,
      "呢個世界": 9901,
      "唔係幾": 9902,
      "好多時": 9903,
      "呢啲係": 9904,
      "我唔記得": 9905,
      "人哋話": 9906,
      "11月": 9907,
      "佢份人好": 9908,
      "食完飯": 9909,
      "心臟病": 9910,
      "遊樂場": 9911,
      "互聯網": 9912,
      "2月": 9913,
      "3日": 9914,
      "60": 9915,
      "ist": 9916,
      "一蚊": 9917,
      "上司": 9918,
      "事物": 9919,
      "人講": 9920,
      "今個月": 9921,
      "但我哋": 9922,
      "你睇下": 9923,
      "佢喇": 9924,
      "佢屋企": 9925,
      "佢去咗": 9926,
      "係唔會": 9927,
      "保留": 9928,
      "候選": 9929,
      "停止": 9930,
      "優惠": 9931,
      "動力": 9932,
      "參考": 9933,
      "受害": 9934,
      "台灣": 9935,
      "呢本": 9936,
      "唔過": 9937,
      "嘅關係": 9938,
      "四旋": 9939,
      "圖片": 9940,
      "團體": 9941,
      "報道": 9942,
      "多年": 9943,
      "大雨": 9944,
      "天時": 9945,
      "如此": 9946,
      "字嘅": 9947,
      "宣傳": 9948,
      "實現": 9949,
      "對住": 9950,
      "就系": 9951,
      "展示": 9952,
      "常見": 9953,
      "幼稚": 9954,
      "幾個人": 9955,
      "忽然": 9956,
      "意志": 9957,
      "成熟": 9958,
      "我啊": 9959,
      "所講": 9960,
      "技巧": 9961,
      "抑或": 9962,
      "投訴": 9963,
      "採用": 9964,
      "揾唔到": 9965,
      "擺喺": 9966,
      "放咗": 9967,
      "教書": 9968,
      "書院": 9969,
      "有隻": 9970,
      "林榮": 9971,
      "沙灘": 9972,
      "濕濕": 9973,
      "熒光": 9974,
      "獅子": 9975,
      "畀咗": 9976,
      "睇書": 9977,
      "總會": 9978,
      "著住": 9979,
      "著名": 9980,
      "處於": 9981,
      "街道": 9982,
      "街探舅父": 9983,
      "街嗰間缽仔糕": 9984,
      "衝突": 9985,
      "認知": 9986,
      "講大話": 9987,
      "跑步": 9988,
      "踢波": 9989,
      "身材": 9990,
      "輕輕": 9991,
      "農曆": 9992,
      "重視": 9993,
      "黃竹": 9994,
      "黑色": 9995,
      "點呢": 9996,
      "點講": 9997,
      "𡃉嘞": 9998,
      "唔好睇": 9999,
      "唔好成日": 10000,
      "點解要": 10001,
      "我唔識": 10002,
      "嘅時候呢": 10003,
      "同你講": 10004,
      "嘅話呢": 10005,
      "經濟學": 10006,
      "10月": 10007,
      "人工智能": 10008,
      "共產黨": 10009,
      "四旋翼": 10010,
      "45": 10011,
      "ak": 10012,
      "os": 10013,
      "ot": 10014,
      "up": 10015,
      "一時": 10016,
      "一本": 10017,
      "一身": 10018,
      "一開始": 10019,
      "主意": 10020,
      "乜你": 10021,
      "乜咁": 10022,
      "令佢哋": 10023,
      "以來": 10024,
      "佢啊": 10025,
      "佢打": 10026,
      "佢食": 10027,
      "佢今日": 10028,
      "佢喺度": 10029,
      "個名": 10030,
      "傢俬": 10031,
      "儀式": 10032,
      "入場": 10033,
      "兩隻": 10034,
      "八年": 10035,
      "再講": 10036,
      "初期": 10037,
      "判斷": 10038,
      "創立": 10039,
      "功夫": 10040,
      "半島": 10041,
      "又會": 10042,
      "口罩": 10043,
      "同大家": 10044,
      "名單": 10045,
      "嘅字": 10046,
      "嘅結果": 10047,
      "器官": 10048,
      "埲牆": 10049,
      "墨西": 10050,
      "多咗": 10051,
      "大咗": 10052,
      "大細": 10053,
      "天下": 10054,
      "安樂": 10055,
      "尷尬": 10056,
      "建設": 10057,
      "影像": 10058,
      "我俾": 10059,
      "技能": 10060,
      "把口": 10061,
      "按照": 10062,
      "掃描": 10063,
      "搞錯": 10064,
      "整到": 10065,
      "數目": 10066,
      "斯坦": 10067,
      "是非": 10068,
      "校園": 10069,
      "樂隊": 10070,
      "殺死": 10071,
      "母語": 10072,
      "氣氛": 10073,
      "玩到": 10074,
      "珍惜": 10075,
      "用得": 10076,
      "當選": 10077,
      "相似": 10078,
      "睇你": 10079,
      "瞭解": 10080,
      "等到": 10081,
      "粟米": 10082,
      "細嘅": 10083,
      "華人": 10084,
      "街頭": 10085,
      "街嗰度買啲嘢": 10086,
      "衛生": 10087,
      "裏便": 10088,
      "要小心": 10089,
      "親戚": 10090,
      "話我": 10091,
      "諗起": 10092,
      "資金": 10093,
      "農業": 10094,
      "運輸": 10095,
      "道歉": 10096,
      "違反": 10097,
      "關鍵": 10098,
      "雀仔": 10099,
      "青衣": 10100,
      "韻圖": 10101,
      "領袖": 10102,
      "即係佢": 10103,
      "190": 10104,
      "今次嘅": 10105,
      "如果你想": 10106,
      "有好多人": 10107,
      "我諗住": 10108,
      "發生咗": 10109,
      "梗係要": 10110,
      "意思係": 10111,
      "幾年前": 10112,
      "太陽能": 10113,
      "演唱會": 10114,
      "跑馬地": 10115,
      "John": 10116,
      "林榮基": 10117,
      "黃竹坑": 10118,
      "墨西哥": 10119,
      "book": 10120,
      "com": 10121,
      "mon": 10122,
      "一天": 10123,
      "一早": 10124,
      "三個月": 10125,
      "九月": 10126,
      "人事": 10127,
      "你呢": 10128,
      "你屋企": 10129,
      "你就會": 10130,
      "佢先": 10131,
      "係同": 10132,
      "係時候": 10133,
      "個肚": 10134,
      "六年": 10135,
      "冇事": 10136,
      "冇用": 10137,
      "冇幾耐": 10138,
      "到去": 10139,
      "南京": 10140,
      "原子": 10141,
      "又可以": 10142,
      "只可以": 10143,
      "合法": 10144,
      "呢類": 10145,
      "咁上下": 10146,
      "哩一個": 10147,
      "唔算": 10148,
      "嘅行為": 10149,
      "噉都": 10150,
      "回收": 10151,
      "因爲": 10152,
      "地名": 10153,
      "型嘅": 10154,
      "多唔多": 10155,
      "大力": 10156,
      "夫妻": 10157,
      "失禮": 10158,
      "好喇": 10159,
      "妹妹": 10160,
      "定啲": 10161,
      "尋找": 10162,
      "山路": 10163,
      "得喇": 10164,
      "得幾": 10165,
      "意大利": 10166,
      "成嘅": 10167,
      "成長": 10168,
      "我呢": 10169,
      "我從": 10170,
      "我見": 10171,
      "我淨係": 10172,
      "我老公": 10173,
      "我幫你": 10174,
      "承認": 10175,
      "收工": 10176,
      "故仔": 10177,
      "教會": 10178,
      "時刻": 10179,
      "有五": 10180,
      "架喇": 10181,
      "校舍": 10182,
      "櫃桶": 10183,
      "法院": 10184,
      "流動": 10185,
      "港鐵": 10186,
      "滿意": 10187,
      "無綫": 10188,
      "物品": 10189,
      "甩咗": 10190,
      "番禺": 10191,
      "畫畫": 10192,
      "痛苦": 10193,
      "登記": 10194,
      "相對": 10195,
      "禁止": 10196,
      "而喺": 10197,
      "肉酸": 10198,
      "萬人": 10199,
      "訓讀": 10200,
      "診斷": 10201,
      "語音": 10202,
      "警長": 10203,
      "起來": 10204,
      "越南": 10205,
      "跳舞": 10206,
      "車去": 10207,
      "軍事": 10208,
      "辯論": 10209,
      "遊客": 10210,
      "開幕": 10211,
      "題目": 10212,
      "食藥": 10213,
      "飲杯": 10214,
      "首次": 10215,
      "我哋公司": 10216,
      "可以將": 10217,
      "真係有": 10218,
      "呢度嘅": 10219,
      "ert": 10220,
      "國家嘅": 10221,
      "上面嘅": 10222,
      "一次過": 10223,
      "你做咩": 10224,
      "ack": 10225,
      "聯合國": 10226,
      "5日": 10227,
      "6號": 10228,
      "Kong": 10229,
      "NT": 10230,
      "ai": 10231,
      "ff": 10232,
      "上台": 10233,
      "並唔": 10234,
      "人啊": 10235,
      "人數": 10236,
      "介意": 10237,
      "伙記": 10238,
      "作文": 10239,
      "你都係": 10240,
      "你以為": 10241,
      "佢呀": 10242,
      "佢要": 10243,
      "佢唔會": 10244,
      "俾錢": 10245,
      "個賊": 10246,
      "做啲": 10247,
      "公佈": 10248,
      "出口": 10249,
      "出生": 10250,
      "刺激": 10251,
      "包含": 10252,
      "十個": 10253,
      "卒之": 10254,
      "反映": 10255,
      "取代": 10256,
      "可憐": 10257,
      "呢款": 10258,
      "咗咁耐": 10259,
      "唔中": 10260,
      "唔嚟": 10261,
      "唔緊要": 10262,
      "問下": 10263,
      "啱唔啱": 10264,
      "單嘢": 10265,
      "嘅咩": 10266,
      "嚇到": 10267,
      "回憶": 10268,
      "地址": 10269,
      "埋單": 10270,
      "埋我": 10271,
      "好嘢": 10272,
      "孤寒": 10273,
      "完整": 10274,
      "家族": 10275,
      "寫嘅": 10276,
      "就到": 10277,
      "就噉": 10278,
      "就即刻": 10279,
      "層樓": 10280,
      "左手": 10281,
      "底下": 10282,
      "廣播": 10283,
      "形象": 10284,
      "我將": 10285,
      "我決定": 10286,
      "打晒": 10287,
      "提升": 10288,
      "搵緊": 10289,
      "攞嚟": 10290,
      "支援": 10291,
      "新加坡": 10292,
      "早晨": 10293,
      "是但": 10294,
      "晚上": 10295,
      "書店": 10296,
      "最初": 10297,
      "核心": 10298,
      "極都唔": 10299,
      "樓上": 10300,
      "毫無": 10301,
      "浪漫": 10302,
      "物種": 10303,
      "猛咁": 10304,
      "生果": 10305,
      "用戶": 10306,
      "界嘅": 10307,
      "發燒": 10308,
      "皇帝": 10309,
      "眼光": 10310,
      "眼前": 10311,
      "眼睛": 10312,
      "睇電視": 10313,
      "神秘": 10314,
      "窮人": 10315,
      "笑到": 10316,
      "缺乏": 10317,
      "而今": 10318,
      "腰骨": 10319,
      "花樽": 10320,
      "街兜左幾個圈": 10321,
      "要睇": 10322,
      "規定": 10323,
      "觀察": 10324,
      "講話": 10325,
      "警告": 10326,
      "讀完": 10327,
      "貨櫃": 10328,
      "距地": 10329,
      "身為": 10330,
      "近排": 10331,
      "過頭": 10332,
      "部隊": 10333,
      "配合": 10334,
      "醒目": 10335,
      "銀紙": 10336,
      "長官": 10337,
      "長期": 10338,
      "隻貓": 10339,
      "雞翼": 10340,
      "霸王": 10341,
      "風吹": 10342,
      "風格": 10343,
      "餐飯": 10344,
      "魷魚": 10345,
      "一個好": 10346,
      "即係我": 10347,
      "問題嘅": 10348,
      "見到佢": 10349,
      "我唔鍾意": 10350,
      "大學畢業": 10351,
      "2007年": 10352,
      "2009年": 10353,
      "有一次": 10354,
      "電視臺": 10355,
      "我好鍾意": 10356,
      "星期一": 10357,
      "工程師": 10358,
      "riend": 10359,
      "蛋白質": 10360,
      "Hong": 10361,
      "TV": 10362,
      "TED": 10363,
      "son": 10364,
      "。「": 10365,
      "一家": 10366,
      "一度": 10367,
      "乜鬼": 10368,
      "亂噏": 10369,
      "二千": 10370,
      "五分鐘": 10371,
      "些少": 10372,
      "仲有好多": 10373,
      "你食": 10374,
      "你做乜": 10375,
      "保證": 10376,
      "信任": 10377,
      "個袋": 10378,
      "假設": 10379,
      "做嘅嘢": 10380,
      "冇咩": 10381,
      "冇可能": 10382,
      "冬瓜": 10383,
      "出門口": 10384,
      "印象": 10385,
      "原諒": 10386,
      "去日本": 10387,
      "只是": 10388,
      "可樂": 10389,
      "右手": 10390,
      "呼吸": 10391,
      "咗嘅": 10392,
      "唔似": 10393,
      "商人": 10394,
      "啊噉樣": 10395,
      "啲細路仔": 10396,
      "喺中國": 10397,
      "嘅世界": 10398,
      "嘅女人": 10399,
      "嘅環境": 10400,
      "嘅經歷": 10401,
      "嘅過程": 10402,
      "噉又": 10403,
      "四年": 10404,
      "增長": 10405,
      "大戰": 10406,
      "天堂": 10407,
      "好平": 10408,
      "客運": 10409,
      "實力": 10410,
      "對外": 10411,
      "往往": 10412,
      "得掂": 10413,
      "得過": 10414,
      "必要": 10415,
      "成世": 10416,
      "我打": 10417,
      "打風": 10418,
      "指揮": 10419,
      "推行": 10420,
      "最早": 10421,
      "條繩": 10422,
      "標誌": 10423,
      "武器": 10424,
      "滾水": 10425,
      "演奏": 10426,
      "漢文": 10427,
      "烏蠅": 10428,
      "爭啲": 10429,
      "理佢": 10430,
      "男性": 10431,
      "瘋狂": 10432,
      "盡量": 10433,
      "睇睇": 10434,
      "第時": 10435,
      "籃球": 10436,
      "細菌": 10437,
      "經典": 10438,
      "網路": 10439,
      "編碼": 10440,
      "總理": 10441,
      "聯盟": 10442,
      "聲氣": 10443,
      "職位": 10444,
      "艱難": 10445,
      "行嘅": 10446,
      "補習": 10447,
      "西瓜": 10448,
      "觀點": 10449,
      "評估": 10450,
      "話畀": 10451,
      "語文": 10452,
      "論盡": 10453,
      "講咗": 10454,
      "講笑": 10455,
      "豬扒": 10456,
      "貢獻": 10457,
      "資助": 10458,
      "道德": 10459,
      "還是": 10460,
      "都做": 10461,
      "都喺度": 10462,
      "鉛筆": 10463,
      "鏡頭": 10464,
      "青山": 10465,
      "黃色": 10466,
      "黐線": 10467,
      "我哋將": 10468,
      "呢個病": 10469,
      "即係譬如": 10470,
      "香港仔": 10471,
      "香港大學": 10472,
      "但係我哋": 10473,
      "乜嘢事": 10474,
      "中國人": 10475,
      "one": 10476,
      "得好快": 10477,
      "多謝你": 10478,
      "ace": 10479,
      "交易所": 10480,
      "實在太": 10481,
      "手提電話": 10482,
      ".，": 10483,
      "3號": 10484,
      "6日": 10485,
      "80": 10486,
      "Com": 10487,
      "The": 10488,
      "ject": 10489,
      "ris": 10490,
      "ue": 10491,
      "一塊": 10492,
      "一座": 10493,
      "一生": 10494,
      "一萬": 10495,
      "上年": 10496,
      "下降": 10497,
      "不嬲": 10498,
      "五點": 10499,
      "以嚟": 10500,
      "住宅": 10501,
      "你知道": 10502,
      "你幫我": 10503,
      "佢鍾意": 10504,
      "係度": 10505,
      "假名": 10506,
      "先係": 10507,
      "先喇": 10508,
      "南海": 10509,
      "南部": 10510,
      "南韓": 10511,
      "又叫": 10512,
      "受傷": 10513,
      "史觀": 10514,
      "同個": 10515,
      "呢幾": 10516,
      "命名": 10517,
      "咁講": 10518,
      "唔入": 10519,
      "唔成": 10520,
      "唔聽": 10521,
      "喺學校": 10522,
      "嘅海": 10523,
      "嘅影響": 10524,
      "嘅兒童": 10525,
      "嚟呢度": 10526,
      "回答": 10527,
      "圓柱": 10528,
      "執到": 10529,
      "外面": 10530,
      "大頭": 10531,
      "夫婦": 10532,
      "失咗": 10533,
      "夾硬": 10534,
      "套戲": 10535,
      "好差": 10536,
      "好慘": 10537,
      "好長": 10538,
      "好簡單": 10539,
      "家嘅": 10540,
      "實行": 10541,
      "專門": 10542,
      "就想": 10543,
      "得嘅": 10544,
      "慈善": 10545,
      "我叫": 10546,
      "我當時": 10547,
      "扶林": 10548,
      "拍攝": 10549,
      "捉到": 10550,
      "採取": 10551,
      "揾工": 10552,
      "敏感": 10553,
      "料到": 10554,
      "曆法": 10555,
      "欣賞": 10556,
      "歌曲": 10557,
      "清水灣": 10558,
      "減肥": 10559,
      "爭取": 10560,
      "爭議": 10561,
      "父親": 10562,
      "甜品": 10563,
      "用品": 10564,
      "發音": 10565,
      "直頭": 10566,
      "符合": 10567,
      "細蚊": 10568,
      "總結": 10569,
      "總部": 10570,
      "舞蹈": 10571,
      "薄扶林": 10572,
      "號碼": 10573,
      "街公園打韆鞦": 10574,
      "街對開嗰個巴士站": 10575,
      "討厭": 10576,
      "謀殺": 10577,
      "講返": 10578,
      "證實": 10579,
      "資本": 10580,
      "選區": 10581,
      "開胃": 10582,
      "集中": 10583,
      "雙方": 10584,
      "響度": 10585,
      "預防": 10586,
      "食水": 10587,
      "體驗": 10588,
      "高中": 10589,
      "因為呢": 10590,
      "都唔得": 10591,
      "就係噉": 10592,
      "191": 10593,
      "呢啲人": 10594,
      "唔到佢": 10595,
      "見到你": 10596,
      "點解唔": 10597,
      "都冇乜": 10598,
      "快啲去": 10599,
      "跟住就": 10600,
      "美國人": 10601,
      "得好好": 10602,
      "我好想": 10603,
      "佢好鍾意": 10604,
      "你唔好咁": 10605,
      "咁樣嘅": 10606,
      "呢套戲": 10607,
      "基督教": 10608,
      "2000年": 10609,
      "你識唔識": 10610,
      "37": 10611,
      "500": 10612,
      "Mar": 10613,
      "Ro": 10614,
      "friend": 10615,
      "iP": 10616,
      "ry": 10617,
      "一代": 10618,
      "一共": 10619,
      "一味": 10620,
      "一排": 10621,
      "一粒": 10622,
      "一腳": 10623,
      "七月": 10624,
      "三次": 10625,
      "三百": 10626,
      "上個月": 10627,
      "不滿": 10628,
      "並非": 10629,
      "乜乜": 10630,
      "二百": 10631,
      "亦都有": 10632,
      "享受": 10633,
      "人地": 10634,
      "仔細": 10635,
      "住咗": 10636,
      "你同": 10637,
      "你等": 10638,
      "你可能": 10639,
      "你唔可以": 10640,
      "信念": 10641,
      "價格": 10642,
      "先後": 10643,
      "先有": 10644,
      "公婆": 10645,
      "冇乜嘢": 10646,
      "出年": 10647,
      "分數": 10648,
      "分開": 10649,
      "分分鐘": 10650,
      "到呢": 10651,
      "加州": 10652,
      "升職": 10653,
      "卡路": 10654,
      "可持續": 10655,
      "咁熱": 10656,
      "咁鬼": 10657,
      "咋喎": 10658,
      "唔敢": 10659,
      "唔止": 10660,
      "啲魚": 10661,
      "喺呢": 10662,
      "嘅樣": 10663,
      "嘅朋友": 10664,
      "嘅聲音": 10665,
      "嘅位置": 10666,
      "回應": 10667,
      "地點": 10668,
      "場地": 10669,
      "場面": 10670,
      "塞車": 10671,
      "外甥": 10672,
      "大道": 10673,
      "大規模": 10674,
      "天主教": 10675,
      "好勁": 10676,
      "客家": 10677,
      "少啲": 10678,
      "差異": 10679,
      "市長": 10680,
      "後嘅": 10681,
      "得你": 10682,
      "得出": 10683,
      "心思": 10684,
      "成為咗": 10685,
      "我估": 10686,
      "我記得": 10687,
      "我只係": 10688,
      "手續": 10689,
      "推廣": 10690,
      "教堂": 10691,
      "整蠱": 10692,
      "整體": 10693,
      "斷咗": 10694,
      "晨早": 10695,
      "最新": 10696,
      "未去過": 10697,
      "某個": 10698,
      "案件": 10699,
      "條例": 10700,
      "業務": 10701,
      "死我": 10702,
      "每晚": 10703,
      "每個月": 10704,
      "比例": 10705,
      "河北": 10706,
      "活躍": 10707,
      "清晰": 10708,
      "營運": 10709,
      "特殊": 10710,
      "猶太": 10711,
      "生性": 10712,
      "留喺": 10713,
      "禮貌": 10714,
      "積極": 10715,
      "突破": 10716,
      "節奏": 10717,
      "糖尿": 10718,
      "肥胖": 10719,
      "茶餐廳": 10720,
      "街打乒乓波": 10721,
      "街跌左部手機": 10722,
      "讀過": 10723,
      "豬仔": 10724,
      "買到": 10725,
      "貼士": 10726,
      "走得": 10727,
      "超市": 10728,
      "路係喺": 10729,
      "酒吧": 10730,
      "颱風": 10731,
      "食啦": 10732,
      "鴛鴦": 10733,
      "𡃉咩": 10734,
      "我哋用": 10735,
      "我哋知道": 10736,
      "唔係我": 10737,
      "好多錢": 10738,
      "但係佢哋": 10739,
      "有啲乜嘢": 10740,
      "2006年": 10741,
      "2003年": 10742,
      "第二日": 10743,
      "請問你有無": 10744,
      "月22": 10745,
      "188": 10746,
      "1949年": 10747,
      "keep": 10748,
      "返到屋企": 10749,
      "得人驚": 10750,
      "荔枝角": 10751,
      "細蚊仔": 10752,
      "卡路里": 10753,
      "請問你有無聽過": 10754,
      "St": 10755,
      "ast": 10756,
      "man": 10757,
      "mar": 10758,
      "od": 10759,
      "ok": 10760,
      "一嚿": 10761,
      "一部分": 10762,
      "人同": 10763,
      "人呢": 10764,
      "企喺度": 10765,
      "佢老婆": 10766,
      "來源": 10767,
      "促進": 10768,
      "入侵": 10769,
      "兩句": 10770,
      "兩公婆": 10771,
      "出糧": 10772,
      "列車": 10773,
      "到人": 10774,
      "助理": 10775,
      "勞工": 10776,
      "十足": 10777,
      "十分鐘": 10778,
      "協助": 10779,
      "古代": 10780,
      "合約": 10781,
      "呢塊": 10782,
      "呢兩個": 10783,
      "咁少": 10784,
      "咖喱": 10785,
      "哩啲嘢": 10786,
      "啲學生": 10787,
      "喉嚨": 10788,
      "嗰排": 10789,
      "嘅國家": 10790,
      "嘅文章": 10791,
      "嘉賓": 10792,
      "嘢啦": 10793,
      "四圍": 10794,
      "大橋": 10795,
      "天然": 10796,
      "好奇": 10797,
      "好細": 10798,
      "完美": 10799,
      "實習": 10800,
      "對抗": 10801,
      "對鞋": 10802,
      "就講": 10803,
      "就唔會": 10804,
      "嶺南": 10805,
      "巴黎": 10806,
      "意粉": 10807,
      "成果": 10808,
      "成隻": 10809,
      "我嚟": 10810,
      "我所": 10811,
      "我阿媽": 10812,
      "投入": 10813,
      "捨得": 10814,
      "推動": 10815,
      "搭車": 10816,
      "改咗": 10817,
      "文物": 10818,
      "新田": 10819,
      "日期": 10820,
      "晒出嚟": 10821,
      "書寫": 10822,
      "最低": 10823,
      "最尾": 10824,
      "會去": 10825,
      "會考": 10826,
      "有多": 10827,
      "有用": 10828,
      "有可能": 10829,
      "有唔少": 10830,
      "朝頭": 10831,
      "枕頭": 10832,
      "條褲": 10833,
      "機制": 10834,
      "機票": 10835,
      "泰國": 10836,
      "火燭": 10837,
      "災難": 10838,
      "炒飯": 10839,
      "炮仗": 10840,
      "燈籠": 10841,
      "犯罪": 10842,
      "玩嘅": 10843,
      "理想": 10844,
      "生態": 10845,
      "睇完": 10846,
      "睇醫生": 10847,
      "石頭": 10848,
      "確認": 10849,
      "空中": 10850,
      "笑容": 10851,
      "精彩": 10852,
      "緊嘅": 10853,
      "罷啦": 10854,
      "翻屋企": 10855,
      "聲援": 10856,
      "肥仔": 10857,
      "落車": 10858,
      "蛇王": 10859,
      "螺絲": 10860,
      "街買左三磅士多啤梨返屋企": 10861,
      "被人": 10862,
      "見佢": 10863,
      "設有": 10864,
      "請咗": 10865,
      "議事": 10866,
      "豐原": 10867,
      "贊成": 10868,
      "走啦": 10869,
      "足以": 10870,
      "路唔見左個銀包": 10871,
      "轉移": 10872,
      "這個": 10873,
      "週年": 10874,
      "遵守": 10875,
      "邋遢": 10876,
      "都覺得": 10877,
      "重複": 10878,
      "隻眼": 10879,
      "頂唔順": 10880,
      "順利": 10881,
      "騷擾": 10882,
      "呢個字": 10883,
      "香港政府": 10884,
      "自己的": 10885,
      "都唔夠": 10886,
      "所以佢": 10887,
      "世界各地": 10888,
      "我想講": 10889,
      "ine": 10890,
      "are": 10891,
      "聽日係": 10892,
      "嘅一種": 10893,
      "佢就話": 10894,
      "你會唔會": 10895,
      "ice": 10896,
      "準備好": 10897,
      "馬來西亞": 10898,
      "今時今日": 10899,
      "幼稚園": 10900,
      "朝頭早": 10901,
      "1日": 10902,
      "7日": 10903,
      "90": 10904,
      "9日": 10905,
      "For": 10906,
      "ab": 10907,
      "av": 10908,
      "ev": 10909,
      "一分": 10910,
      "一刻": 10911,
      "一口": 10912,
      "一手": 10913,
      "一支": 10914,
      "一晚": 10915,
      "七八": 10916,
      "上個": 10917,
      "上帝": 10918,
      "下一個": 10919,
      "不時": 10920,
      "之類": 10921,
      "二手": 10922,
      "二零": 10923,
      "交換": 10924,
      "他人": 10925,
      "你喺度": 10926,
      "佢生": 10927,
      "佢畀": 10928,
      "佢為咗": 10929,
      "俾我哋": 10930,
      "個波": 10931,
      "做事": 10932,
      "傳染": 10933,
      "傳譯": 10934,
      "元素": 10935,
      "六個": 10936,
      "分為": 10937,
      "分離": 10938,
      "初選": 10939,
      "動畫": 10940,
      "區議會": 10941,
      "去買": 10942,
      "參觀": 10943,
      "史上": 10944,
      "吸收": 10945,
      "呢架": 10946,
      "呢行": 10947,
      "咁長": 10948,
      "咗入": 10949,
      "唔小心": 10950,
      "啲衫": 10951,
      "啲女仔": 10952,
      "喺街": 10953,
      "嘅心": 10954,
      "嘅病": 10955,
      "嘅能力": 10956,
      "國立": 10957,
      "圖像": 10958,
      "在座": 10959,
      "埋口": 10960,
      "太過": 10961,
      "好犀利": 10962,
      "好明顯": 10963,
      "學期": 10964,
      "實質": 10965,
      "將佢哋": 10966,
      "左邊": 10967,
      "帝國": 10968,
      "幾百": 10969,
      "幾靚": 10970,
      "度嘅": 10971,
      "從事": 10972,
      "忽略": 10973,
      "恭喜": 10974,
      "應付": 10975,
      "應對": 10976,
      "我行": 10977,
      "我朋友": 10978,
      "我喺度": 10979,
      "打扮": 10980,
      "批准": 10981,
      "揾我": 10982,
      "數嘅": 10983,
      "明朝": 10984,
      "明知": 10985,
      "更好": 10986,
      "有所": 10987,
      "有排": 10988,
      "有三個": 10989,
      "某啲": 10990,
      "條裙": 10991,
      "模特": 10992,
      "樣樣": 10993,
      "氣體": 10994,
      "氧化": 10995,
      "法例": 10996,
      "波斯": 10997,
      "減價": 10998,
      "漁民": 10999,
      "漫畫": 11000,
      "灣泳灘": 11001,
      "無啦啦": 11002,
      "牙煙": 11003,
      "狀況": 11004,
      "男子": 11005,
      "畀心機": 11006,
      "當佢": 11007,
      "癌症": 11008,
      "發揮": 11009,
      "白白": 11010,
      "知名": 11011,
      "種族": 11012,
      "笑口": 11013,
      "等你": 11014,
      "策略": 11015,
      "糖水": 11016,
      "純粹": 11017,
      "統治": 11018,
      "維修": 11019,
      "耳窿": 11020,
      "股份": 11021,
      "背脊": 11022,
      "自在": 11023,
      "自稱": 11024,
      "與其": 11025,
      "菠蘿": 11026,
      "薯仔": 11027,
      "街參加緩步跑練習": 11028,
      "西洋": 11029,
      "詞語": 11030,
      "請大家": 11031,
      "護士": 11032,
      "豉油": 11033,
      "財經": 11034,
      "買樓": 11035,
      "路嗰度買啲嘢": 11036,
      "辭典": 11037,
      "這是": 11038,
      "通宵": 11039,
      "過身": 11040,
      "適應": 11041,
      "間中": 11042,
      "防止": 11043,
      "陽光": 11044,
      "零售": 11045,
      "鞍山": 11046,
      "顧問": 11047,
      "風景": 11048,
      "點得": 11049,
      "點心": 11050,
      "點可以": 11051,
      "我哋冇": 11052,
      "我哋唔": 11053,
      "我哋對": 11054,
      "一個禮拜": 11055,
      "佢哋可以": 11056,
      "呢個時候": 11057,
      "呢個項目": 11058,
      "都係由": 11059,
      "就係咁": 11060,
      "今日我": 11061,
      "我想買": 11062,
      "一定有": 11063,
      "得好犀利": 11064,
      "電視機": 11065,
      "嘅一部分": 11066,
      "係一間": 11067,
      "嗰陣時呢": 11068,
      "呢條路": 11069,
      "1999年": 11070,
      "俾你聽": 11071,
      "簡單嘅": 11072,
      "無論係": 11073,
      "主義者": 11074,
      "更多嘅": 11075,
      "地鐵站": 11076,
      "app": 11077,
      "天后廟": 11078,
      "西灣河": 11079,
      "多唔多人": 11080,
      "4日": 11081,
      "ck": 11082,
      "est": 11083,
      "。《": 11084,
      "一到": 11085,
      "一杯": 11086,
      "不會": 11087,
      "世上": 11088,
      "主動": 11089,
      "以外": 11090,
      "似樣": 11091,
      "但喺": 11092,
      "你吖": 11093,
      "你的": 11094,
      "你唔會": 11095,
      "你兩個": 11096,
      "你快啲": 11097,
      "你最好": 11098,
      "佢呢排": 11099,
      "使得": 11100,
      "係做": 11101,
      "係我嘅": 11102,
      "俾佢哋": 11103,
      "個噃": 11104,
      "個天": 11105,
      "偷雞": 11106,
      "優勢": 11107,
      "優秀": 11108,
      "先嚟": 11109,
      "全息": 11110,
      "全面": 11111,
      "兩邊": 11112,
      "兩頭": 11113,
      "兩兄弟": 11114,
      "公會": 11115,
      "到黑": 11116,
      "到好似": 11117,
      "化妝": 11118,
      "區內": 11119,
      "十歲": 11120,
      "去搵": 11121,
      "又一": 11122,
      "叫人": 11123,
      "可惜": 11124,
      "可愛": 11125,
      "呢座": 11126,
      "咁遠": 11127,
      "唔埋": 11128,
      "唔合格": 11129,
      "問你": 11130,
      "啲相": 11131,
      "喇嘛": 11132,
      "嗰班": 11133,
      "嘅第一": 11134,
      "嘅發展": 11135,
      "嘅經濟": 11136,
      "噉呢就": 11137,
      "嚟啦": 11138,
      "嚟睇": 11139,
      "嚹喎": 11140,
      "回覆": 11141,
      "坪洲": 11142,
      "堅尼": 11143,
      "士兵": 11144,
      "大師": 11145,
      "失魂": 11146,
      "子女": 11147,
      "定定": 11148,
      "寵物": 11149,
      "封面": 11150,
      "專心": 11151,
      "專登": 11152,
      "對佢": 11153,
      "小事": 11154,
      "小型": 11155,
      "島嘅": 11156,
      "帶到": 11157,
      "帶埋": 11158,
      "幅畫": 11159,
      "幾錢": 11160,
      "張牀": 11161,
      "從而": 11162,
      "患者": 11163,
      "感冒": 11164,
      "感染": 11165,
      "我就會": 11166,
      "我都好": 11167,
      "我今晚": 11168,
      "我家姐": 11169,
      "手法": 11170,
      "手腳": 11171,
      "打擊": 11172,
      "打邊": 11173,
      "招牌": 11174,
      "搭咩": 11175,
      "放低": 11176,
      "放入": 11177,
      "有機": 11178,
      "果陣": 11179,
      "條命": 11180,
      "條約": 11181,
      "樓梯": 11182,
      "歌星": 11183,
      "正正": 11184,
      "武漢": 11185,
      "民間": 11186,
      "沙士": 11187,
      "準確": 11188,
      "烏龍": 11189,
      "熱帶": 11190,
      "熱情": 11191,
      "營業": 11192,
      "牛扒": 11193,
      "牛油": 11194,
      "物業": 11195,
      "特色": 11196,
      "班牙": 11197,
      "生理": 11198,
      "留學": 11199,
      "當勞": 11200,
      "發電": 11201,
      "白鴿": 11202,
      "真相": 11203,
      "眼眉": 11204,
      "眼神": 11205,
      "着咗": 11206,
      "睇啊": 11207,
      "睇返": 11208,
      "破產": 11209,
      "私家": 11210,
      "穩陣": 11211,
      "童年": 11212,
      "第五": 11213,
      "經期": 11214,
      "美食": 11215,
      "考到": 11216,
      "而我哋": 11217,
      "自細": 11218,
      "至到": 11219,
      "街等緊小巴": 11220,
      "街見到有雞蛋仔格仔餅賣": 11221,
      "襲擊": 11222,
      "西班牙": 11223,
      "視覺": 11224,
      "詳細": 11225,
      "諗唔到": 11226,
      "讀成": 11227,
      "貨車": 11228,
      "起源": 11229,
      "路打乒乓波": 11230,
      "遺產": 11231,
      "部長": 11232,
      "都仲": 11233,
      "都好似": 11234,
      "金錢": 11235,
      "開支": 11236,
      "陌生人": 11237,
      "雪櫃": 11238,
      "頂住": 11239,
      "顧客": 11240,
      "馬拉": 11241,
      "馬騮": 11242,
      "馬鞍山": 11243,
      "高嘅": 11244,
      "高層": 11245,
      "鬧人": 11246,
      "魚蛋": 11247,
      "鼓掌": 11248,
      "龍門": 11249,
      "（）。": 11250,
      "）：": 11251,
      "，《": 11252,
      "我哋個": 11253,
      "我哋同": 11254,
      "我哋點樣": 11255,
      "一個鐘": 11256,
      "佢哋有": 11257,
      "佢哋話": 11258,
      "真係幾": 11259,
      "都唔錯": 11260,
      "覺得自己": 11261,
      "噉樣樣": 11262,
      "2013年": 11263,
      "都會有": 11264,
      "erv": 11265,
      "我覺得係": 11266,
      "真係好難": 11267,
      "2008年": 11268,
      "我要去": 11269,
      "咗佢啦": 11270,
      "唔記得咗": 11271,
      "細佬哥": 11272,
      "隻手指": 11273,
      "好快就": 11274,
      "有幾多人": 11275,
      "剛才經過": 11276,
      "project": 11277,
      "糖尿病": 11278,
      "聽日係假期": 11279,
      "8號": 11280,
      "99": 11281,
      "NA": 11282,
      "You": 11283,
      "ll": 11284,
      "一致": 11285,
      "一起": 11286,
      "一鑊": 11287,
      "一面": 11288,
      "丈夫": 11289,
      "中秋": 11290,
      "之處": 11291,
      "亞媽": 11292,
      "人情": 11293,
      "人憎": 11294,
      "份功課": 11295,
      "估計": 11296,
      "伺服": 11297,
      "位嘅": 11298,
      "你打": 11299,
      "你攞": 11300,
      "你買": 11301,
      "佢可以": 11302,
      "佢因為": 11303,
      "佢好似": 11304,
      "佢老公": 11305,
      "佢老豆": 11306,
      "係可以": 11307,
      "保養": 11308,
      "信佢": 11309,
      "信號": 11310,
[...]
