{
  "version": "1.0",
  "truncation": null,
  "padding": null,
  "added_tokens": [
    {
      "id": 0,
      "content": "[UNK]",
      "single_word": false,
      "lstrip": false,
      "rstrip": false,
      "normalized": false,
      "special": true
    },
    {
      "id": 1,
      "content": "[PAD]",
      "single_word": false,
      "lstrip": false,
      "rstrip": false,
      "normalized": false,
      "special": true
    },
    {
      "id": 2,
      "content": "[SOS]",
      "single_word": false,
      "lstrip": false,
      "rstrip": false,
      "normalized": false,
      "special": true
    },
    {
      "id": 3,
      "content": "[EOS]",
      "single_word": false,
      "lstrip": false,
      "rstrip": false,
      "normalized": false,
      "special": true
    }
  ],
  "normalizer": null,
  "pre_tokenizer": {
    "type": "Whitespace"
  },
  "post_processor": null,
  "decoder": null,
  "model": {
    "type": "BPE",
    "dropout": null,
    "unk_token": "[UNK]",
    "continuing_subword_prefix": null,
    "end_of_word_suffix": null,
    "fuse_unk": false,
    "byte_fallback": false,
    "vocab": {
      "[UNK]": 0,
      "[PAD]": 1,
      "[SOS]": 2,
      "[EOS]": 3,
      "!": 4,
      "\"": 5,
      "#": 6,
      "$": 7,
      "%": 8,
      "&": 9,
      "'": 10,
      "(": 11,
      ")": 12,
      "*": 13,
      "+": 14,
      ",": 15,
      "-": 16,
      ".": 17,
      "/": 18,
      "0": 19,
      "1": 20,
      "2": 21,
      "3": 22,
      "4": 23,
      "5": 24,
      "6": 25,
      "7": 26,
      "8": 27,
      "9": 28,
      ":": 29,
      ";": 30,
      "=": 31,
      "?": 32,
      "@": 33,
      "A": 34,
      "B": 35,
      "C": 36,
      "D": 37,
      "E": 38,
      "F": 39,
      "G": 40,
      "H": 41,
      "I": 42,
      "J": 43,
      "K": 44,
      "L": 45,
      "M": 46,
      "N": 47,
      "O": 48,
      "P": 49,
      "Q": 50,
      "R": 51,
      "S": 52,
      "T": 53,
      "U": 54,
      "V": 55,
      "W": 56,
      "X": 57,
      "Y": 58,
      "Z": 59,
      "[": 60,
      "\\": 61,
      "]": 62,
      "^": 63,
      "_": 64,
      "a": 65,
      "b": 66,
      "c": 67,
      "d": 68,
      "e": 69,
      "f": 70,
      "g": 71,
      "h": 72,
      "i": 73,
      "j": 74,
      "k": 75,
      "l": 76,
      "m": 77,
      "n": 78,
      "o": 79,
      "p": 80,
      "q": 81,
      "r": 82,
      "s": 83,
      "t": 84,
      "u": 85,
      "v": 86,
      "w": 87,
      "x": 88,
      "y": 89,
      "z": 90,
      "{": 91,
      "|": 92,
      "}": 93,
      "~": 94,
      "§": 95,
      "°": 96,
      "²": 97,
      "³": 98,
      "·": 99,
      "¾": 100,
      "À": 101,
      "È": 102,
      "É": 103,
      "Ó": 104,
      "×": 105,
      "à": 106,
      "á": 107,
      "ã": 108,
      "å": 109,
      "ç": 110,
      "è": 111,
      "é": 112,
      "ê": 113,
      "í": 114,
      "ñ": 115,
      "ó": 116,
      "õ": 117,
      "ö": 118,
      "ú": 119,
      "ā": 120,
      "Č": 121,
      "ě": 122,
      "ō": 123,
      "ś": 124,
      "š": 125,
      "ū": 126,
      "ʼ": 127,
      "̀": 128,
      "ί": 129,
      "α": 130,
      "ζ": 131,
      "ι": 132,
      "ν": 133,
      "ο": 134,
      "π": 135,
      "σ": 136,
      "τ": 137,
      "χ": 138,
      "В": 139,
      "С": 140,
      "а": 141,
      "б": 142,
      "г": 143,
      "е": 144,
      "и": 145,
      "й": 146,
      "к": 147,
      "л": 148,
      "о": 149,
      "р": 150,
      "т": 151,
      "у": 152,
      "х": 153,
      "ъ": 154,
      "א": 155,
      "ד": 156,
      "ו": 157,
      "ח": 158,
      "ל": 159,
      "ן": 160,
      "ס": 161,
      "ר": 162,
      "จ": 163,
      "พ": 164,
      "ส": 165,
      "อ": 166,
      "า": 167,
      "ื": 168,
      "เ": 169,
      "่": 170,
      "้": 171,
      "་": 172,
      "ཀ": 173,
      "ཁ": 174,
      "ག": 175,
      "ང": 176,
      "ད": 177,
      "ན": 178,
      "པ": 179,
      "བ": 180,
      "ཞ": 181,
      "འ": 182,
      "ཡ": 183,
      "ར": 184,
      "ལ": 185,
      "ཤ": 186,
      "ས": 187,
      "ི": 188,
      "ུ": 189,
      "ེ": 190,
      "ོ": 191,
      "ྡ": 192,
      "ྩ": 193,
      "ྲ": 194,
      "ṇ": 195,
      "ṭ": 196,
      "ẹ": 197,
      "ọ": 198,
      "ἰ": 199,
      "ἴ": 200,
      "​": 201,
      "‎": 202,
      "–": 203,
      "—": 204,
      "―": 205,
      "‘": 206,
      "’": 207,
      "“": 208,
      "”": 209,
      "†": 210,
      "‡": 211,
      "•": 212,
      "…": 213,
      "‧": 214,
      "‬": 215,
      "‭": 216,
      "™": 217,
      "→": 218,
      "−": 219,
      "≤": 220,
      "⋯": 221,
      "⑨": 222,
      "─": 223,
      "○": 224,
      "☆": 225,
      "♪": 226,
      "♫": 227,
      "⠀": 228,
      "⠷": 229,
      "⠻": 230,
      "、": 231,
      "。": 232,
      "々": 233,
      "〇": 234,
      "〈": 235,
      "〉": 236,
      "《": 237,
      "》": 238,
      "「": 239,
      "」": 240,
      "『": 241,
      "』": 242,
      "【": 243,
      "】": 244,
      "〔": 245,
      "〕": 246,
      "〜": 247,
      "あ": 248,
      "い": 249,
      "う": 250,
      "え": 251,
      "お": 252,
      "か": 253,
      "が": 254,
      "き": 255,
      "く": 256,
      "ぐ": 257,
      "け": 258,
      "げ": 259,
      "こ": 260,
      "ご": 261,
      "さ": 262,
      "ざ": 263,
      "し": 264,
      "じ": 265,
      "す": 266,
      "せ": 267,
      "そ": 268,
      "た": 269,
      "だ": 270,
      "ち": 271,
      "っ": 272,
      "つ": 273,
      "て": 274,
      "で": 275,
      "と": 276,
      "な": 277,
      "に": 278,
      "ね": 279,
      "の": 280,
      "は": 281,
      "ぱ": 282,
      "ひ": 283,
      "ふ": 284,
      "ぶ": 285,
      "べ": 286,
      "ほ": 287,
      "ま": 288,
      "み": 289,
      "め": 290,
      "も": 291,
      "ゃ": 292,
      "や": 293,
      "よ": 294,
      "ら": 295,
      "り": 296,
      "る": 297,
      "れ": 298,
      "ろ": 299,
      "わ": 300,
      "を": 301,
      "ん": 302,
      "ア": 303,
      "ィ": 304,
      "イ": 305,
      "ウ": 306,
      "エ": 307,
      "オ": 308,
      "カ": 309,
      "キ": 310,
      "グ": 311,
      "ケ": 312,
      "コ": 313,
      "サ": 314,
      "ザ": 315,
      "シ": 316,
      "ジ": 317,
      "ス": 318,
      "セ": 319,
      "タ": 320,
      "ダ": 321,
      "チ": 322,
      "ッ": 323,
      "テ": 324,
      "デ": 325,
      "ト": 326,
      "ド": 327,
      "ナ": 328,
      "ノ": 329,
      "ヒ": 330,
      "ビ": 331,
      "ピ": 332,
      "ブ": 333,
      "プ": 334,
      "ベ": 335,
      "ポ": 336,
      "ミ": 337,
      "ム": 338,
      "メ": 339,
      "モ": 340,
      "ャ": 341,
      "ョ": 342,
      "ラ": 343,
      "リ": 344,
      "ル": 345,
      "レ": 346,
      "ロ": 347,
      "ン": 348,
      "・": 349,
      "ー": 350,
      "ㄉ": 351,
      "ㄤ": 352,
      "ㄧ": 353,
      "ㄨ": 354,
      "㖿": 355,
      "㗎": 356,
      "㗳": 357,
      "㥫": 358,
      "㧬": 359,
      "㩒": 360,
      "䒏": 361,
      "䒐": 362,
      "䟴": 363,
      "䰧": 364,
      "䱽": 365,
      "一": 366,
      "丁": 367,
      "七": 368,
      "万": 369,
      "丈": 370,
      "三": 371,
      "上": 372,
      "下": 373,
      "不": 374,
      "丐": 375,
      "丑": 376,
      "且": 377,
      "丕": 378,
      "世": 379,
      "丘": 380,
      "丙": 381,
      "丞": 382,
      "丟": 383,
      "両": 384,
      "並": 385,
      "丫": 386,
      "中": 387,
      "串": 388,
      "丶": 389,
      "丸": 390,
      "丹": 391,
      "主": 392,
      "丼": 393,
      "乃": 394,
      "久": 395,
      "么": 396,
      "之": 397,
      "乍": 398,
      "乎": 399,
      "乏": 400,
      "乒": 401,
      "乓": 402,
      "乖": 403,
      "乘": 404,
      "乙": 405,
      "乜": 406,
      "九": 407,
      "乞": 408,
      "也": 409,
      "乩": 410,
      "乳": 411,
      "乾": 412,
      "亂": 413,
      "了": 414,
      "予": 415,
      "事": 416,
      "二": 417,
      "于": 418,
      "云": 419,
      "互": 420,
      "五": 421,
      "井": 422,
      "亙": 423,
      "些": 424,
      "亞": 425,
      "亟": 426,
      "亡": 427,
      "亢": 428,
      "交": 429,
      "亥": 430,
      "亦": 431,
      "亨": 432,
      "享": 433,
      "京": 434,
      "亭": 435,
      "亮": 436,
      "亳": 437,
      "人": 438,
      "什": 439,
      "仁": 440,
      "仃": 441,
      "仆": 442,
      "仇": 443,
      "今": 444,
      "介": 445,
      "仍": 446,
      "从": 447,
      "仔": 448,
      "仕": 449,
      "他": 450,
      "仗": 451,
      "付": 452,
      "仙": 453,
      "代": 454,
      "令": 455,
      "以": 456,
      "们": 457,
      "仰": 458,
      "仲": 459,
      "件": 460,
      "任": 461,
      "份": 462,
      "仿": 463,
      "企": 464,
      "伊": 465,
      "伍": 466,
      "伎": 467,
      "伏": 468,
      "伐": 469,
      "休": 470,
      "伙": 471,
      "伝": 472,
      "伯": 473,
      "估": 474,
      "伴": 475,
      "伶": 476,
      "伸": 477,
      "伺": 478,
      "似": 479,
      "伽": 480,
      "佃": 481,
      "但": 482,
      "佈": 483,
      "位": 484,
      "低": 485,
      "住": 486,
      "佐": 487,
      "佑": 488,
      "佔": 489,
      "何": 490,
      "佗": 491,
      "佘": 492,
      "余": 493,
      "佚": 494,
      "佛": 495,
      "作": 496,
      "佞": 497,
      "佟": 498,
      "你": 499,
      "佢": 500,
      "佣": 501,
      "佩": 502,
      "佬": 503,
      "佯": 504,
      "佳": 505,
      "併": 506,
      "佻": 507,
      "佼": 508,
      "使": 509,
      "侃": 510,
      "侄": 511,
      "來": 512,
      "侈": 513,
      "例": 514,
      "侍": 515,
      "侏": 516,
      "侖": 517,
      "供": 518,
      "依": 519,
      "侮": 520,
      "侯": 521,
      "侵": 522,
      "侶": 523,
      "侷": 524,
      "便": 525,
      "係": 526,
      "促": 527,
      "俄": 528,
      "俊": 529,
      "俏": 530,
      "俐": 531,
      "俑": 532,
      "俗": 533,
      "俘": 534,
      "俚": 535,
      "保": 536,
      "俞": 537,
      "俠": 538,
      "信": 539,
      "俬": 540,
      "修": 541,
      "俯": 542,
      "俱": 543,
      "俸": 544,
      "俹": 545,
      "俾": 546,
      "倆": 547,
      "倉": 548,
      "個": 549,
      "倌": 550,
      "倍": 551,
      "們": 552,
      "倒": 553,
      "倔": 554,
      "倖": 555,
      "倘": 556,
      "候": 557,
      "倚": 558,
      "倜": 559,
      "借": 560,
      "倡": 561,
      "倣": 562,
      "倦": 563,
      "倩": 564,
      "倪": 565,
      "倫": 566,
      "倬": 567,
      "倭": 568,
      "值": 569,
      "假": 570,
      "偉": 571,
      "偌": 572,
      "偏": 573,
      "做": 574,
      "停": 575,
      "健": 576,
      "側": 577,
      "偵": 578,
      "偶": 579,
      "偷": 580,
      "偽": 581,
      "傀": 582,
      "傅": 583,
      "傍": 584,
      "傑": 585,
      "傘": 586,
      "備": 587,
      "傚": 588,
      "傢": 589,
      "催": 590,
      "傭": 591,
      "傲": 592,
      "傳": 593,
      "債": 594,
      "傷": 595,
      "傻": 596,
      "傾": 597,
      "僅": 598,
      "僉": 599,
      "像": 600,
      "僑": 601,
      "僕": 602,
      "僚": 603,
      "僞": 604,
      "僥": 605,
      "僧": 606,
      "僭": 607,
      "僱": 608,
      "僵": 609,
      "價": 610,
      "僻": 611,
      "儀": 612,
      "億": 613,
      "儈": 614,
      "儉": 615,
      "儍": 616,
      "儐": 617,
      "儒": 618,
      "儕": 619,
      "儘": 620,
      "償": 621,
      "儡": 622,
      "優": 623,
      "儲": 624,
      "儷": 625,
      "儻": 626,
      "儼": 627,
      "兀": 628,
      "允": 629,
      "元": 630,
      "兄": 631,
      "充": 632,
      "兆": 633,
      "兇": 634,
      "先": 635,
      "光": 636,
      "克": 637,
      "兌": 638,
      "免": 639,
      "兒": 640,
      "兔": 641,
      "党": 642,
      "兜": 643,
      "入": 644,
      "內": 645,
      "全": 646,
      "兩": 647,
      "八": 648,
      "公": 649,
      "六": 650,
      "兮": 651,
      "共": 652,
      "兵": 653,
      "其": 654,
      "具": 655,
      "典": 656,
      "兹": 657,
      "兼": 658,
      "冀": 659,
      "内": 660,
      "冇": 661,
      "冊": 662,
      "再": 663,
      "冒": 664,
      "冕": 665,
      "冗": 666,
      "冚": 667,
      "冠": 668,
      "冤": 669,
      "冥": 670,
      "冬": 671,
      "冰": 672,
      "决": 673,
      "冶": 674,
      "冷": 675,
      "冼": 676,
      "凄": 677,
      "准": 678,
      "凋": 679,
      "凌": 680,
      "凍": 681,
      "凜": 682,
      "凝": 683,
      "几": 684,
      "凡": 685,
      "凰": 686,
      "凱": 687,
      "凳": 688,
      "凶": 689,
      "凸": 690,
      "凹": 691,
      "出": 692,
      "凼": 693,
      "函": 694,
      "刀": 695,
      "刁": 696,
      "刃": 697,
      "分": 698,
      "切": 699,
      "刊": 700,
      "刎": 701,
      "刑": 702,
      "划": 703,
      "列": 704,
      "初": 705,
      "判": 706,
      "別": 707,
      "刨": 708,
      "利": 709,
      "刪": 710,
      "刮": 711,
      "到": 712,
      "制": 713,
      "刷": 714,
      "券": 715,
      "刺": 716,
      "刻": 717,
      "刼": 718,
      "剁": 719,
      "剃": 720,
      "則": 721,
      "削": 722,
      "剋": 723,
      "剌": 724,
      "前": 725,
      "剎": 726,
      "剔": 727,
      "剖": 728,
      "剛": 729,
      "剝": 730,
      "剩": 731,
      "剪": 732,
      "剮": 733,
      "副": 734,
      "割": 735,
      "創": 736,
      "剷": 737,
      "剿": 738,
      "劃": 739,
      "劇": 740,
      "劈": 741,
      "劉": 742,
      "劍": 743,
      "劏": 744,
      "劑": 745,
      "力": 746,
      "功": 747,
      "加": 748,
      "劣": 749,
      "助": 750,
      "努": 751,
      "劫": 752,
      "劵": 753,
      "劾": 754,
      "勁": 755,
      "勃": 756,
      "勇": 757,
      "勉": 758,
      "勒": 759,
      "動": 760,
      "勘": 761,
      "務": 762,
      "勛": 763,
      "勝": 764,
      "勞": 765,
      "募": 766,
      "勢": 767,
      "勤": 768,
      "勱": 769,
      "勳": 770,
      "勵": 771,
      "勸": 772,
      "勺": 773,
      "勻": 774,
      "勾": 775,
      "勿": 776,
      "包": 777,
      "匆": 778,
      "匈": 779,
      "化": 780,
      "北": 781,
      "匙": 782,
      "匠": 783,
      "匡": 784,
      "匣": 785,
      "匪": 786,
      "匯": 787,
      "匱": 788,
      "匹": 789,
      "匾": 790,
      "匿": 791,
      "區": 792,
      "十": 793,
      "千": 794,
      "升": 795,
      "午": 796,
      "卉": 797,
      "半": 798,
      "卌": 799,
      "卑": 800,
      "卒": 801,
      "卓": 802,
      "協": 803,
      "南": 804,
      "博": 805,
      "卜": 806,
      "占": 807,
      "卡": 808,
      "卦": 809,
      "卯": 810,
      "印": 811,
      "危": 812,
      "即": 813,
      "卵": 814,
      "卷": 815,
      "卸": 816,
      "卹": 817,
      "卻": 818,
      "卿": 819,
      "厄": 820,
      "厘": 821,
      "厚": 822,
      "原": 823,
      "厥": 824,
      "厭": 825,
      "厰": 826,
      "厲": 827,
      "去": 828,
      "參": 829,
      "又": 830,
      "叉": 831,
      "及": 832,
      "友": 833,
      "反": 834,
      "叔": 835,
      "取": 836,
      "受": 837,
      "叛": 838,
      "叟": 839,
      "叢": 840,
      "口": 841,
      "古": 842,
      "句": 843,
      "另": 844,
      "叨": 845,
      "只": 846,
      "叫": 847,
      "召": 848,
      "叭": 849,
      "叮": 850,
      "可": 851,
      "台": 852,
      "叱": 853,
      "史": 854,
      "右": 855,
      "司": 856,
      "叻": 857,
      "叼": 858,
      "吁": 859,
      "吃": 860,
      "各": 861,
      "吆": 862,
      "合": 863,
      "吉": 864,
      "吊": 865,
      "吋": 866,
      "同": 867,
      "名": 868,
      "后": 869,
      "吏": 870,
      "吐": 871,
      "向": 872,
      "吒": 873,
      "吔": 874,
      "吖": 875,
      "君": 876,
      "吝": 877,
      "吞": 878,
      "吟": 879,
      "吠": 880,
      "吡": 881,
      "否": 882,
      "吧": 883,
      "吩": 884,
      "含": 885,
      "听": 886,
      "吭": 887,
      "吮": 888,
      "吱": 889,
      "吳": 890,
      "吵": 891,
      "吶": 892,
      "吸": 893,
      "吹": 894,
      "吻": 895,
      "吼": 896,
      "吽": 897,
      "吾": 898,
      "呀": 899,
      "呂": 900,
      "呃": 901,
      "呆": 902,
      "呈": 903,
      "告": 904,
      "呎": 905,
      "呐": 906,
      "呔": 907,
      "呢": 908,
      "呤": 909,
      "呦": 910,
      "周": 911,
      "呱": 912,
      "呲": 913,
      "味": 914,
      "呵": 915,
      "呸": 916,
      "呻": 917,
      "呼": 918,
      "命": 919,
      "咀": 920,
      "咁": 921,
      "咂": 922,
      "咄": 923,
      "咆": 924,
      "咋": 925,
      "和": 926,
      "咎": 927,
      "咐": 928,
      "咒": 929,
      "咓": 930,
      "咔": 931,
      "咕": 932,
      "咖": 933,
      "咗": 934,
      "咚": 935,
      "咦": 936,
      "咧": 937,
      "咨": 938,
      "咩": 939,
      "咪": 940,
      "咫": 941,
      "咬": 942,
      "咭": 943,
      "咯": 944,
      "咱": 945,
      "咳": 946,
      "咸": 947,
      "咹": 948,
      "咽": 949,
      "咿": 950,
      "哀": 951,
      "品": 952,
      "哄": 953,
      "哆": 954,
      "哇": 955,
      "哈": 956,
      "哉": 957,
      "哋": 958,
      "哎": 959,
      "哏": 960,
      "員": 961,
      "哥": 962,
      "哦": 963,
      "哧": 964,
      "哨": 965,
      "哩": 966,
      "哪": 967,
      "哭": 968,
      "哮": 969,
      "哲": 970,
      "哺": 971,
      "哼": 972,
      "哽": 973,
      "唁": 974,
      "唄": 975,
      "唆": 976,
      "唇": 977,
      "唉": 978,
      "唏": 979,
      "唐": 980,
      "唓": 981,
      "唔": 982,
      "唧": 983,
      "唬": 984,
      "售": 985,
      "唯": 986,
      "唰": 987,
      "唱": 988,
      "唷": 989,
      "唸": 990,
      "唾": 991,
      "啃": 992,
      "啄": 993,
      "商": 994,
      "啊": 995,
      "問": 996,
      "啓": 997,
      "啕": 998,
      "啜": 999,
      "啝": 1000,
      "啞": 1001,
      "啟": 1002,
      "啡": 1003,
      "啤": 1004,
      "啥": 1005,
      "啦": 1006,
      "啪": 1007,
      "啫": 1008,
      "啱": 1009,
      "啲": 1010,
      "啹": 1011,
      "啼": 1012,
      "喀": 1013,
      "喂": 1014,
      "喃": 1015,
      "善": 1016,
      "喇": 1017,
      "喉": 1018,
      "喊": 1019,
      "喋": 1020,
      "喏": 1021,
      "喔": 1022,
      "喘": 1023,
      "喚": 1024,
      "喜": 1025,
      "喝": 1026,
      "喧": 1027,
      "喩": 1028,
      "喪": 1029,
      "喫": 1030,
      "喬": 1031,
      "單": 1032,
      "喱": 1033,
      "喲": 1034,
      "喳": 1035,
      "喵": 1036,
      "喺": 1037,
      "喻": 1038,
      "喼": 1039,
      "嗅": 1040,
      "嗆": 1041,
      "嗇": 1042,
      "嗉": 1043,
      "嗎": 1044,
      "嗒": 1045,
      "嗓": 1046,
      "嗖": 1047,
      "嗚": 1048,
      "嗜": 1049,
      "嗝": 1050,
      "嗞": 1051,
      "嗟": 1052,
      "嗡": 1053,
      "嗣": 1054,
      "嗤": 1055,
      "嗦": 1056,
      "嗨": 1057,
      "嗩": 1058,
      "嗬": 1059,
      "嗯": 1060,
      "嗰": 1061,
      "嗱": 1062,
      "嗲": 1063,
      "嗶": 1064,
      "嗷": 1065,
      "嗽": 1066,
      "嘀": 1067,
      "嘅": 1068,
      "嘆": 1069,
      "嘈": 1070,
      "嘉": 1071,
      "嘌": 1072,
      "嘍": 1073,
      "嘎": 1074,
      "嘔": 1075,
      "嘖": 1076,
      "嘗": 1077,
      "嘛": 1078,
      "嘜": 1079,
      "嘞": 1080,
      "嘟": 1081,
      "嘢": 1082,
      "嘥": 1083,
      "嘩": 1084,
      "嘬": 1085,
      "嘭": 1086,
      "嘮": 1087,
      "嘯": 1088,
      "嘰": 1089,
      "嘲": 1090,
      "嘴": 1091,
      "嘶": 1092,
      "嘹": 1093,
      "嘻": 1094,
      "嘿": 1095,
      "噁": 1096,
      "噌": 1097,
      "噎": 1098,
      "噏": 1099,
      "噓": 1100,
      "噗": 1101,
      "噘": 1102,
      "噠": 1103,
      "噢": 1104,
      "噤": 1105,
      "噥": 1106,
      "器": 1107,
      "噩": 1108,
      "噪": 1109,
      "噫": 1110,
      "噬": 1111,
      "噱": 1112,
      "噴": 1113,
      "噶": 1114,
      "噸": 1115,
      "噹": 1116,
      "嚀": 1117,
      "嚇": 1118,
      "嚎": 1119,
      "嚏": 1120,
      "嚐": 1121,
      "嚓": 1122,
      "嚕": 1123,
      "嚟": 1124,
      "嚥": 1125,
      "嚨": 1126,
      "嚮": 1127,
      "嚯": 1128,
      "嚴": 1129,
      "嚷": 1130,
      "嚹": 1131,
      "嚼": 1132,
      "囂": 1133,
      "囃": 1134,
      "囈": 1135,
      "囉": 1136,
      "囊": 1137,
      "囌": 1138,
      "囍": 1139,
      "囑": 1140,
      "囓": 1141,
      "囔": 1142,
      "囚": 1143,
      "四": 1144,
      "囝": 1145,
      "回": 1146,
      "囟": 1147,
      "因": 1148,
      "囡": 1149,
      "囤": 1150,
      "囪": 1151,
      "囫": 1152,
      "囯": 1153,
      "困": 1154,
      "囹": 1155,
      "固": 1156,
      "囿": 1157,
      "圀": 1158,
      "圃": 1159,
      "圄": 1160,
      "圇": 1161,
      "圈": 1162,
      "國": 1163,
      "圍": 1164,
      "圑": 1165,
      "園": 1166,
      "圓": 1167,
      "圖": 1168,
      "團": 1169,
      "圜": 1170,
      "土": 1171,
      "在": 1172,
      "圩": 1173,
      "圬": 1174,
      "圭": 1175,
      "地": 1176,
      "圳": 1177,
      "圻": 1178,
      "圾": 1179,
      "址": 1180,
      "坂": 1181,
      "均": 1182,
      "坊": 1183,
      "坍": 1184,
      "坎": 1185,
      "坐": 1186,
      "坑": 1187,
      "坡": 1188,
      "坤": 1189,
      "坦": 1190,
      "坨": 1191,
      "坪": 1192,
      "坭": 1193,
      "坯": 1194,
      "坳": 1195,
      "坷": 1196,
      "垂": 1197,
      "垃": 1198,
      "型": 1199,
      "垓": 1200,
      "垛": 1201,
      "垠": 1202,
      "垢": 1203,
      "垣": 1204,
      "垮": 1205,
      "垵": 1206,
      "埂": 1207,
      "埃": 1208,
      "埋": 1209,
      "城": 1210,
      "埔": 1211,
      "埗": 1212,
      "域": 1213,
      "埠": 1214,
      "埤": 1215,
      "執": 1216,
      "埸": 1217,
      "培": 1218,
      "基": 1219,
      "埼": 1220,
      "堂": 1221,
      "堃": 1222,
      "堅": 1223,
      "堆": 1224,
      "堡": 1225,
      "堤": 1226,
      "堪": 1227,
      "堯": 1228,
      "堰": 1229,
      "報": 1230,
      "場": 1231,
      "堵": 1232,
      "塊": 1233,
      "塌": 1234,
      "塑": 1235,
      "塔": 1236,
      "塗": 1237,
      "塘": 1238,
      "塞": 1239,
      "塢": 1240,
      "填": 1241,
      "塱": 1242,
      "塵": 1243,
      "塹": 1244,
      "塾": 1245,
      "墀": 1246,
      "境": 1247,
      "墅": 1248,
      "墊": 1249,
      "墓": 1250,
      "墜": 1251,
      "增": 1252,
      "墟": 1253,
      "墨": 1254,
      "墩": 1255,
      "墮": 1256,
      "墳": 1257,
      "墻": 1258,
      "墾": 1259,
      "壁": 1260,
      "壆": 1261,
      "壇": 1262,
      "壑": 1263,
      "壓": 1264,
      "壘": 1265,
      "壞": 1266,
      "壟": 1267,
      "壢": 1268,
      "壤": 1269,
      "壩": 1270,
      "士": 1271,
      "壯": 1272,
      "声": 1273,
      "壹": 1274,
      "壺": 1275,
      "壼": 1276,
      "壽": 1277,
      "夀": 1278,
      "変": 1279,
      "复": 1280,
      "夏": 1281,
      "夕": 1282,
      "外": 1283,
      "夙": 1284,
      "多": 1285,
      "夜": 1286,
      "够": 1287,
      "夠": 1288,
      "夢": 1289,
      "夥": 1290,
      "大": 1291,
      "天": 1292,
      "太": 1293,
      "夫": 1294,
      "夬": 1295,
      "夭": 1296,
      "央": 1297,
      "失": 1298,
      "夷": 1299,
      "夸": 1300,
      "夾": 1301,
      "奄": 1302,
      "奇": 1303,
      "奈": 1304,
      "奉": 1305,
      "奌": 1306,
      "奎": 1307,
      "奏": 1308,
      "契": 1309,
      "奔": 1310,
      "奕": 1311,
      "套": 1312,
      "奚": 1313,
      "奠": 1314,
      "奢": 1315,
      "奧": 1316,
      "奪": 1317,
      "奮": 1318,
      "女": 1319,
      "奴": 1320,
      "奶": 1321,
      "奸": 1322,
      "她": 1323,
      "好": 1324,
      "妁": 1325,
      "如": 1326,
      "妃": 1327,
      "妄": 1328,
      "妍": 1329,
      "妒": 1330,
      "妓": 1331,
      "妖": 1332,
      "妙": 1333,
      "妝": 1334,
      "妞": 1335,
      "妤": 1336,
      "妥": 1337,
      "妨": 1338,
      "妮": 1339,
      "妯": 1340,
      "妲": 1341,
      "妳": 1342,
      "妹": 1343,
      "妺": 1344,
      "妻": 1345,
      "妾": 1346,
      "姆": 1347,
      "姊": 1348,
      "始": 1349,
      "姍": 1350,
      "姐": 1351,
      "姑": 1352,
      "姓": 1353,
      "委": 1354,
      "姘": 1355,
      "姚": 1356,
      "姜": 1357,
      "姥": 1358,
      "姦": 1359,
      "姨": 1360,
      "姪": 1361,
      "姫": 1362,
      "姬": 1363,
      "姵": 1364,
      "姻": 1365,
      "姿": 1366,
      "威": 1367,
      "娃": 1368,
      "娌": 1369,
      "娓": 1370,
      "娘": 1371,
      "娛": 1372,
      "娜": 1373,
      "娟": 1374,
      "娣": 1375,
      "娥": 1376,
      "娩": 1377,
      "娶": 1378,
      "娼": 1379,
      "婁": 1380,
      "婆": 1381,
      "婉": 1382,
      "婊": 1383,
      "婒": 1384,
      "婕": 1385,
      "婚": 1386,
      "婢": 1387,
      "婦": 1388,
      "婪": 1389,
      "婷": 1390,
      "婿": 1391,
      "媒": 1392,
      "媚": 1393,
      "媛": 1394,
      "媲": 1395,
      "媳": 1396,
      "媽": 1397,
      "嫁": 1398,
      "嫂": 1399,
      "嫉": 1400,
      "嫋": 1401,
      "嫌": 1402,
      "嫖": 1403,
      "嫗": 1404,
      "嫡": 1405,
      "嫣": 1406,
      "嫦": 1407,
      "嫩": 1408,
      "嫵": 1409,
      "嫺": 1410,
      "嫻": 1411,
      "嬅": 1412,
      "嬈": 1413,
      "嬉": 1414,
      "嬌": 1415,
      "嬤": 1416,
      "嬪": 1417,
      "嬰": 1418,
      "嬲": 1419,
      "嬸": 1420,
      "孃": 1421,
      "子": 1422,
      "孑": 1423,
      "孓": 1424,
      "孔": 1425,
      "孕": 1426,
      "孖": 1427,
      "字": 1428,
      "存": 1429,
      "孚": 1430,
      "孜": 1431,
      "孝": 1432,
      "孟": 1433,
      "季": 1434,
      "孤": 1435,
      "孩": 1436,
      "孫": 1437,
      "孬": 1438,
      "孭": 1439,
      "孰": 1440,
      "孱": 1441,
      "孵": 1442,
      "學": 1443,
      "孽": 1444,
      "孿": 1445,
      "它": 1446,
      "宅": 1447,
      "宇": 1448,
      "守": 1449,
      "安": 1450,
      "宋": 1451,
      "完": 1452,
      "宏": 1453,
      "宕": 1454,
      "宗": 1455,
      "官": 1456,
      "宙": 1457,
      "定": 1458,
      "宛": 1459,
      "宜": 1460,
      "客": 1461,
      "宣": 1462,
      "室": 1463,
      "宦": 1464,
      "宮": 1465,
      "宰": 1466,
      "害": 1467,
      "宴": 1468,
      "宵": 1469,
      "家": 1470,
      "容": 1471,
      "宿": 1472,
      "寂": 1473,
      "寄": 1474,
      "寅": 1475,
      "密": 1476,
      "寇": 1477,
      "富": 1478,
      "寐": 1479,
      "寒": 1480,
      "寓": 1481,
      "寞": 1482,
      "察": 1483,
      "寡": 1484,
      "寢": 1485,
      "寥": 1486,
      "實": 1487,
      "寧": 1488,
      "寨": 1489,
      "審": 1490,
      "寫": 1491,
      "寬": 1492,
      "寮": 1493,
      "寰": 1494,
      "寳": 1495,
      "寵": 1496,
      "寶": 1497,
      "寸": 1498,
      "寺": 1499,
      "封": 1500,
      "射": 1501,
      "將": 1502,
      "專": 1503,
      "尉": 1504,
      "尊": 1505,
      "尋": 1506,
      "對": 1507,
      "導": 1508,
      "小": 1509,
      "少": 1510,
      "尖": 1511,
      "尚": 1512,
      "尢": 1513,
      "尤": 1514,
      "尬": 1515,
      "就": 1516,
      "尷": 1517,
      "尹": 1518,
      "尺": 1519,
      "尼": 1520,
      "尾": 1521,
      "尿": 1522,
      "局": 1523,
      "屁": 1524,
      "屄": 1525,
      "居": 1526,
      "屆": 1527,
      "屈": 1528,
      "屋": 1529,
      "屌": 1530,
      "屍": 1531,
      "屎": 1532,
      "屏": 1533,
      "屐": 1534,
      "屑": 1535,
      "展": 1536,
      "屜": 1537,
      "屠": 1538,
      "屢": 1539,
      "屣": 1540,
      "層": 1541,
      "履": 1542,
      "屬": 1543,
      "屯": 1544,
      "山": 1545,
      "屹": 1546,
      "岀": 1547,
      "岌": 1548,
      "岐": 1549,
      "岔": 1550,
      "岡": 1551,
      "岩": 1552,
      "岬": 1553,
      "岱": 1554,
      "岳": 1555,
      "岸": 1556,
      "峒": 1557,
      "峙": 1558,
      "峭": 1559,
      "峯": 1560,
      "峰": 1561,
      "島": 1562,
      "峻": 1563,
      "峽": 1564,
      "崆": 1565,
      "崇": 1566,
      "崎": 1567,
      "崔": 1568,
      "崖": 1569,
      "崗": 1570,
      "崙": 1571,
      "崛": 1572,
      "崢": 1573,
      "崩": 1574,
      "崴": 1575,
      "崽": 1576,
      "嵇": 1577,
      "嵌": 1578,
      "嵐": 1579,
      "嵗": 1580,
      "嶄": 1581,
      "嶇": 1582,
      "嶺": 1583,
      "嶼": 1584,
      "嶽": 1585,
      "巍": 1586,
      "巒": 1587,
      "巔": 1588,
      "巖": 1589,
      "川": 1590,
      "州": 1591,
      "巡": 1592,
      "巢": 1593,
      "工": 1594,
      "左": 1595,
      "巧": 1596,
      "巨": 1597,
      "巫": 1598,
      "差": 1599,
      "己": 1600,
      "已": 1601,
      "巳": 1602,
      "巴": 1603,
      "巷": 1604,
      "巾": 1605,
      "市": 1606,
      "布": 1607,
      "帆": 1608,
      "希": 1609,
      "帎": 1610,
      "帔": 1611,
      "帕": 1612,
      "帖": 1613,
      "帚": 1614,
      "帛": 1615,
      "帝": 1616,
      "帥": 1617,
      "師": 1618,
      "席": 1619,
      "帯": 1620,
      "帳": 1621,
      "帶": 1622,
      "帷": 1623,
      "常": 1624,
      "帽": 1625,
      "幀": 1626,
      "幃": 1627,
      "幅": 1628,
      "幌": 1629,
      "幔": 1630,
      "幕": 1631,
      "幛": 1632,
      "幟": 1633,
      "幡": 1634,
      "幢": 1635,
      "幣": 1636,
      "幫": 1637,
      "干": 1638,
      "平": 1639,
      "年": 1640,
      "并": 1641,
      "幸": 1642,
      "幹": 1643,
      "幺": 1644,
      "幻": 1645,
      "幼": 1646,
      "幽": 1647,
      "幾": 1648,
      "庇": 1649,
      "床": 1650,
      "序": 1651,
      "底": 1652,
      "店": 1653,
      "庚": 1654,
      "府": 1655,
      "度": 1656,
      "座": 1657,
      "庫": 1658,
      "庭": 1659,
      "庵": 1660,
      "庶": 1661,
      "康": 1662,
      "庸": 1663,
      "廁": 1664,
      "廂": 1665,
      "廈": 1666,
      "廉": 1667,
      "廊": 1668,
      "廓": 1669,
      "廕": 1670,
      "廖": 1671,
      "廚": 1672,
      "廝": 1673,
      "廟": 1674,
      "廠": 1675,
      "廢": 1676,
      "廣": 1677,
      "廩": 1678,
      "廬": 1679,
      "廳": 1680,
      "延": 1681,
      "廷": 1682,
      "建": 1683,
      "廿": 1684,
      "弄": 1685,
      "弈": 1686,
      "弊": 1687,
      "弍": 1688,
      "式": 1689,
      "弒": 1690,
      "弓": 1691,
      "弔": 1692,
      "引": 1693,
      "弗": 1694,
      "弘": 1695,
      "弛": 1696,
      "弟": 1697,
      "弢": 1698,
      "弦": 1699,
      "弧": 1700,
      "弩": 1701,
      "弭": 1702,
      "弱": 1703,
      "張": 1704,
      "強": 1705,
      "弸": 1706,
      "强": 1707,
      "彆": 1708,
      "彈": 1709,
      "彌": 1710,
      "彎": 1711,
      "彗": 1712,
      "彙": 1713,
      "形": 1714,
      "彤": 1715,
      "彥": 1716,
      "彩": 1717,
      "彪": 1718,
      "彬": 1719,
      "彭": 1720,
      "彰": 1721,
      "影": 1722,
      "彳": 1723,
      "彷": 1724,
      "役": 1725,
      "彼": 1726,
      "彿": 1727,
      "往": 1728,
      "征": 1729,
      "待": 1730,
      "很": 1731,
      "徊": 1732,
      "律": 1733,
      "後": 1734,
      "徐": 1735,
      "徑": 1736,
      "徒": 1737,
      "得": 1738,
      "徘": 1739,
      "徙": 1740,
      "從": 1741,
      "徠": 1742,
      "御": 1743,
      "徨": 1744,
      "復": 1745,
      "循": 1746,
      "微": 1747,
      "徴": 1748,
      "徵": 1749,
      "德": 1750,
      "徹": 1751,
      "徼": 1752,
      "徽": 1753,
      "心": 1754,
      "必": 1755,
      "忌": 1756,
      "忍": 1757,
      "忐": 1758,
      "忑": 1759,
      "忒": 1760,
      "志": 1761,
      "忘": 1762,
      "忙": 1763,
      "忟": 1764,
      "忠": 1765,
      "忪": 1766,
      "快": 1767,
      "忱": 1768,
      "念": 1769,
      "忽": 1770,
      "忿": 1771,
      "怎": 1772,
      "怒": 1773,
      "怕": 1774,
      "怖": 1775,
      "怛": 1776,
      "思": 1777,
      "怠": 1778,
      "怡": 1779,
      "急": 1780,
      "怦": 1781,
      "性": 1782,
      "怨": 1783,
      "怩": 1784,
      "怪": 1785,
      "怯": 1786,
      "恂": 1787,
      "恃": 1788,
      "恆": 1789,
      "恍": 1790,
      "恐": 1791,
      "恒": 1792,
      "恕": 1793,
      "恙": 1794,
      "恢": 1795,
      "恣": 1796,
      "恤": 1797,
      "恥": 1798,
      "恨": 1799,
      "恩": 1800,
      "恪": 1801,
      "恬": 1802,
      "恭": 1803,
      "息": 1804,
      "恰": 1805,
      "恿": 1806,
      "悄": 1807,
      "悅": 1808,
      "悉": 1809,
      "悍": 1810,
      "悒": 1811,
      "悔": 1812,
      "悖": 1813,
      "悚": 1814,
      "悜": 1815,
      "悟": 1816,
      "悠": 1817,
      "患": 1818,
      "您": 1819,
      "悲": 1820,
      "悴": 1821,
      "悶": 1822,
      "悸": 1823,
      "悼": 1824,
      "悽": 1825,
      "情": 1826,
      "惇": 1827,
      "惋": 1828,
      "惑": 1829,
      "惕": 1830,
      "惘": 1831,
      "惚": 1832,
      "惜": 1833,
      "惟": 1834,
      "惠": 1835,
      "惡": 1836,
      "惦": 1837,
      "惰": 1838,
      "惱": 1839,
      "想": 1840,
      "惶": 1841,
      "惹": 1842,
      "惺": 1843,
      "惻": 1844,
      "愁": 1845,
      "愈": 1846,
      "愉": 1847,
      "愎": 1848,
      "意": 1849,
      "愔": 1850,
      "愚": 1851,
      "愛": 1852,
      "愜": 1853,
      "感": 1854,
      "愣": 1855,
      "愧": 1856,
      "愨": 1857,
      "愷": 1858,
      "愾": 1859,
      "愿": 1860,
      "慂": 1861,
      "慄": 1862,
      "慇": 1863,
      "慈": 1864,
      "態": 1865,
      "慌": 1866,
      "慍": 1867,
      "慎": 1868,
      "慕": 1869,
      "慘": 1870,
      "慚": 1871,
      "慟": 1872,
      "慢": 1873,
      "慣": 1874,
      "慧": 1875,
      "慨": 1876,
      "慪": 1877,
      "慫": 1878,
      "慮": 1879,
      "慰": 1880,
      "慳": 1881,
      "慶": 1882,
      "慷": 1883,
      "慼": 1884,
      "慾": 1885,
      "憂": 1886,
      "憊": 1887,
      "憋": 1888,
      "憎": 1889,
      "憐": 1890,
      "憑": 1891,
      "憔": 1892,
      "憚": 1893,
      "憤": 1894,
      "憧": 1895,
      "憩": 1896,
      "憫": 1897,
      "憬": 1898,
      "憲": 1899,
      "憶": 1900,
      "憾": 1901,
      "懂": 1902,
      "懃": 1903,
      "懇": 1904,
      "懈": 1905,
      "應": 1906,
      "懦": 1907,
      "懨": 1908,
      "懲": 1909,
      "懵": 1910,
      "懶": 1911,
      "懷": 1912,
      "懸": 1913,
      "懺": 1914,
      "懼": 1915,
      "懾": 1916,
      "懿": 1917,
      "戀": 1918,
      "戈": 1919,
      "戊": 1920,
      "戌": 1921,
      "戍": 1922,
      "戎": 1923,
      "戏": 1924,
      "成": 1925,
      "我": 1926,
      "戒": 1927,
      "戕": 1928,
      "或": 1929,
      "戚": 1930,
      "戛": 1931,
      "戟": 1932,
      "戦": 1933,
      "戧": 1934,
      "戩": 1935,
      "截": 1936,
      "戮": 1937,
      "戰": 1938,
      "戲": 1939,
      "戳": 1940,
      "戴": 1941,
      "戶": 1942,
      "戽": 1943,
      "戾": 1944,
      "房": 1945,
      "所": 1946,
      "扁": 1947,
      "扇": 1948,
      "扈": 1949,
      "扉": 1950,
      "手": 1951,
      "才": 1952,
      "扎": 1953,
      "扑": 1954,
      "扒": 1955,
      "打": 1956,
      "扔": 1957,
      "托": 1958,
      "扛": 1959,
      "扣": 1960,
      "扦": 1961,
      "扭": 1962,
      "扮": 1963,
      "扯": 1964,
      "扳": 1965,
      "扶": 1966,
      "批": 1967,
      "扼": 1968,
      "扽": 1969,
      "找": 1970,
      "承": 1971,
      "技": 1972,
      "抄": 1973,
      "抉": 1974,
      "把": 1975,
      "抑": 1976,
      "抒": 1977,
      "抓": 1978,
      "投": 1979,
      "抖": 1980,
      "抗": 1981,
      "折": 1982,
      "抛": 1983,
      "抨": 1984,
      "披": 1985,
      "抬": 1986,
      "抱": 1987,
      "抵": 1988,
      "抹": 1989,
      "抻": 1990,
      "押": 1991,
      "抽": 1992,
      "抿": 1993,
      "拂": 1994,
      "拃": 1995,
      "拄": 1996,
      "拆": 1997,
      "拇": 1998,
      "拈": 1999,
      "拉": 2000,
      "拋": 2001,
      "拌": 2002,
      "拍": 2003,
      "拎": 2004,
      "拐": 2005,
      "拒": 2006,
      "拓": 2007,
      "拔": 2008,
      "拖": 2009,
      "拗": 2010,
      "拘": 2011,
      "拙": 2012,
      "拚": 2013,
      "招": 2014,
      "拜": 2015,
      "拫": 2016,
      "括": 2017,
      "拭": 2018,
      "拮": 2019,
      "拯": 2020,
      "拱": 2021,
      "拳": 2022,
      "拴": 2023,
      "拷": 2024,
      "拼": 2025,
      "拽": 2026,
      "拾": 2027,
      "拿": 2028,
      "持": 2029,
      "挂": 2030,
      "指": 2031,
      "按": 2032,
      "挎": 2033,
      "挑": 2034,
      "挖": 2035,
      "挨": 2036,
      "挪": 2037,
      "挫": 2038,
      "振": 2039,
      "挺": 2040,
      "挽": 2041,
      "挾": 2042,
      "捂": 2043,
      "捅": 2044,
      "捆": 2045,
      "捉": 2046,
      "捋": 2047,
      "捌": 2048,
      "捍": 2049,
      "捎": 2050,
      "捏": 2051,
      "捐": 2052,
      "捕": 2053,
      "捧": 2054,
      "捨": 2055,
      "捩": 2056,
      "捫": 2057,
      "据": 2058,
      "捯": 2059,
      "捱": 2060,
      "捲": 2061,
      "捶": 2062,
      "捷": 2063,
      "捻": 2064,
      "掀": 2065,
      "掂": 2066,
      "掃": 2067,
      "掄": 2068,
      "掇": 2069,
      "授": 2070,
      "掉": 2071,
      "掌": 2072,
      "掏": 2073,
      "掐": 2074,
      "排": 2075,
      "掕": 2076,
      "掖": 2077,
      "掘": 2078,
      "掙": 2079,
      "掛": 2080,
      "掠": 2081,
      "採": 2082,
      "探": 2083,
      "掣": 2084,
      "接": 2085,
      "控": 2086,
      "推": 2087,
      "掩": 2088,
      "措": 2089,
      "掬": 2090,
      "掮": 2091,
      "掰": 2092,
      "掹": 2093,
      "揀": 2094,
      "揈": 2095,
      "揉": 2096,
      "揍": 2097,
      "描": 2098,
      "提": 2099,
      "插": 2100,
      "揚": 2101,
      "換": 2102,
      "握": 2103,
      "揣": 2104,
      "揦": 2105,
      "揩": 2106,
      "揪": 2107,
      "揭": 2108,
      "揮": 2109,
      "揰": 2110,
      "揳": 2111,
      "援": 2112,
      "揸": 2113,
      "揹": 2114,
      "搆": 2115,
      "損": 2116,
      "搏": 2117,
      "搐": 2118,
      "搓": 2119,
      "搔": 2120,
      "搖": 2121,
      "搗": 2122,
      "搜": 2123,
      "搞": 2124,
      "搡": 2125,
      "搧": 2126,
      "搪": 2127,
      "搬": 2128,
      "搭": 2129,
      "搵": 2130,
      "搶": 2131,
      "搽": 2132,
      "摀": 2133,
      "摁": 2134,
      "摑": 2135,
      "摒": 2136,
      "摔": 2137,
      "摘": 2138,
      "摞": 2139,
      "摟": 2140,
      "摧": 2141,
      "摩": 2142,
      "摯": 2143,
      "摳": 2144,
      "摸": 2145,
      "摹": 2146,
      "摺": 2147,
      "摻": 2148,
      "撂": 2149,
      "撅": 2150,
      "撇": 2151,
      "撈": 2152,
      "撐": 2153,
      "撑": 2154,
      "撒": 2155,
      "撓": 2156,
      "撕": 2157,
      "撚": 2158,
      "撞": 2159,
      "撢": 2160,
      "撣": 2161,
      "撤": 2162,
      "撥": 2163,
      "撩": 2164,
      "撫": 2165,
      "撬": 2166,
      "播": 2167,
      "撮": 2168,
      "撰": 2169,
      "撲": 2170,
      "撻": 2171,
      "撼": 2172,
      "撿": 2173,
      "擁": 2174,
      "擂": 2175,
      "擄": 2176,
      "擅": 2177,
      "擇": 2178,
      "擊": 2179,
      "擋": 2180,
      "操": 2181,
      "擎": 2182,
      "擒": 2183,
      "擔": 2184,
      "擕": 2185,
      "擘": 2186,
      "據": 2187,
      "擠": 2188,
      "擡": 2189,
      "擤": 2190,
      "擦": 2191,
      "擧": 2192,
      "擬": 2193,
      "擰": 2194,
      "擱": 2195,
      "擲": 2196,
      "擴": 2197,
      "擷": 2198,
      "擺": 2199,
      "擻": 2200,
      "擼": 2201,
      "擾": 2202,
      "攀": 2203,
      "攆": 2204,
      "攏": 2205,
      "攔": 2206,
      "攘": 2207,
      "攙": 2208,
      "攛": 2209,
      "攜": 2210,
      "攝": 2211,
      "攞": 2212,
      "攢": 2213,
      "攣": 2214,
      "攤": 2215,
      "攥": 2216,
      "攪": 2217,
      "攬": 2218,
      "支": 2219,
      "收": 2220,
      "攸": 2221,
      "改": 2222,
      "攻": 2223,
      "放": 2224,
      "政": 2225,
      "故": 2226,
      "效": 2227,
      "敎": 2228,
      "敏": 2229,
      "救": 2230,
      "敕": 2231,
      "敖": 2232,
      "敗": 2233,
      "敘": 2234,
      "教": 2235,
      "敝": 2236,
      "敞": 2237,
      "敢": 2238,
      "散": 2239,
      "敦": 2240,
      "敬": 2241,
      "数": 2242,
      "敲": 2243,
      "整": 2244,
      "敵": 2245,
      "敷": 2246,
      "數": 2247,
      "敻": 2248,
      "斂": 2249,
      "斃": 2250,
      "文": 2251,
      "斌": 2252,
      "斐": 2253,
      "斑": 2254,
      "斕": 2255,
      "斗": 2256,
      "料": 2257,
      "斜": 2258,
      "斟": 2259,
      "斤": 2260,
      "斥": 2261,
      "斧": 2262,
      "斬": 2263,
      "斯": 2264,
      "新": 2265,
      "斷": 2266,
      "方": 2267,
      "於": 2268,
      "施": 2269,
      "旁": 2270,
      "旅": 2271,
      "旋": 2272,
      "族": 2273,
      "旗": 2274,
      "旛": 2275,
      "既": 2276,
      "日": 2277,
      "旦": 2278,
      "旨": 2279,
      "早": 2280,
      "旬": 2281,
      "旭": 2282,
      "旮": 2283,
      "旯": 2284,
      "旱": 2285,
      "旳": 2286,
      "旺": 2287,
      "旻": 2288,
      "昂": 2289,
      "昆": 2290,
      "昇": 2291,
      "昉": 2292,
      "昌": 2293,
      "昍": 2294,
      "明": 2295,
      "昏": 2296,
      "易": 2297,
      "昔": 2298,
      "昕": 2299,
      "星": 2300,
      "映": 2301,
      "昤": 2302,
      "春": 2303,
      "昧": 2304,
      "昨": 2305,
      "昭": 2306,
      "是": 2307,
      "昴": 2308,
      "時": 2309,
      "晃": 2310,
      "晉": 2311,
      "晌": 2312,
      "晏": 2313,
      "晒": 2314,
      "晚": 2315,
      "晝": 2316,
      "晤": 2317,
      "晦": 2318,
      "晨": 2319,
      "晩": 2320,
      "晫": 2321,
      "普": 2322,
      "景": 2323,
      "晰": 2324,
      "晴": 2325,
      "晶": 2326,
      "智": 2327,
      "晾": 2328,
      "暄": 2329,
      "暇": 2330,
      "暈": 2331,
      "暉": 2332,
      "暑": 2333,
      "暖": 2334,
      "暗": 2335,
      "暚": 2336,
      "暢": 2337,
      "暨": 2338,
      "暫": 2339,
      "暮": 2340,
      "暱": 2341,
      "暴": 2342,
      "暸": 2343,
      "暹": 2344,
      "曆": 2345,
      "曇": 2346,
      "曈": 2347,
      "曉": 2348,
      "曖": 2349,
      "曙": 2350,
      "曚": 2351,
      "曜": 2352,
      "曝": 2353,
      "曠": 2354,
      "曦": 2355,
      "曬": 2356,
      "曰": 2357,
      "曲": 2358,
      "曳": 2359,
      "更": 2360,
      "書": 2361,
      "曹": 2362,
      "曼": 2363,
      "曾": 2364,
      "替": 2365,
      "最": 2366,
      "會": 2367,
      "月": 2368,
      "有": 2369,
      "朋": 2370,
      "服": 2371,
      "朔": 2372,
      "朕": 2373,
      "朗": 2374,
      "望": 2375,
      "朝": 2376,
      "期": 2377,
      "朦": 2378,
      "朧": 2379,
      "木": 2380,
      "未": 2381,
      "末": 2382,
      "本": 2383,
      "札": 2384,
      "朱": 2385,
      "朴": 2386,
      "朵": 2387,
      "朽": 2388,
      "杆": 2389,
      "杈": 2390,
      "杉": 2391,
      "李": 2392,
      "杏": 2393,
      "材": 2394,
      "村": 2395,
      "杓": 2396,
      "杖": 2397,
      "杜": 2398,
      "杞": 2399,
      "束": 2400,
      "杠": 2401,
      "来": 2402,
      "杭": 2403,
      "杯": 2404,
      "杰": 2405,
      "東": 2406,
      "杳": 2407,
      "杵": 2408,
      "杷": 2409,
      "松": 2410,
      "板": 2411,
      "枇": 2412,
      "枉": 2413,
      "析": 2414,
      "枕": 2415,
      "林": 2416,
      "枚": 2417,
      "果": 2418,
      "枝": 2419,
      "枯": 2420,
      "枱": 2421,
      "架": 2422,
      "枷": 2423,
      "枸": 2424,
      "柄": 2425,
      "柏": 2426,
      "某": 2427,
      "柑": 2428,
      "柒": 2429,
      "染": 2430,
      "柔": 2431,
      "柚": 2432,
      "柜": 2433,
      "查": 2434,
      "柩": 2435,
      "柬": 2436,
      "柯": 2437,
      "柱": 2438,
      "柳": 2439,
      "柴": 2440,
      "柵": 2441,
      "柺": 2442,
      "柿": 2443,
      "栓": 2444,
      "栗": 2445,
      "校": 2446,
      "栢": 2447,
      "栩": 2448,
      "株": 2449,
      "核": 2450,
      "根": 2451,
      "格": 2452,
      "栽": 2453,
      "桀": 2454,
      "桁": 2455,
      "桂": 2456,
      "桃": 2457,
      "框": 2458,
      "案": 2459,
      "桌": 2460,
      "桐": 2461,
      "桑": 2462,
      "桔": 2463,
      "桖": 2464,
      "桶": 2465,
      "桿": 2466,
      "梁": 2467,
      "梅": 2468,
      "梆": 2469,
      "梓": 2470,
      "梗": 2471,
      "條": 2472,
      "梟": 2473,
      "梢": 2474,
      "梧": 2475,
      "梨": 2476,
      "梭": 2477,
      "梯": 2478,
      "械": 2479,
      "梳": 2480,
      "梵": 2481,
      "棄": 2482,
      "棉": 2483,
      "棋": 2484,
      "棍": 2485,
      "棐": 2486,
      "棒": 2487,
      "棕": 2488,
      "棖": 2489,
      "棗": 2490,
      "棘": 2491,
      "棚": 2492,
      "棟": 2493,
      "棠": 2494,
      "棧": 2495,
      "森": 2496,
      "棯": 2497,
      "棱": 2498,
      "棲": 2499,
      "棵": 2500,
      "棺": 2501,
      "椅": 2502,
      "植": 2503,
      "椎": 2504,
      "椏": 2505,
      "椒": 2506,
      "椰": 2507,
      "椽": 2508,
      "楂": 2509,
      "楊": 2510,
      "楓": 2511,
      "楔": 2512,
      "楚": 2513,
      "楞": 2514,
      "楠": 2515,
      "楣": 2516,
      "楨": 2517,
      "楫": 2518,
      "業": 2519,
      "極": 2520,
      "楷": 2521,
      "概": 2522,
      "榆": 2523,
      "榊": 2524,
      "榔": 2525,
      "榕": 2526,
      "榖": 2527,
      "榚": 2528,
      "榛": 2529,
      "榜": 2530,
      "榨": 2531,
      "榭": 2532,
      "榮": 2533,
      "榴": 2534,
      "榷": 2535,
      "榻": 2536,
      "構": 2537,
      "槌": 2538,
      "槍": 2539,
      "槎": 2540,
      "槐": 2541,
      "槓": 2542,
      "様": 2543,
      "槲": 2544,
      "槳": 2545,
      "槽": 2546,
      "樁": 2547,
      "樂": 2548,
      "樊": 2549,
      "樑": 2550,
      "樓": 2551,
      "樔": 2552,
      "標": 2553,
      "樞": 2554,
      "樟": 2555,
      "模": 2556,
      "樣": 2557,
      "樵": 2558,
      "樸": 2559,
      "樹": 2560,
      "樺": 2561,
      "樽": 2562,
      "橄": 2563,
      "橇": 2564,
      "橋": 2565,
      "橘": 2566,
      "橙": 2567,
      "橛": 2568,
      "機": 2569,
      "橡": 2570,
      "橢": 2571,
      "橫": 2572,
      "檀": 2573,
      "檐": 2574,
      "檔": 2575,
      "檢": 2576,
      "檬": 2577,
      "檯": 2578,
      "檳": 2579,
      "檸": 2580,
      "檻": 2581,
      "櫃": 2582,
      "櫈": 2583,
      "櫚": 2584,
      "櫛": 2585,
      "櫥": 2586,
      "櫸": 2587,
      "櫻": 2588,
      "欄": 2589,
      "權": 2590,
      "欖": 2591,
      "欞": 2592,
      "欠": 2593,
      "次": 2594,
      "欣": 2595,
      "欲": 2596,
      "欸": 2597,
      "欺": 2598,
      "欽": 2599,
      "款": 2600,
      "歇": 2601,
      "歉": 2602,
      "歌": 2603,
      "歎": 2604,
      "歐": 2605,
      "歡": 2606,
      "止": 2607,
      "正": 2608,
      "此": 2609,
      "步": 2610,
      "武": 2611,
      "歧": 2612,
      "歪": 2613,
      "歲": 2614,
      "歳": 2615,
      "歴": 2616,
      "歷": 2617,
      "歸": 2618,
      "歹": 2619,
      "死": 2620,
      "殂": 2621,
      "殃": 2622,
      "殄": 2623,
      "殆": 2624,
      "殉": 2625,
      "殊": 2626,
      "殍": 2627,
      "殖": 2628,
      "殘": 2629,
      "殞": 2630,
      "殤": 2631,
      "殯": 2632,
      "殲": 2633,
      "段": 2634,
      "殷": 2635,
      "殺": 2636,
      "殻": 2637,
      "殼": 2638,
      "殿": 2639,
      "毀": 2640,
      "毅": 2641,
      "毆": 2642,
      "毋": 2643,
      "母": 2644,
      "毎": 2645,
      "每": 2646,
      "毒": 2647,
      "毓": 2648,
      "比": 2649,
      "毗": 2650,
      "毛": 2651,
      "毫": 2652,
      "毯": 2653,
      "毽": 2654,
      "氈": 2655,
      "氏": 2656,
      "民": 2657,
      "氓": 2658,
      "氛": 2659,
      "氟": 2660,
      "氣": 2661,
      "氦": 2662,
      "氧": 2663,
      "氨": 2664,
      "氪": 2665,
      "氫": 2666,
      "氬": 2667,
      "氮": 2668,
      "氯": 2669,
      "氰": 2670,
      "水": 2671,
      "永": 2672,
      "氹": 2673,
      "氾": 2674,
      "汀": 2675,
      "汁": 2676,
      "求": 2677,
      "汆": 2678,
      "汊": 2679,
      "汐": 2680,
      "汕": 2681,
      "汗": 2682,
      "汙": 2683,
      "汚": 2684,
      "汝": 2685,
      "汞": 2686,
      "江": 2687,
      "池": 2688,
      "污": 2689,
      "汪": 2690,
      "汰": 2691,
      "汶": 2692,
      "決": 2693,
      "汽": 2694,
      "汾": 2695,
      "沁": 2696,
      "沂": 2697,
      "沃": 2698,
      "沅": 2699,
      "沈": 2700,
      "沉": 2701,
      "沌": 2702,
      "沏": 2703,
      "沐": 2704,
      "沒": 2705,
      "沓": 2706,
      "沔": 2707,
      "沖": 2708,
      "沙": 2709,
      "沛": 2710,
      "没": 2711,
      "沢": 2712,
      "沫": 2713,
      "沮": 2714,
      "沱": 2715,
      "河": 2716,
      "沸": 2717,
      "油": 2718,
      "治": 2719,
      "沽": 2720,
      "沾": 2721,
      "沿": 2722,
      "況": 2723,
      "泄": 2724,
      "泉": 2725,
      "泊": 2726,
      "泌": 2727,
      "泓": 2728,
      "泔": 2729,
      "法": 2730,
      "泗": 2731,
      "泛": 2732,
      "泠": 2733,
      "泡": 2734,
      "波": 2735,
      "泣": 2736,
      "泥": 2737,
      "注": 2738,
      "泮": 2739,
      "泰": 2740,
      "泳": 2741,
      "泵": 2742,
      "洄": 2743,
      "洋": 2744,
      "洗": 2745,
      "洛": 2746,
      "洞": 2747,
      "津": 2748,
      "洩": 2749,
      "洪": 2750,
      "洮": 2751,
      "洱": 2752,
      "洲": 2753,
      "洵": 2754,
      "洶": 2755,
      "活": 2756,
      "洼": 2757,
      "洽": 2758,
      "派": 2759,
      "流": 2760,
      "浙": 2761,
      "浚": 2762,
      "浜": 2763,
      "浣": 2764,
      "浦": 2765,
      "浩": 2766,
      "浪": 2767,
      "浬": 2768,
      "浮": 2769,
      "浴": 2770,
      "海": 2771,
      "浸": 2772,
      "浹": 2773,
      "涂": 2774,
      "涅": 2775,
      "涇": 2776,
      "消": 2777,
      "涉": 2778,
      "涌": 2779,
      "涎": 2780,
      "涕": 2781,
      "涙": 2782,
      "涮": 2783,
      "涯": 2784,
      "液": 2785,
      "涵": 2786,
      "涷": 2787,
      "涸": 2788,
      "涼": 2789,
      "淅": 2790,
      "淆": 2791,
      "淇": 2792,
      "淋": 2793,
      "淑": 2794,
      "淒": 2795,
      "淘": 2796,
      "淙": 2797,
      "淚": 2798,
      "淡": 2799,
      "淤": 2800,
      "淦": 2801,
      "淨": 2802,
      "淩": 2803,
      "淪": 2804,
      "淫": 2805,
      "淬": 2806,
      "淮": 2807,
      "深": 2808,
      "淳": 2809,
      "淵": 2810,
      "混": 2811,
      "淹": 2812,
      "淺": 2813,
      "添": 2814,
      "清": 2815,
      "減": 2816,
      "渝": 2817,
      "渠": 2818,
      "渡": 2819,
      "渣": 2820,
      "渥": 2821,
      "渦": 2822,
      "温": 2823,
      "測": 2824,
      "渭": 2825,
      "港": 2826,
      "渲": 2827,
      "渴": 2828,
      "游": 2829,
      "渺": 2830,
      "渾": 2831,
      "湃": 2832,
      "湊": 2833,
      "湖": 2834,
      "湘": 2835,
      "湛": 2836,
      "湧": 2837,
      "湮": 2838,
      "湯": 2839,
      "溉": 2840,
      "源": 2841,
      "準": 2842,
      "溜": 2843,
      "溝": 2844,
      "溟": 2845,
      "溢": 2846,
      "溪": 2847,
      "溫": 2848,
      "溯": 2849,
      "溴": 2850,
      "溶": 2851,
      "溺": 2852,
      "溼": 2853,
      "滂": 2854,
      "滄": 2855,
      "滅": 2856,
      "滇": 2857,
      "滉": 2858,
      "滋": 2859,
      "滌": 2860,
      "滑": 2861,
      "滓": 2862,
      "滔": 2863,
      "滕": 2864,
      "滘": 2865,
      "滙": 2866,
      "滬": 2867,
      "滯": 2868,
      "滲": 2869,
      "滴": 2870,
      "滷": 2871,
      "滾": 2872,
      "滿": 2873,
      "漁": 2874,
      "漂": 2875,
      "漆": 2876,
      "漉": 2877,
      "漏": 2878,
      "漓": 2879,
      "演": 2880,
      "漕": 2881,
      "漚": 2882,
      "漠": 2883,
      "漢": 2884,
      "漣": 2885,
      "漩": 2886,
      "漪": 2887,
      "漫": 2888,
      "漬": 2889,
      "漱": 2890,
      "漲": 2891,
      "漳": 2892,
      "漸": 2893,
      "漾": 2894,
      "漿": 2895,
      "潑": 2896,
      "潔": 2897,
      "潘": 2898,
      "潛": 2899,
      "潟": 2900,
      "潢": 2901,
      "潤": 2902,
      "潦": 2903,
      "潭": 2904,
      "潮": 2905,
      "潯": 2906,
      "潰": 2907,
      "潲": 2908,
      "潷": 2909,
      "潺": 2910,
      "潽": 2911,
      "澀": 2912,
      "澂": 2913,
      "澄": 2914,
      "澆": 2915,
      "澇": 2916,
      "澈": 2917,
      "澍": 2918,
      "澎": 2919,
      "澗": 2920,
      "澠": 2921,
      "澡": 2922,
      "澤": 2923,
      "澥": 2924,
      "澩": 2925,
      "澱": 2926,
      "澳": 2927,
      "激": 2928,
      "濁": 2929,
      "濃": 2930,
      "濊": 2931,
      "濕": 2932,
      "濘": 2933,
      "濛": 2934,
      "濟": 2935,
      "濠": 2936,
      "濤": 2937,
      "濫": 2938,
      "濯": 2939,
      "濰": 2940,
      "濱": 2941,
      "濺": 2942,
      "濾": 2943,
      "瀆": 2944,
      "瀉": 2945,
      "瀋": 2946,
      "瀏": 2947,
      "瀑": 2948,
      "瀕": 2949,
      "瀚": 2950,
      "瀛": 2951,
      "瀝": 2952,
      "瀞": 2953,
      "瀟": 2954,
      "瀨": 2955,
      "瀰": 2956,
      "瀾": 2957,
      "灌": 2958,
      "灑": 2959,
      "灘": 2960,
      "灝": 2961,
      "灣": 2962,
      "火": 2963,
      "灰": 2964,
      "灶": 2965,
      "灸": 2966,
      "灼": 2967,
      "災": 2968,
      "炊": 2969,
      "炎": 2970,
      "炒": 2971,
      "炔": 2972,
      "炕": 2973,
      "炙": 2974,
      "炫": 2975,
      "炬": 2976,
      "炭": 2977,
      "炮": 2978,
      "炯": 2979,
      "炳": 2980,
      "炷": 2981,
      "炸": 2982,
      "為": 2983,
      "烈": 2984,
      "烊": 2985,
      "烏": 2986,
      "烘": 2987,
      "烙": 2988,
      "烚": 2989,
      "烤": 2990,
      "烯": 2991,
      "烷": 2992,
      "烹": 2993,
      "烺": 2994,
      "烽": 2995,
      "焉": 2996,
      "焊": 2997,
      "焗": 2998,
      "焙": 2999,
      "焚": 3000,
      "無": 3001,
      "焦": 3002,
      "焯": 3003,
      "焰": 3004,
      "然": 3005,
      "煉": 3006,
      "煌": 3007,
      "煎": 3008,
      "煙": 3009,
      "煞": 3010,
      "煤": 3011,
      "煥": 3012,
      "照": 3013,
      "煨": 3014,
      "煩": 3015,
      "煮": 3016,
      "煲": 3017,
      "煳": 3018,
      "煽": 3019,
      "熄": 3020,
      "熊": 3021,
      "熏": 3022,
      "熒": 3023,
      "熔": 3024,
      "熗": 3025,
      "熙": 3026,
      "熟": 3027,
      "熠": 3028,
      "熨": 3029,
      "熬": 3030,
      "熱": 3031,
      "熵": 3032,
      "熹": 3033,
      "熾": 3034,
      "燁": 3035,
      "燃": 3036,
      "燈": 3037,
      "燉": 3038,
      "燊": 3039,
      "燎": 3040,
      "燒": 3041,
      "燕": 3042,
      "燙": 3043,
      "燜": 3044,
      "營": 3045,
      "燥": 3046,
      "燦": 3047,
      "燬": 3048,
      "燭": 3049,
      "燴": 3050,
      "燹": 3051,
      "燼": 3052,
      "爆": 3053,
      "爍": 3054,
      "爐": 3055,
      "爛": 3056,
      "爪": 3057,
      "爬": 3058,
      "爭": 3059,
      "爰": 3060,
      "爲": 3061,
      "爵": 3062,
      "父": 3063,
      "爸": 3064,
      "爹": 3065,
      "爺": 3066,
      "爽": 3067,
      "爾": 3068,
      "牀": 3069,
      "牆": 3070,
      "片": 3071,
      "版": 3072,
      "牌": 3073,
      "牒": 3074,
      "牘": 3075,
      "牙": 3076,
      "牚": 3077,
      "牛": 3078,
      "牟": 3079,
      "牠": 3080,
      "牡": 3081,
      "牢": 3082,
      "牧": 3083,
      "物": 3084,
      "牲": 3085,
      "牴": 3086,
      "特": 3087,
      "牽": 3088,
      "犀": 3089,
      "犁": 3090,
      "犄": 3091,
      "犒": 3092,
      "犖": 3093,
      "犛": 3094,
      "犟": 3095,
      "犢": 3096,
      "犧": 3097,
      "犬": 3098,
      "犯": 3099,
      "狀": 3100,
      "狂": 3101,
      "狄": 3102,
      "狐": 3103,
      "狒": 3104,
      "狗": 3105,
      "狙": 3106,
      "狠": 3107,
      "狡": 3108,
      "狩": 3109,
      "狸": 3110,
      "狹": 3111,
      "狼": 3112,
      "狽": 3113,
      "猄": 3114,
      "猖": 3115,
      "猗": 3116,
      "猙": 3117,
      "猛": 3118,
      "猜": 3119,
      "猥": 3120,
      "猩": 3121,
      "猴": 3122,
      "猶": 3123,
      "猷": 3124,
      "猾": 3125,
      "猿": 3126,
      "獄": 3127,
      "獅": 3128,
      "獎": 3129,
      "獐": 3130,
      "獗": 3131,
      "獨": 3132,
      "獮": 3133,
      "獰": 3134,
      "獲": 3135,
      "獵": 3136,
      "獷": 3137,
      "獸": 3138,
      "獺": 3139,
      "獻": 3140,
      "獼": 3141,
      "玄": 3142,
      "率": 3143,
      "玉": 3144,
      "王": 3145,
      "玟": 3146,
      "玩": 3147,
      "玫": 3148,
      "现": 3149,
      "玲": 3150,
      "玳": 3151,
      "玷": 3152,
      "玻": 3153,
      "珀": 3154,
      "珈": 3155,
      "珊": 3156,
      "珍": 3157,
      "珏": 3158,
      "珓": 3159,
      "珙": 3160,
      "珞": 3161,
      "珠": 3162,
      "珧": 3163,
      "班": 3164,
      "現": 3165,
      "球": 3166,
      "理": 3167,
      "琉": 3168,
      "琚": 3169,
      "琛": 3170,
      "琢": 3171,
      "琤": 3172,
      "琥": 3173,
      "琦": 3174,
      "琪": 3175,
      "琫": 3176,
      "琮": 3177,
      "琳": 3178,
      "琴": 3179,
      "琵": 3180,
      "琶": 3181,
      "琺": 3182,
      "琼": 3183,
      "瑁": 3184,
      "瑆": 3185,
      "瑕": 3186,
      "瑙": 3187,
      "瑚": 3188,
      "瑛": 3189,
      "瑜": 3190,
      "瑞": 3191,
      "瑟": 3192,
      "瑣": 3193,
      "瑤": 3194,
      "瑧": 3195,
      "瑩": 3196,
      "瑪": 3197,
      "瑯": 3198,
      "瑰": 3199,
      "瑾": 3200,
      "璀": 3201,
      "璂": 3202,
      "璃": 3203,
      "璇": 3204,
      "璈": 3205,
      "璉": 3206,
      "璋": 3207,
      "璐": 3208,
      "璟": 3209,
      "璠": 3210,
      "璣": 3211,
      "璧": 3212,
      "璨": 3213,
      "環": 3214,
      "璵": 3215,
      "璽": 3216,
      "瓊": 3217,
      "瓏": 3218,
      "瓜": 3219,
      "瓢": 3220,
      "瓣": 3221,
      "瓤": 3222,
      "瓦": 3223,
      "瓶": 3224,
      "瓷": 3225,
      "甄": 3226,
      "甌": 3227,
      "甑": 3228,
      "甕": 3229,
      "甘": 3230,
      "甚": 3231,
      "甜": 3232,
      "生": 3233,
      "產": 3234,
      "産": 3235,
      "甥": 3236,
      "甦": 3237,
      "用": 3238,
      "甩": 3239,
      "甫": 3240,
      "甭": 3241,
      "甯": 3242,
      "田": 3243,
      "由": 3244,
      "甲": 3245,
      "申": 3246,
      "男": 3247,
      "甸": 3248,
      "町": 3249,
      "畋": 3250,
      "界": 3251,
      "畏": 3252,
      "畐": 3253,
      "畔": 3254,
      "留": 3255,
      "畚": 3256,
      "畜": 3257,
      "畝": 3258,
      "畢": 3259,
      "略": 3260,
      "番": 3261,
      "畫": 3262,
      "異": 3263,
      "當": 3264,
      "畸": 3265,
      "畿": 3266,
      "疃": 3267,
      "疆": 3268,
      "疇": 3269,
      "疊": 3270,
      "疋": 3271,
      "疏": 3272,
      "疑": 3273,
      "疙": 3274,
      "疚": 3275,
      "疝": 3276,
      "疣": 3277,
      "疤": 3278,
      "疥": 3279,
      "疫": 3280,
      "疲": 3281,
      "疳": 3282,
      "疵": 3283,
      "疹": 3284,
      "疼": 3285,
      "疾": 3286,
      "痂": 3287,
      "病": 3288,
      "症": 3289,
      "痊": 3290,
      "痒": 3291,
      "痔": 3292,
      "痕": 3293,
      "痘": 3294,
      "痙": 3295,
      "痛": 3296,
      "痞": 3297,
      "痠": 3298,
      "痢": 3299,
      "痣": 3300,
      "痤": 3301,
      "痧": 3302,
      "痰": 3303,
      "痱": 3304,
      "痲": 3305,
      "痴": 3306,
      "痹": 3307,
      "痺": 3308,
      "痼": 3309,
      "痾": 3310,
      "瘀": 3311,
      "瘁": 3312,
      "瘋": 3313,
      "瘍": 3314,
      "瘓": 3315,
      "瘟": 3316,
      "瘠": 3317,
      "瘡": 3318,
      "瘤": 3319,
      "瘦": 3320,
      "瘧": 3321,
      "瘩": 3322,
      "瘸": 3323,
      "瘺": 3324,
      "療": 3325,
      "癆": 3326,
      "癇": 3327,
      "癌": 3328,
      "癒": 3329,
      "癖": 3330,
      "癜": 3331,
      "癟": 3332,
      "癡": 3333,
      "癢": 3334,
      "癥": 3335,
      "癩": 3336,
      "癬": 3337,
      "癮": 3338,
      "癰": 3339,
      "癱": 3340,
      "癲": 3341,
      "登": 3342,
      "發": 3343,
      "白": 3344,
      "百": 3345,
      "皁": 3346,
      "皂": 3347,
      "的": 3348,
      "皆": 3349,
      "皇": 3350,
      "皈": 3351,
      "皎": 3352,
      "皓": 3353,
      "皖": 3354,
      "皙": 3355,
      "皮": 3356,
      "皰": 3357,
      "皴": 3358,
      "皸": 3359,
      "皺": 3360,
      "皿": 3361,
      "盂": 3362,
      "盃": 3363,
      "盅": 3364,
      "盆": 3365,
      "盈": 3366,
      "益": 3367,
      "盎": 3368,
      "盒": 3369,
      "盔": 3370,
      "盛": 3371,
      "盜": 3372,
      "盞": 3373,
      "盟": 3374,
      "盡": 3375,
      "監": 3376,
      "盤": 3377,
      "盥": 3378,
      "盧": 3379,
      "盪": 3380,
      "目": 3381,
      "盯": 3382,
      "盲": 3383,
      "直": 3384,
      "相": 3385,
      "盹": 3386,
      "盼": 3387,
      "盾": 3388,
      "省": 3389,
      "眈": 3390,
      "眉": 3391,
      "看": 3392,
      "眞": 3393,
      "真": 3394,
      "眠": 3395,
      "眨": 3396,
      "眩": 3397,
      "眯": 3398,
      "眶": 3399,
      "眷": 3400,
      "眺": 3401,
      "眼": 3402,
      "眾": 3403,
      "着": 3404,
      "睄": 3405,
      "睇": 3406,
      "睏": 3407,
      "睛": 3408,
      "睜": 3409,
      "睞": 3410,
      "睡": 3411,
      "督": 3412,
      "睦": 3413,
      "睨": 3414,
      "睪": 3415,
      "睫": 3416,
      "睬": 3417,
      "睹": 3418,
      "睽": 3419,
      "睿": 3420,
      "瞄": 3421,
      "瞅": 3422,
      "瞇": 3423,
      "瞋": 3424,
      "瞌": 3425,
      "瞎": 3426,
      "瞑": 3427,
      "瞞": 3428,
      "瞟": 3429,
      "瞠": 3430,
      "瞥": 3431,
      "瞧": 3432,
      "瞪": 3433,
      "瞬": 3434,
      "瞭": 3435,
      "瞰": 3436,
      "瞳": 3437,
      "瞻": 3438,
      "瞼": 3439,
      "矇": 3440,
      "矓": 3441,
      "矗": 3442,
      "矚": 3443,
      "矛": 3444,
      "矜": 3445,
      "矢": 3446,
      "矣": 3447,
      "知": 3448,
      "矩": 3449,
      "矬": 3450,
      "短": 3451,
      "矮": 3452,
      "矯": 3453,
      "石": 3454,
      "矽": 3455,
      "砂": 3456,
      "砌": 3457,
      "砍": 3458,
      "砒": 3459,
      "研": 3460,
      "砥": 3461,
      "砧": 3462,
      "砬": 3463,
      "砰": 3464,
      "砲": 3465,
      "破": 3466,
      "砵": 3467,
      "砷": 3468,
      "砸": 3469,
      "硃": 3470,
      "硅": 3471,
      "硌": 3472,
      "硝": 3473,
      "硤": 3474,
      "硫": 3475,
      "硬": 3476,
      "硯": 3477,
      "碌": 3478,
      "碎": 3479,
      "碑": 3480,
      "碗": 3481,
      "碘": 3482,
      "碟": 3483,
      "碧": 3484,
      "碩": 3485,
      "碭": 3486,
      "碰": 3487,
      "碳": 3488,
      "碴": 3489,
      "確": 3490,
      "碼": 3491,
      "碾": 3492,
      "磁": 3493,
      "磅": 3494,
      "磊": 3495,
      "磋": 3496,
      "磐": 3497,
      "磕": 3498,
      "磚": 3499,
      "磡": 3500,
      "磣": 3501,
      "磨": 3502,
      "磯": 3503,
      "磷": 3504,
      "磺": 3505,
      "礁": 3506,
      "礅": 3507,
      "礎": 3508,
      "礙": 3509,
      "礦": 3510,
      "礪": 3511,
      "礫": 3512,
      "礴": 3513,
      "示": 3514,
      "社": 3515,
      "祀": 3516,
      "祁": 3517,
      "祂": 3518,
      "祆": 3519,
      "祇": 3520,
      "祈": 3521,
      "祉": 3522,
      "祐": 3523,
      "祕": 3524,
      "祖": 3525,
      "祚": 3526,
      "祛": 3527,
      "祜": 3528,
      "祝": 3529,
      "神": 3530,
      "祟": 3531,
      "祠": 3532,
      "祥": 3533,
      "票": 3534,
      "祭": 3535,
      "祺": 3536,
      "祿": 3537,
      "禀": 3538,
      "禁": 3539,
      "禍": 3540,
      "福": 3541,
      "禛": 3542,
      "禡": 3543,
      "禢": 3544,
      "禤": 3545,
      "禦": 3546,
      "禧": 3547,
      "禪": 3548,
      "禮": 3549,
      "禱": 3550,
      "禺": 3551,
      "禽": 3552,
      "禾": 3553,
      "禿": 3554,
      "秀": 3555,
      "私": 3556,
      "秃": 3557,
      "秉": 3558,
      "秋": 3559,
      "科": 3560,
      "秒": 3561,
      "秘": 3562,
      "租": 3563,
      "秤": 3564,
      "秦": 3565,
      "秧": 3566,
      "秩": 3567,
      "秬": 3568,
      "积": 3569,
      "移": 3570,
      "稀": 3571,
      "稅": 3572,
      "稈": 3573,
      "程": 3574,
      "稍": 3575,
      "稔": 3576,
      "稗": 3577,
      "稚": 3578,
      "稜": 3579,
      "稟": 3580,
      "稠": 3581,
      "種": 3582,
      "稱": 3583,
      "稹": 3584,
      "稻": 3585,
      "稼": 3586,
      "稽": 3587,
      "稿": 3588,
      "穀": 3589,
      "穄": 3590,
      "穆": 3591,
      "穌": 3592,
      "積": 3593,
      "穎": 3594,
      "穗": 3595,
      "穢": 3596,
      "穩": 3597,
      "穫": 3598,
      "穴": 3599,
      "究": 3600,
      "空": 3601,
      "穿": 3602,
      "突": 3603,
      "窄": 3604,
      "窈": 3605,
      "窒": 3606,
      "窕": 3607,
      "窗": 3608,
      "窟": 3609,
      "窠": 3610,
      "窩": 3611,
      "窪": 3612,
      "窮": 3613,
      "窯": 3614,
      "窰": 3615,
      "窺": 3616,
      "窿": 3617,
      "竄": 3618,
      "竅": 3619,
      "竇": 3620,
      "竊": 3621,
      "立": 3622,
      "站": 3623,
      "竝": 3624,
      "竟": 3625,
      "章": 3626,
      "竣": 3627,
      "童": 3628,
      "竭": 3629,
      "端": 3630,
      "競": 3631,
      "竹": 3632,
      "竺": 3633,
      "竿": 3634,
      "笆": 3635,
      "笈": 3636,
      "笊": 3637,
      "笏": 3638,
      "笑": 3639,
      "笘": 3640,
      "笙": 3641,
      "笛": 3642,
      "笠": 3643,
      "笤": 3644,
      "符": 3645,
      "笨": 3646,
      "第": 3647,
      "笱": 3648,
      "筆": 3649,
      "等": 3650,
      "筋": 3651,
      "筍": 3652,
      "筏": 3653,
      "筐": 3654,
      "筒": 3655,
      "答": 3656,
      "策": 3657,
      "筠": 3658,
      "筲": 3659,
      "筵": 3660,
      "筷": 3661,
      "箇": 3662,
      "箋": 3663,
      "箍": 3664,
      "箏": 3665,
      "箔": 3666,
      "箕": 3667,
      "算": 3668,
      "箝": 3669,
      "管": 3670,
      "箭": 3671,
      "箱": 3672,
      "箴": 3673,
      "節": 3674,
      "範": 3675,
      "篇": 3676,
      "築": 3677,
      "篋": 3678,
      "篎": 3679,
      "篙": 3680,
      "篝": 3681,
      "篡": 3682,
      "篤": 3683,
      "篦": 3684,
      "篩": 3685,
      "篷": 3686,
      "篾": 3687,
      "簁": 3688,
      "簇": 3689,
      "簍": 3690,
      "簟": 3691,
      "簡": 3692,
      "簧": 3693,
      "簪": 3694,
      "簫": 3695,
      "簷": 3696,
      "簸": 3697,
      "簽": 3698,
      "簾": 3699,
      "簿": 3700,
      "籃": 3701,
      "籌": 3702,
      "籍": 3703,
      "籐": 3704,
      "籚": 3705,
      "籟": 3706,
      "籠": 3707,
      "籤": 3708,
      "籬": 3709,
      "籮": 3710,
      "籲": 3711,
      "米": 3712,
      "籽": 3713,
      "粉": 3714,
      "粑": 3715,
      "粒": 3716,
      "粕": 3717,
      "粗": 3718,
      "粘": 3719,
      "粟": 3720,
      "粥": 3721,
      "粧": 3722,
      "粱": 3723,
      "粲": 3724,
      "粳": 3725,
      "粵": 3726,
      "粹": 3727,
      "粽": 3728,
      "精": 3729,
      "粿": 3730,
      "糉": 3731,
      "糊": 3732,
      "糍": 3733,
      "糕": 3734,
      "糖": 3735,
      "糙": 3736,
      "糜": 3737,
      "糞": 3738,
      "糟": 3739,
      "糠": 3740,
      "糧": 3741,
      "糨": 3742,
      "糬": 3743,
      "糯": 3744,
      "糰": 3745,
      "糴": 3746,
      "糸": 3747,
      "系": 3748,
      "糾": 3749,
      "紀": 3750,
      "紂": 3751,
      "約": 3752,
      "紅": 3753,
      "紇": 3754,
      "紈": 3755,
      "紉": 3756,
      "紊": 3757,
      "紋": 3758,
      "納": 3759,
      "紐": 3760,
      "紓": 3761,
      "純": 3762,
      "紗": 3763,
      "紙": 3764,
      "級": 3765,
      "紛": 3766,
      "紜": 3767,
      "素": 3768,
      "紡": 3769,
      "索": 3770,
      "紫": 3771,
      "紮": 3772,
      "累": 3773,
      "細": 3774,
      "紳": 3775,
      "紹": 3776,
      "絀": 3777,
      "終": 3778,
      "絃": 3779,
      "組": 3780,
      "絆": 3781,
      "結": 3782,
      "絕": 3783,
      "絝": 3784,
      "絞": 3785,
      "絡": 3786,
      "絢": 3787,
      "給": 3788,
      "絨": 3789,
      "絮": 3790,
      "統": 3791,
      "絲": 3792,
      "絹": 3793,
      "綁": 3794,
      "綉": 3795,
      "綏": 3796,
      "綑": 3797,
      "經": 3798,
      "綖": 3799,
      "綜": 3800,
      "綠": 3801,
      "綢": 3802,
      "綦": 3803,
      "綫": 3804,
      "維": 3805,
      "綱": 3806,
      "網": 3807,
      "綴": 3808,
      "綵": 3809,
      "綸": 3810,
      "綹": 3811,
      "綻": 3812,
      "綽": 3813,
      "綾": 3814,
      "綿": 3815,
      "緃": 3816,
      "緊": 3817,
      "緋": 3818,
      "緒": 3819,
      "緘": 3820,
      "線": 3821,
      "緝": 3822,
      "緞": 3823,
      "締": 3824,
      "緣": 3825,
      "編": 3826,
      "緩": 3827,
      "緬": 3828,
      "緯": 3829,
      "練": 3830,
      "緻": 3831,
      "縈": 3832,
      "縉": 3833,
      "縊": 3834,
      "縐": 3835,
      "縛": 3836,
      "縣": 3837,
      "縫": 3838,
      "縮": 3839,
      "縱": 3840,
      "縴": 3841,
      "縷": 3842,
      "總": 3843,
      "績": 3844,
      "繁": 3845,
      "繃": 3846,
      "繅": 3847,
      "繆": 3848,
      "繐": 3849,
      "織": 3850,
      "繖": 3851,
      "繚": 3852,
      "繞": 3853,
      "繡": 3854,
      "繩": 3855,
      "繪": 3856,
      "繫": 3857,
      "繭": 3858,
      "繮": 3859,
      "繳": 3860,
      "繹": 3861,
      "繼": 3862,
      "繽": 3863,
      "纂": 3864,
      "續": 3865,
      "纍": 3866,
      "纏": 3867,
      "纒": 3868,
      "纔": 3869,
      "纖": 3870,
      "纜": 3871,
      "维": 3872,
      "缉": 3873,
      "缸": 3874,
      "缺": 3875,
      "缽": 3876,
      "罄": 3877,
      "罈": 3878,
      "罎": 3879,
      "罐": 3880,
      "罔": 3881,
      "罕": 3882,
      "罟": 3883,
      "罩": 3884,
      "罪": 3885,
      "置": 3886,
      "罰": 3887,
      "署": 3888,
      "罵": 3889,
      "罷": 3890,
      "罹": 3891,
      "羅": 3892,
      "羈": 3893,
      "羊": 3894,
      "羌": 3895,
      "美": 3896,
      "羔": 3897,
      "羚": 3898,
      "羞": 3899,
      "羡": 3900,
      "羣": 3901,
      "群": 3902,
      "羨": 3903,
      "義": 3904,
      "羯": 3905,
      "羲": 3906,
      "羶": 3907,
      "羹": 3908,
      "羽": 3909,
      "翁": 3910,
      "翅": 3911,
      "翊": 3912,
      "翌": 3913,
      "翎": 3914,
      "習": 3915,
      "翔": 3916,
      "翟": 3917,
      "翠": 3918,
      "翡": 3919,
      "翩": 3920,
      "翰": 3921,
      "翱": 3922,
      "翹": 3923,
      "翻": 3924,
      "翼": 3925,
      "耀": 3926,
      "老": 3927,
      "考": 3928,
      "者": 3929,
      "耆": 3930,
      "而": 3931,
      "耍": 3932,
      "耐": 3933,
      "耕": 3934,
      "耗": 3935,
      "耘": 3936,
      "耦": 3937,
      "耳": 3938,
      "耶": 3939,
      "耷": 3940,
      "耽": 3941,
      "耿": 3942,
      "聆": 3943,
      "聇": 3944,
      "聊": 3945,
      "联": 3946,
      "聖": 3947,
      "聘": 3948,
      "聚": 3949,
      "聞": 3950,
      "聯": 3951,
      "聰": 3952,
      "聲": 3953,
      "聳": 3954,
      "聶": 3955,
      "職": 3956,
      "聼": 3957,
      "聽": 3958,
      "聾": 3959,
      "聿": 3960,
      "肅": 3961,
      "肆": 3962,
      "肇": 3963,
      "肉": 3964,
      "肋": 3965,
      "肌": 3966,
      "肏": 3967,
      "肖": 3968,
      "肘": 3969,
      "肚": 3970,
      "肛": 3971,
      "肝": 3972,
      "股": 3973,
      "肢": 3974,
      "肥": 3975,
      "肨": 3976,
      "肩": 3977,
      "肪": 3978,
      "肫": 3979,
      "肮": 3980,
      "肯": 3981,
      "育": 3982,
      "肴": 3983,
      "肺": 3984,
      "胃": 3985,
      "胇": 3986,
      "背": 3987,
      "胎": 3988,
      "胖": 3989,
      "胗": 3990,
      "胘": 3991,
      "胚": 3992,
      "胜": 3993,
      "胞": 3994,
      "胡": 3995,
      "胤": 3996,
      "胥": 3997,
      "胭": 3998,
      "胯": 3999,
      "胰": 4000,
      "胱": 4001,
      "胳": 4002,
      "胸": 4003,
      "胺": 4004,
      "能": 4005,
      "脂": 4006,
      "脅": 4007,
      "脆": 4008,
      "脈": 4009,
      "脊": 4010,
      "脖": 4011,
      "脛": 4012,
      "脢": 4013,
      "脣": 4014,
      "脩": 4015,
      "脫": 4016,
      "脯": 4017,
      "脷": 4018,
      "脹": 4019,
      "脾": 4020,
      "腋": 4021,
      "腌": 4022,
      "腎": 4023,
      "腐": 4024,
      "腔": 4025,
      "腕": 4026,
      "腥": 4027,
      "腦": 4028,
      "腩": 4029,
      "腫": 4030,
      "腮": 4031,
      "腰": 4032,
      "腱": 4033,
      "腳": 4034,
      "腸": 4035,
      "腹": 4036,
      "腺": 4037,
      "腿": 4038,
      "膀": 4039,
      "膊": 4040,
      "膏": 4041,
      "膚": 4042,
      "膛": 4043,
      "膜": 4044,
      "膝": 4045,
      "膠": 4046,
      "膨": 4047,
      "膩": 4048,
      "膳": 4049,
      "膺": 4050,
      "膻": 4051,
      "膽": 4052,
      "膾": 4053,
      "膿": 4054,
      "臀": 4055,
      "臂": 4056,
      "臃": 4057,
      "臆": 4058,
      "臉": 4059,
      "臊": 4060,
      "臍": 4061,
      "臘": 4062,
      "臟": 4063,
      "臣": 4064,
      "臥": 4065,
      "臧": 4066,
      "臨": 4067,
      "自": 4068,
      "臬": 4069,
      "臭": 4070,
      "至": 4071,
      "致": 4072,
      "臺": 4073,
      "臻": 4074,
      "臼": 4075,
      "舀": 4076,
      "舂": 4077,
      "舅": 4078,
      "與": 4079,
      "興": 4080,
      "舉": 4081,
      "舊": 4082,
      "舋": 4083,
      "舌": 4084,
      "舍": 4085,
      "舐": 4086,
      "舒": 4087,
      "舔": 4088,
      "舖": 4089,
      "舜": 4090,
      "舞": 4091,
      "舟": 4092,
      "舢": 4093,
      "舨": 4094,
      "航": 4095,
      "般": 4096,
      "舵": 4097,
      "舶": 4098,
      "船": 4099,
      "艇": 4100,
      "艘": 4101,
      "艙": 4102,
      "艦": 4103,
      "良": 4104,
      "艱": 4105,
      "色": 4106,
      "艷": 4107,
      "艾": 4108,
      "芃": 4109,
      "芊": 4110,
      "芋": 4111,
      "芒": 4112,
      "芙": 4113,
      "芝": 4114,
      "芡": 4115,
      "芥": 4116,
      "芫": 4117,
      "芬": 4118,
      "芭": 4119,
      "芮": 4120,
      "芯": 4121,
      "花": 4122,
      "芳": 4123,
      "芷": 4124,
      "芸": 4125,
      "芹": 4126,
      "芽": 4127,
      "芾": 4128,
      "苑": 4129,
      "苔": 4130,
      "苗": 4131,
      "苛": 4132,
      "苜": 4133,
      "苞": 4134,
      "苟": 4135,
      "苡": 4136,
      "苣": 4137,
      "苤": 4138,
      "若": 4139,
      "苦": 4140,
      "苯": 4141,
      "英": 4142,
      "苷": 4143,
      "茁": 4144,
      "茂": 4145,
      "范": 4146,
      "茄": 4147,
      "茅": 4148,
      "茉": 4149,
      "茗": 4150,
      "茜": 4151,
      "茨": 4152,
      "茫": 4153,
      "茬": 4154,
      "茭": 4155,
      "茱": 4156,
      "茲": 4157,
      "茴": 4158,
      "茵": 4159,
      "茶": 4160,
      "茸": 4161,
      "茹": 4162,
      "茼": 4163,
      "荃": 4164,
      "荇": 4165,
      "草": 4166,
      "荊": 4167,
      "荐": 4168,
      "荒": 4169,
      "荔": 4170,
      "荷": 4171,
      "荸": 4172,
      "荼": 4173,
      "荽": 4174,
      "莆": 4175,
      "莉": 4176,
      "莊": 4177,
      "莎": 4178,
      "莓": 4179,
      "莖": 4180,
      "莞": 4181,
      "莠": 4182,
      "莢": 4183,
      "莧": 4184,
      "莪": 4185,
      "莫": 4186,
      "莽": 4187,
      "菀": 4188,
      "菁": 4189,
      "菇": 4190,
      "菊": 4191,
      "菌": 4192,
      "菍": 4193,
      "菜": 4194,
      "菟": 4195,
      "菠": 4196,
      "菩": 4197,
      "華": 4198,
      "菱": 4199,
      "菲": 4200,
      "菸": 4201,
      "萃": 4202,
      "萄": 4203,
      "萊": 4204,
      "萌": 4205,
      "萍": 4206,
      "萎": 4207,
      "萣": 4208,
      "萩": 4209,
      "萬": 4210,
      "萱": 4211,
      "萵": 4212,
      "萺": 4213,
      "萼": 4214,
      "落": 4215,
      "葆": 4216,
      "葉": 4217,
      "著": 4218,
      "葛": 4219,
      "葡": 4220,
      "董": 4221,
      "葦": 4222,
      "葩": 4223,
      "葫": 4224,
      "葬": 4225,
      "葯": 4226,
      "葳": 4227,
      "葵": 4228,
      "葷": 4229,
      "葺": 4230,
      "蒂": 4231,
      "蒐": 4232,
      "蒙": 4233,
      "蒜": 4234,
      "蒲": 4235,
      "蒴": 4236,
      "蒸": 4237,
      "蒼": 4238,
      "蒽": 4239,
      "蒿": 4240,
      "蓄": 4241,
      "蓆": 4242,
      "蓉": 4243,
      "蓋": 4244,
      "蓓": 4245,
      "蓬": 4246,
      "蓮": 4247,
      "蓺": 4248,
      "蓼": 4249,
      "蓿": 4250,
      "蔊": 4251,
      "蔑": 4252,
      "蔓": 4253,
      "蔔": 4254,
      "蔗": 4255,
      "蔘": 4256,
      "蔚": 4257,
      "蔡": 4258,
      "蔣": 4259,
      "蔥": 4260,
      "蔫": 4261,
      "蔬": 4262,
      "蔭": 4263,
      "蔴": 4264,
      "蔽": 4265,
      "蕁": 4266,
      "蕃": 4267,
      "蕉": 4268,
      "蕊": 4269,
      "蕎": 4270,
      "蕙": 4271,
      "蕢": 4272,
      "蕩": 4273,
      "蕪": 4274,
      "蕭": 4275,
      "蕷": 4276,
      "蕹": 4277,
      "蕺": 4278,
      "蕾": 4279,
      "薄": 4280,
      "薇": 4281,
      "薈": 4282,
      "薊": 4283,
      "薏": 4284,
      "薑": 4285,
      "薛": 4286,
      "薤": 4287,
      "薦": 4288,
      "薨": 4289,
      "薩": 4290,
      "薪": 4291,
      "薫": 4292,
      "薯": 4293,
      "薰": 4294,
      "薹": 4295,
      "薺": 4296,
      "藂": 4297,
      "藉": 4298,
      "藍": 4299,
      "藏": 4300,
      "藐": 4301,
      "藕": 4302,
      "藜": 4303,
      "藝": 4304,
      "藤": 4305,
      "藥": 4306,
      "藩": 4307,
      "藹": 4308,
      "藺": 4309,
      "藻": 4310,
      "蘅": 4311,
      "蘆": 4312,
      "蘇": 4313,
      "蘊": 4314,
      "蘋": 4315,
      "蘑": 4316,
      "蘭": 4317,
      "蘸": 4318,
      "蘿": 4319,
      "虌": 4320,
      "虎": 4321,
      "虐": 4322,
      "虓": 4323,
      "虔": 4324,
      "處": 4325,
      "虛": 4326,
      "虜": 4327,
      "虞": 4328,
      "號": 4329,
      "虧": 4330,
      "虹": 4331,
      "虻": 4332,
      "虼": 4333,
      "蚊": 4334,
      "蚌": 4335,
      "蚓": 4336,
      "蚕": 4337,
      "蚚": 4338,
      "蚜": 4339,
      "蚣": 4340,
      "蚤": 4341,
      "蚩": 4342,
      "蚪": 4343,
      "蚯": 4344,
      "蚱": 4345,
      "蚵": 4346,
      "蚶": 4347,
      "蚺": 4348,
      "蛀": 4349,
      "蛆": 4350,
      "蛇": 4351,
      "蛋": 4352,
      "蛐": 4353,
      "蛙": 4354,
      "蛛": 4355,
      "蛟": 4356,
      "蛤": 4357,
      "蛭": 4358,
      "蛸": 4359,
      "蛹": 4360,
      "蛻": 4361,
      "蛾": 4362,
      "蜀": 4363,
      "蜂": 4364,
      "蜃": 4365,
      "蜆": 4366,
      "蜇": 4367,
      "蜈": 4368,
      "蜊": 4369,
      "蜍": 4370,
      "蜑": 4371,
      "蜓": 4372,
      "蜘": 4373,
      "蜚": 4374,
      "蜜": 4375,
      "蜢": 4376,
      "蜥": 4377,
      "蜮": 4378,
      "蜱": 4379,
      "蜴": 4380,
      "蜷": 4381,
      "蜻": 4382,
      "蝌": 4383,
      "蝎": 4384,
      "蝕": 4385,
      "蝗": 4386,
      "蝙": 4387,
      "蝠": 4388,
      "蝦": 4389,
      "蝨": 4390,
      "蝴": 4391,
      "蝶": 4392,
      "蝸": 4393,
      "螂": 4394,
      "螃": 4395,
      "螄": 4396,
      "融": 4397,
      "螞": 4398,
      "螢": 4399,
      "螫": 4400,
      "螯": 4401,
      "螳": 4402,
      "螺": 4403,
      "蟀": 4404,
      "蟄": 4405,
      "蟆": 4406,
      "蟋": 4407,
      "蟌": 4408,
      "蟎": 4409,
      "蟑": 4410,
      "蟒": 4411,
      "蟠": 4412,
      "蟥": 4413,
      "蟬": 4414,
      "蟮": 4415,
      "蟲": 4416,
      "蟹": 4417,
      "蟻": 4418,
      "蟾": 4419,
      "蠅": 4420,
      "蠍": 4421,
      "蠔": 4422,
      "蠕": 4423,
      "蠟": 4424,
      "蠢": 4425,
      "蠣": 4426,
      "蠱": 4427,
      "蠶": 4428,
      "蠻": 4429,
      "血": 4430,
      "衆": 4431,
      "衊": 4432,
      "行": 4433,
      "衍": 4434,
      "術": 4435,
      "衕": 4436,
      "街": 4437,
      "衙": 4438,
      "衚": 4439,
      "衛": 4440,
      "衝": 4441,
      "衞": 4442,
      "衡": 4443,
      "衣": 4444,
      "表": 4445,
      "衩": 4446,
      "衪": 4447,
      "衫": 4448,
      "衰": 4449,
      "衷": 4450,
      "衹": 4451,
      "衿": 4452,
      "袁": 4453,
      "袋": 4454,
      "袍": 4455,
      "袒": 4456,
      "袖": 4457,
      "被": 4458,
      "袱": 4459,
      "裁": 4460,
      "裂": 4461,
      "裏": 4462,
      "裔": 4463,
      "裕": 4464,
      "裘": 4465,
      "裙": 4466,
      "補": 4467,
      "裝": 4468,
      "裡": 4469,
      "裨": 4470,
      "裱": 4471,
      "裳": 4472,
      "裴": 4473,
      "裸": 4474,
      "裹": 4475,
      "製": 4476,
      "複": 4477,
      "褐": 4478,
      "褒": 4479,
      "褓": 4480,
      "褔": 4481,
      "褚": 4482,
      "褥": 4483,
      "褪": 4484,
      "褫": 4485,
      "褯": 4486,
      "褲": 4487,
      "褶": 4488,
      "褸": 4489,
      "褻": 4490,
      "襁": 4491,
      "襄": 4492,
      "襖": 4493,
      "襟": 4494,
      "襠": 4495,
      "襤": 4496,
      "襪": 4497,
      "襬": 4498,
      "襯": 4499,
      "襲": 4500,
      "襻": 4501,
      "西": 4502,
      "要": 4503,
      "覆": 4504,
      "覈": 4505,
      "見": 4506,
      "規": 4507,
      "覓": 4508,
      "視": 4509,
      "覘": 4510,
      "覦": 4511,
      "親": 4512,
      "覬": 4513,
      "覺": 4514,
      "覽": 4515,
      "覿": 4516,
      "觀": 4517,
      "角": 4518,
      "解": 4519,
      "觸": 4520,
      "言": 4521,
      "訂": 4522,
      "訃": 4523,
      "計": 4524,
      "訊": 4525,
      "討": 4526,
      "訓": 4527,
      "訕": 4528,
      "託": 4529,
      "記": 4530,
      "訛": 4531,
      "訝": 4532,
      "訟": 4533,
      "訣": 4534,
      "訥": 4535,
      "訪": 4536,
      "設": 4537,
      "許": 4538,
      "訴": 4539,
      "診": 4540,
      "註": 4541,
      "証": 4542,
      "詁": 4543,
      "詆": 4544,
      "詈": 4545,
      "詐": 4546,
      "詔": 4547,
      "評": 4548,
      "詛": 4549,
      "詞": 4550,
      "詠": 4551,
      "詡": 4552,
      "詢": 4553,
      "試": 4554,
      "詧": 4555,
      "詩": 4556,
      "詬": 4557,
      "詭": 4558,
      "詮": 4559,
      "話": 4560,
      "該": 4561,
      "詳": 4562,
      "詹": 4563,
      "詼": 4564,
      "誅": 4565,
      "誇": 4566,
      "誌": 4567,
      "認": 4568,
      "誒": 4569,
      "誓": 4570,
      "誕": 4571,
      "誘": 4572,
      "語": 4573,
      "誠": 4574,
      "誡": 4575,
      "誣": 4576,
      "誤": 4577,
      "誥": 4578,
      "誦": 4579,
      "誨": 4580,
      "說": 4581,
      "説": 4582,
      "誰": 4583,
      "課": 4584,
      "誹": 4585,
      "誼": 4586,
      "調": 4587,
      "諄": 4588,
      "談": 4589,
      "請": 4590,
      "諒": 4591,
      "論": 4592,
      "諛": 4593,
      "諜": 4594,
      "諡": 4595,
      "諢": 4596,
      "諤": 4597,
      "諦": 4598,
      "諧": 4599,
      "諫": 4600,
      "諭": 4601,
      "諮": 4602,
      "諱": 4603,
      "諳": 4604,
      "諷": 4605,
      "諸": 4606,
      "諺": 4607,
      "諾": 4608,
      "謀": 4609,
      "謁": 4610,
      "謂": 4611,
      "謄": 4612,
      "謅": 4613,
      "謊": 4614,
      "謎": 4615,
      "謗": 4616,
      "謙": 4617,
      "講": 4618,
      "謝": 4619,
      "謠": 4620,
      "謨": 4621,
      "謩": 4622,
      "謫": 4623,
      "謬": 4624,
      "謹": 4625,
      "謾": 4626,
      "譁": 4627,
      "證": 4628,
      "譏": 4629,
      "識": 4630,
      "譙": 4631,
      "譚": 4632,
      "譜": 4633,
      "警": 4634,
      "譬": 4635,
      "譭": 4636,
      "譯": 4637,
      "議": 4638,
      "譲": 4639,
      "譴": 4640,
      "護": 4641,
      "譽": 4642,
      "讀": 4643,
      "讁": 4644,
      "變": 4645,
      "讎": 4646,
      "讒": 4647,
      "讓": 4648,
      "讖": 4649,
      "讚": 4650,
      "诏": 4651,
      "说": 4652,
      "请": 4653,
      "谁": 4654,
      "谷": 4655,
      "谿": 4656,
      "豁": 4657,
      "豂": 4658,
      "豆": 4659,
      "豇": 4660,
      "豈": 4661,
      "豉": 4662,
      "豌": 4663,
      "豎": 4664,
      "豐": 4665,
      "豔": 4666,
      "豚": 4667,
      "象": 4668,
      "豪": 4669,
      "豫": 4670,
      "豬": 4671,
      "豹": 4672,
      "貂": 4673,
      "貌": 4674,
      "貓": 4675,
      "貝": 4676,
      "貞": 4677,
      "負": 4678,
      "財": 4679,
      "貢": 4680,
      "貧": 4681,
      "貨": 4682,
      "販": 4683,
      "貪": 4684,
      "貫": 4685,
      "責": 4686,
      "貯": 4687,
      "貳": 4688,
      "貴": 4689,
      "貶": 4690,
      "買": 4691,
      "貸": 4692,
      "費": 4693,
      "貼": 4694,
      "貽": 4695,
      "貿": 4696,
      "賀": 4697,
      "賂": 4698,
      "賃": 4699,
      "賄": 4700,
      "賅": 4701,
      "資": 4702,
      "賈": 4703,
      "賊": 4704,
      "賒": 4705,
      "賓": 4706,
      "賜": 4707,
      "賞": 4708,
      "賠": 4709,
      "賢": 4710,
      "賣": 4711,
      "賤": 4712,
      "賦": 4713,
      "賧": 4714,
      "質": 4715,
      "賬": 4716,
      "賭": 4717,
      "賴": 4718,
      "賺": 4719,
      "購": 4720,
      "賽": 4721,
      "贅": 4722,
      "贇": 4723,
      "贈": 4724,
      "贊": 4725,
      "贍": 4726,
      "贏": 4727,
      "贓": 4728,
      "贖": 4729,
      "贛": 4730,
      "费": 4731,
      "赤": 4732,
      "赦": 4733,
      "赫": 4734,
      "走": 4735,
      "赴": 4736,
      "起": 4737,
      "趁": 4738,
      "超": 4739,
      "越": 4740,
      "趌": 4741,
      "趕": 4742,
      "趙": 4743,
      "趟": 4744,
      "趣": 4745,
      "趨": 4746,
      "趯": 4747,
      "足": 4748,
      "趴": 4749,
      "趷": 4750,
      "趾": 4751,
      "趿": 4752,
      "跋": 4753,
      "跌": 4754,
      "跑": 4755,
      "跚": 4756,
      "跛": 4757,
      "距": 4758,
      "跟": 4759,
      "跡": 4760,
      "跤": 4761,
      "跨": 4762,
      "跪": 4763,
      "路": 4764,
      "跳": 4765,
      "跺": 4766,
      "踉": 4767,
      "踎": 4768,
      "踏": 4769,
      "踐": 4770,
      "踝": 4771,
      "踞": 4772,
      "踢": 4773,
      "踩": 4774,
      "踪": 4775,
      "踫": 4776,
      "踮": 4777,
      "踱": 4778,
      "踴": 4779,
      "踵": 4780,
      "踹": 4781,
      "蹂": 4782,
      "蹄": 4783,
      "蹈": 4784,
      "蹉": 4785,
      "蹊": 4786,
      "蹋": 4787,
      "蹌": 4788,
      "蹓": 4789,
      "蹚": 4790,
      "蹟": 4791,
      "蹣": 4792,
      "蹤": 4793,
      "蹦": 4794,
      "蹩": 4795,
      "蹬": 4796,
      "蹭": 4797,
      "蹲": 4798,
      "蹺": 4799,
      "蹾": 4800,
      "躁": 4801,
      "躂": 4802,
      "躉": 4803,
      "躋": 4804,
      "躍": 4805,
      "躡": 4806,
      "躥": 4807,
      "躪": 4808,
      "身": 4809,
      "躬": 4810,
      "躭": 4811,
      "躲": 4812,
      "躺": 4813,
      "軀": 4814,
      "車": 4815,
      "軋": 4816,
      "軌": 4817,
      "軍": 4818,
      "軒": 4819,
      "軔": 4820,
      "軛": 4821,
      "軟": 4822,
      "軸": 4823,
      "軼": 4824,
      "軾": 4825,
      "較": 4826,
      "載": 4827,
      "輋": 4828,
      "輒": 4829,
      "輔": 4830,
      "輕": 4831,
      "輛": 4832,
      "輝": 4833,
      "輞": 4834,
      "輟": 4835,
      "輥": 4836,
      "輩": 4837,
      "輪": 4838,
      "輯": 4839,
      "輸": 4840,
      "輻": 4841,
      "輾": 4842,
      "輿": 4843,
      "轄": 4844,
      "轆": 4845,
      "轉": 4846,
      "轍": 4847,
      "轎": 4848,
      "轟": 4849,
      "辛": 4850,
      "辜": 4851,
      "辟": 4852,
      "辣": 4853,
      "辦": 4854,
      "辨": 4855,
      "辭": 4856,
      "辮": 4857,
      "辯": 4858,
      "辰": 4859,
      "辱": 4860,
      "農": 4861,
      "迂": 4862,
      "迄": 4863,
      "迅": 4864,
      "过": 4865,
      "迎": 4866,
      "近": 4867,
      "返": 4868,
      "这": 4869,
      "迢": 4870,
      "迥": 4871,
      "迦": 4872,
      "迪": 4873,
      "迫": 4874,
      "迭": 4875,
      "述": 4876,
      "迴": 4877,
      "迷": 4878,
      "迸": 4879,
      "追": 4880,
      "退": 4881,
      "送": 4882,
      "逃": 4883,
      "逅": 4884,
      "逆": 4885,
      "逍": 4886,
      "透": 4887,
      "逐": 4888,
      "途": 4889,
      "逕": 4890,
      "逗": 4891,
      "這": 4892,
      "通": 4893,
      "逛": 4894,
      "逝": 4895,
      "逞": 4896,
      "速": 4897,
      "造": 4898,
      "逢": 4899,
      "連": 4900,
      "逮": 4901,
      "週": 4902,
      "進": 4903,
      "逵": 4904,
      "逸": 4905,
      "逹": 4906,
      "逼": 4907,
      "逾": 4908,
      "遁": 4909,
      "遂": 4910,
      "遇": 4911,
      "遊": 4912,
      "運": 4913,
      "遍": 4914,
      "過": 4915,
      "遏": 4916,
      "遐": 4917,
      "道": 4918,
      "達": 4919,
      "違": 4920,
      "遙": 4921,
      "遛": 4922,
      "遜": 4923,
      "遞": 4924,
      "遠": 4925,
      "遢": 4926,
      "遣": 4927,
      "適": 4928,
      "遭": 4929,
      "遮": 4930,
      "遲": 4931,
      "遴": 4932,
      "遵": 4933,
      "遶": 4934,
      "遷": 4935,
      "選": 4936,
      "遺": 4937,
      "遼": 4938,
      "遽": 4939,
      "避": 4940,
      "邀": 4941,
      "邁": 4942,
      "邂": 4943,
      "邃": 4944,
      "還": 4945,
      "邊": 4946,
      "邋": 4947,
      "邏": 4948,
      "邑": 4949,
      "邕": 4950,
      "邢": 4951,
      "那": 4952,
      "邦": 4953,
      "邨": 4954,
      "邪": 4955,
      "邱": 4956,
      "邵": 4957,
      "邸": 4958,
      "郁": 4959,
      "郊": 4960,
      "郎": 4961,
      "郝": 4962,
      "郡": 4963,
      "部": 4964,
      "郭": 4965,
      "郴": 4966,
      "郵": 4967,
      "都": 4968,
      "郾": 4969,
      "鄂": 4970,
      "鄉": 4971,
      "鄒": 4972,
      "鄙": 4973,
      "鄜": 4974,
      "鄧": 4975,
      "鄭": 4976,
      "鄰": 4977,
      "鄺": 4978,
      "酊": 4979,
      "酌": 4980,
      "配": 4981,
      "酎": 4982,
      "酒": 4983,
      "酗": 4984,
      "酚": 4985,
      "酢": 4986,
      "酣": 4987,
      "酥": 4988,
      "酩": 4989,
      "酪": 4990,
      "酬": 4991,
      "酮": 4992,
      "酵": 4993,
      "酶": 4994,
      "酷": 4995,
      "酸": 4996,
      "醃": 4997,
      "醇": 4998,
      "醉": 4999,
      "醋": 5000,
      "醒": 5001,
      "醛": 5002,
      "醜": 5003,
      "醞": 5004,
      "醣": 5005,
      "醫": 5006,
      "醬": 5007,
      "醮": 5008,
      "醺": 5009,
      "釀": 5010,
      "釁": 5011,
      "采": 5012,
      "釉": 5013,
      "釋": 5014,
      "里": 5015,
      "重": 5016,
      "野": 5017,
      "量": 5018,
      "釐": 5019,
      "金": 5020,
      "釗": 5021,
      "釘": 5022,
      "針": 5023,
      "釣": 5024,
      "釦": 5025,
      "釧": 5026,
      "鈅": 5027,
      "鈉": 5028,
      "鈊": 5029,
      "鈍": 5030,
      "鈐": 5031,
      "鈔": 5032,
      "鈕": 5033,
      "鈞": 5034,
      "鈣": 5035,
      "鈴": 5036,
      "鈺": 5037,
      "鈽": 5038,
      "鉀": 5039,
      "鉅": 5040,
      "鉆": 5041,
      "鉗": 5042,
      "鉚": 5043,
      "鉛": 5044,
      "鉞": 5045,
      "鉢": 5046,
      "鉤": 5047,
      "鉲": 5048,
      "鉳": 5049,
      "鉸": 5050,
      "銀": 5051,
      "銅": 5052,
      "銓": 5053,
      "銖": 5054,
      "銘": 5055,
      "銜": 5056,
      "銦": 5057,
      "銬": 5058,
      "銳": 5059,
      "銷": 5060,
      "銹": 5061,
      "銻": 5062,
      "銼": 5063,
      "鋁": 5064,
      "鋂": 5065,
      "鋃": 5066,
      "鋅": 5067,
      "鋆": 5068,
      "鋒": 5069,
      "鋤": 5070,
      "鋥": 5071,
      "鋪": 5072,
      "鋰": 5073,
      "鋸": 5074,
      "鋼": 5075,
      "錄": 5076,
      "錐": 5077,
      "錕": 5078,
      "錘": 5079,
      "錙": 5080,
      "錚": 5081,
      "錢": 5082,
      "錦": 5083,
      "錨": 5084,
      "錫": 5085,
      "錮": 5086,
      "錯": 5087,
      "録": 5088,
      "錶": 5089,
      "鍁": 5090,
      "鍇": 5091,
      "鍊": 5092,
      "鍋": 5093,
      "鍍": 5094,
      "鍔": 5095,
      "鍚": 5096,
      "鍛": 5097,
      "鍥": 5098,
      "鍬": 5099,
      "鍵": 5100,
      "鍾": 5101,
      "鎂": 5102,
      "鎇": 5103,
      "鎊": 5104,
      "鎏": 5105,
      "鎔": 5106,
      "鎖": 5107,
      "鎗": 5108,
      "鎚": 5109,
      "鎝": 5110,
      "鎦": 5111,
      "鎧": 5112,
      "鎬": 5113,
      "鎮": 5114,
      "鏈": 5115,
      "鏗": 5116,
      "鏘": 5117,
      "鏟": 5118,
      "鏡": 5119,
      "鏢": 5120,
      "鏵": 5121,
      "鏹": 5122,
      "鏽": 5123,
      "鐓": 5124,
      "鐘": 5125,
      "鐮": 5126,
      "鐲": 5127,
      "鐳": 5128,
      "鐵": 5129,
      "鐸": 5130,
      "鐺": 5131,
      "鑀": 5132,
      "鑄": 5133,
      "鑊": 5134,
      "鑑": 5135,
      "鑒": 5136,
      "鑣": 5137,
      "鑪": 5138,
      "鑫": 5139,
      "鑰": 5140,
      "鑲": 5141,
      "鑷": 5142,
      "鑼": 5143,
      "鑽": 5144,
      "鑿": 5145,
      "铆": 5146,
      "長": 5147,
      "門": 5148,
      "閂": 5149,
      "閃": 5150,
      "閉": 5151,
      "開": 5152,
      "閏": 5153,
      "閑": 5154,
      "閒": 5155,
      "間": 5156,
      "閘": 5157,
      "閡": 5158,
      "関": 5159,
      "閣": 5160,
      "閤": 5161,
      "閥": 5162,
      "閨": 5163,
      "閩": 5164,
      "閱": 5165,
      "閲": 5166,
      "閹": 5167,
      "閻": 5168,
      "闆": 5169,
      "闈": 5170,
      "闊": 5171,
      "闌": 5172,
      "闍": 5173,
      "闓": 5174,
      "闔": 5175,
      "闕": 5176,
      "闖": 5177,
      "闘": 5178,
      "關": 5179,
      "闡": 5180,
      "闢": 5181,
      "问": 5182,
      "阜": 5183,
      "阪": 5184,
      "阮": 5185,
      "阱": 5186,
      "防": 5187,
      "阻": 5188,
      "阿": 5189,
      "陀": 5190,
      "陂": 5191,
      "附": 5192,
      "陋": 5193,
      "陌": 5194,
      "降": 5195,
      "限": 5196,
      "陔": 5197,
      "陛": 5198,
      "陝": 5199,
      "陡": 5200,
      "院": 5201,
      "陣": 5202,
      "除": 5203,
      "陪": 5204,
      "陰": 5205,
      "陳": 5206,
      "陵": 5207,
      "陶": 5208,
      "陷": 5209,
      "陸": 5210,
      "陽": 5211,
      "隆": 5212,
      "隊": 5213,
      "隋": 5214,
      "隍": 5215,
      "階": 5216,
      "隔": 5217,
      "隕": 5218,
      "隘": 5219,
      "隙": 5220,
      "際": 5221,
      "障": 5222,
      "隟": 5223,
      "隧": 5224,
      "隨": 5225,
      "險": 5226,
      "隱": 5227,
      "隴": 5228,
      "隷": 5229,
      "隸": 5230,
      "隻": 5231,
      "雀": 5232,
      "雁": 5233,
      "雄": 5234,
      "雅": 5235,
      "集": 5236,
      "雇": 5237,
      "雉": 5238,
      "雋": 5239,
      "雌": 5240,
      "雍": 5241,
      "雒": 5242,
      "雕": 5243,
      "雖": 5244,
      "雙": 5245,
      "雛": 5246,
      "雜": 5247,
      "雞": 5248,
      "離": 5249,
      "難": 5250,
      "雨": 5251,
      "雪": 5252,
      "雯": 5253,
      "雲": 5254,
      "零": 5255,
      "雷": 5256,
      "雹": 5257,
      "電": 5258,
      "需": 5259,
      "霄": 5260,
      "霆": 5261,
      "震": 5262,
      "霉": 5263,
      "霍": 5264,
      "霎": 5265,
      "霑": 5266,
      "霓": 5267,
      "霖": 5268,
      "霜": 5269,
      "霞": 5270,
      "霧": 5271,
      "霰": 5272,
      "露": 5273,
      "霸": 5274,
      "霹": 5275,
      "霽": 5276,
      "霾": 5277,
      "靂": 5278,
      "靄": 5279,
      "靈": 5280,
      "青": 5281,
      "靖": 5282,
      "靚": 5283,
      "靛": 5284,
      "靜": 5285,
      "非": 5286,
      "靠": 5287,
      "靡": 5288,
      "面": 5289,
      "革": 5290,
      "靴": 5291,
      "靶": 5292,
      "靼": 5293,
      "鞅": 5294,
      "鞋": 5295,
      "鞍": 5296,
      "鞏": 5297,
      "鞔": 5298,
      "鞘": 5299,
      "鞠": 5300,
      "鞦": 5301,
      "鞭": 5302,
      "韃": 5303,
      "韆": 5304,
      "韋": 5305,
      "韌": 5306,
      "韓": 5307,
      "韜": 5308,
      "韭": 5309,
      "音": 5310,
      "韶": 5311,
      "韻": 5312,
      "響": 5313,
      "頁": 5314,
      "頂": 5315,
      "頃": 5316,
      "項": 5317,
      "順": 5318,
      "須": 5319,
      "頌": 5320,
      "預": 5321,
      "頑": 5322,
      "頒": 5323,
      "頓": 5324,
      "頗": 5325,
      "領": 5326,
      "頜": 5327,
      "頡": 5328,
      "頤": 5329,
      "頦": 5330,
      "頭": 5331,
      "頰": 5332,
      "頴": 5333,
      "頸": 5334,
      "頹": 5335,
      "頻": 5336,
      "顆": 5337,
      "題": 5338,
      "額": 5339,
      "顏": 5340,
      "顔": 5341,
      "願": 5342,
      "顛": 5343,
      "類": 5344,
      "顧": 5345,
      "顫": 5346,
      "顯": 5347,
      "顱": 5348,
      "顳": 5349,
      "顴": 5350,
      "题": 5351,
      "風": 5352,
      "颱": 5353,
      "颳": 5354,
      "颶": 5355,
      "颼": 5356,
      "飄": 5357,
      "飆": 5358,
      "飛": 5359,
      "食": 5360,
      "飢": 5361,
      "飩": 5362,
      "飪": 5363,
      "飯": 5364,
      "飲": 5365,
      "飼": 5366,
      "飽": 5367,
      "飾": 5368,
      "餃": 5369,
      "餅": 5370,
      "餈": 5371,
      "餉": 5372,
      "養": 5373,
      "餌": 5374,
      "餐": 5375,
      "餒": 5376,
      "餓": 5377,
      "餘": 5378,
      "餚": 5379,
      "餛": 5380,
      "餡": 5381,
      "館": 5382,
      "餬": 5383,
      "餵": 5384,
      "餸": 5385,
      "餼": 5386,
      "餽": 5387,
      "餾": 5388,
      "餿": 5389,
      "饅": 5390,
      "饉": 5391,
      "饋": 5392,
      "饑": 5393,
      "饒": 5394,
      "饜": 5395,
      "饞": 5396,
      "首": 5397,
      "香": 5398,
      "馨": 5399,
      "馩": 5400,
      "馬": 5401,
      "馭": 5402,
      "馮": 5403,
      "馱": 5404,
      "馳": 5405,
      "馴": 5406,
      "駁": 5407,
      "駐": 5408,
      "駒": 5409,
      "駕": 5410,
      "駛": 5411,
      "駝": 5412,
      "駟": 5413,
      "駭": 5414,
      "駱": 5415,
      "駿": 5416,
      "騁": 5417,
      "騎": 5418,
      "騖": 5419,
      "騙": 5420,
      "騭": 5421,
      "騮": 5422,
      "騰": 5423,
      "騷": 5424,
      "騾": 5425,
      "驅": 5426,
      "驕": 5427,
      "驗": 5428,
      "驚": 5429,
      "驛": 5430,
      "驟": 5431,
      "驢": 5432,
      "驥": 5433,
      "骨": 5434,
      "骯": 5435,
      "骰": 5436,
      "骷": 5437,
      "骸": 5438,
      "骼": 5439,
      "髏": 5440,
      "髒": 5441,
      "髓": 5442,
      "體": 5443,
      "髕": 5444,
      "髖": 5445,
      "高": 5446,
      "髦": 5447,
      "髮": 5448,
      "髻": 5449,
      "鬃": 5450,
      "鬆": 5451,
      "鬈": 5452,
      "鬍": 5453,
      "鬚": 5454,
      "鬟": 5455,
      "鬠": 5456,
      "鬢": 5457,
      "鬥": 5458,
      "鬧": 5459,
      "鬨": 5460,
      "鬮": 5461,
      "鬯": 5462,
      "鬱": 5463,
      "鬼": 5464,
      "魁": 5465,
      "魂": 5466,
      "魄": 5467,
      "魅": 5468,
      "魏": 5469,
      "魔": 5470,
      "魘": 5471,
      "魚": 5472,
      "魟": 5473,
      "魨": 5474,
      "魯": 5475,
      "魷": 5476,
      "鮋": 5477,
      "鮐": 5478,
      "鮑": 5479,
      "鮓": 5480,
      "鮪": 5481,
      "鮫": 5482,
      "鮭": 5483,
      "鮮": 5484,
      "鯁": 5485,
      "鯉": 5486,
      "鯊": 5487,
      "鯔": 5488,
      "鯖": 5489,
      "鯛": 5490,
      "鯨": 5491,
      "鯪": 5492,
      "鯰": 5493,
      "鰂": 5494,
      "鰈": 5495,
      "鰓": 5496,
      "鰨": 5497,
      "鰭": 5498,
      "鰱": 5499,
      "鰲": 5500,
      "鰹": 5501,
      "鰻": 5502,
      "鰾": 5503,
      "鱈": 5504,
      "鱉": 5505,
      "鱒": 5506,
      "鱔": 5507,
      "鱖": 5508,
      "鱗": 5509,
      "鱟": 5510,
      "鱧": 5511,
      "鱲": 5512,
      "鱷": 5513,
      "鲜": 5514,
      "鳊": 5515,
      "鳥": 5516,
      "鳧": 5517,
      "鳩": 5518,
      "鳳": 5519,
      "鳴": 5520,
      "鳶": 5521,
      "鴇": 5522,
      "鴉": 5523,
      "鴐": 5524,
      "鴕": 5525,
      "鴛": 5526,
      "鴦": 5527,
      "鴨": 5528,
      "鴻": 5529,
      "鴿": 5530,
      "鵑": 5531,
      "鵝": 5532,
      "鵡": 5533,
      "鵪": 5534,
      "鵬": 5535,
      "鵰": 5536,
      "鵲": 5537,
      "鶇": 5538,
      "鶉": 5539,
      "鶥": 5540,
      "鶴": 5541,
      "鶼": 5542,
      "鷂": 5543,
      "鷄": 5544,
      "鷗": 5545,
      "鷲": 5546,
      "鷸": 5547,
      "鷹": 5548,
      "鷺": 5549,
      "鸚": 5550,
      "鸞": 5551,
      "鹰": 5552,
      "鹵": 5553,
      "鹹": 5554,
      "鹼": 5555,
      "鹽": 5556,
      "鹿": 5557,
      "麂": 5558,
      "麊": 5559,
      "麋": 5560,
      "麒": 5561,
      "麓": 5562,
      "麗": 5563,
      "麝": 5564,
      "麟": 5565,
      "麥": 5566,
      "麪": 5567,
      "麵": 5568,
      "麻": 5569,
      "麼": 5570,
      "麽": 5571,
      "黃": 5572,
      "黍": 5573,
      "黎": 5574,
      "黏": 5575,
      "黐": 5576,
      "黑": 5577,
      "黔": 5578,
      "默": 5579,
      "黙": 5580,
      "黚": 5581,
      "黛": 5582,
      "黝": 5583,
      "點": 5584,
      "黠": 5585,
      "黨": 5586,
      "黯": 5587,
      "黴": 5588,
      "鼎": 5589,
      "鼐": 5590,
      "鼓": 5591,
      "鼠": 5592,
      "鼻": 5593,
      "鼾": 5594,
      "齁": 5595,
      "齊": 5596,
      "齋": 5597,
      "齒": 5598,
      "齙": 5599,
      "齜": 5600,
      "齡": 5601,
      "齣": 5602,
      "齦": 5603,
      "龍": 5604,
      "龐": 5605,
      "龑": 5606,
      "龔": 5607,
      "龕": 5608,
      "龜": 5609,
      "": 5610,
      "": 5611,
      "︰": 5612,
      "﹑": 5613,
      "﹣": 5614,
      "！": 5615,
      "＂": 5616,
      "％": 5617,
      "（": 5618,
      "）": 5619,
      "＋": 5620,
      "，": 5621,
      "－": 5622,
      "．": 5623,
      "／": 5624,
      "３": 5625,
      "４": 5626,
      "：": 5627,
      "；": 5628,
      "？": 5629,
      "Ａ": 5630,
      "Ｂ": 5631,
      "Ｄ": 5632,
      "Ｇ": 5633,
      "Ｋ": 5634,
      "Ｏ": 5635,
      "Ｗ": 5636,
      "［": 5637,
      "］": 5638,
      "～": 5639,
      "｢": 5640,
      "｣": 5641,
      "𠸏": 5642,
      "𠻹": 5643,
      "𠻺": 5644,
      "𡁵": 5645,
      "𤠣": 5646,
      "𦧲": 5647,
      "𨋢": 5648,
      "𭨡": 5649,
      "𮄫": 5650,
      "񘃁": 5651,
      "我們": 5652,
      "一個": 5653,
      "什麼": 5654,
      "沒有": 5655,
      "他們": 5656,
      "就是": 5657,
      "這個": 5658,
      "知道": 5659,
      "這樣": 5660,
      "可以": 5661,
      "現在": 5662,
      "不是": 5663,
      "我的": 5664,
      "香港": 5665,
      "自己": 5666,
      "如果": 5667,
      "所以": 5668,
      "東西": 5669,
      "怎麼": 5670,
      "這麼": 5671,
      "這些": 5672,
      "他的": 5673,
      "你的": 5674,
      "不要": 5675,
      "的人": 5676,
      "時候": 5677,
      "20": 5678,
      "工作": 5679,
      "已經": 5680,
      "但是": 5681,
      "那些": 5682,
      "很多": 5683,
      "因為": 5684,
      "19": 5685,
      "真的": 5686,
      "需要": 5687,
      "..": 5688,
      "可能": 5689,
      "今天": 5690,
      "不知道": 5691,
      "喜歡": 5692,
      "了一": 5693,
      "時間": 5694,
      "那麼": 5695,
      "開始": 5696,
      "淘氣": 5697,
      "不會": 5698,
      "那個": 5699,
      "非常": 5700,
      "覺得": 5701,
      "問題": 5702,
      "朋友": 5703,
      "公司": 5704,
      "你們": 5705,
      "這是": 5706,
      "應該": 5707,
      "我想": 5708,
      "起來": 5709,
      "一些": 5710,
      "看到": 5711,
      "一點": 5712,
      "在這": 5713,
      "孩子": 5714,
      "人的": 5715,
      "還是": 5716,
      "不能": 5717,
      "所有": 5718,
      "的時候": 5719,
      "中國": 5720,
      "都是": 5721,
      "只是": 5722,
      "然後": 5723,
      "其實": 5724,
      "我們的": 5725,
      "一起": 5726,
      "一樣": 5727,
      "必須": 5728,
      "為什麼": 5729,
      "任何": 5730,
      "大家": 5731,
      "學生": 5732,
      "地方": 5733,
      "的事": 5734,
      "世界": 5735,
      "個人": 5736,
      "政府": 5737,
      "使用": 5738,
      "我不": 5739,
      "如果你": 5740,
      "總是": 5741,
      "一直": 5742,
      "有一": 5743,
      "一下": 5744,
      "00": 5745,
      "是一": 5746,
      "有沒有": 5747,
      "的一": 5748,
      "...": 5749,
      "自己的": 5750,
      "201": 5751,
      "這種": 5752,
      "不同": 5753,
      "的是": 5754,
      "生活": 5755,
      "第一": 5756,
      "出來": 5757,
      "我在": 5758,
      "如何": 5759,
      "大學": 5760,
      "認為": 5761,
      "讓我": 5762,
      "其他": 5763,
      "重要": 5764,
      "兩個": 5765,
      "發生": 5766,
      "是啊": 5767,
      "還有": 5768,
      "大的": 5769,
      "到了": 5770,
      "正在": 5771,
      "一定": 5772,
      "有人": 5773,
      "他是": 5774,
      "電影": 5775,
      "她的": 5776,
      "人們": 5777,
      "他說": 5778,
      "老闆": 5779,
      "當然": 5780,
      "這件": 5781,
      "好的": 5782,
      "學校": 5783,
      "兒子": 5784,
      "給我": 5785,
      "告訴": 5786,
      "真是": 5787,
      "它們": 5788,
      "多少": 5789,
      "電話": 5790,
      "美國": 5791,
      "我也": 5792,
      "希望": 5793,
      "是不是": 5794,
      "最後": 5795,
      "笑聲": 5796,
      "有個": 5797,
      "無法": 5798,
      "真的很": 5799,
      "廣州": 5800,
      "我覺得": 5801,
      "我會": 5802,
      "社會": 5803,
      "這樣的": 5804,
      "on": 5805,
      "許多": 5806,
      "不到": 5807,
      "因爲": 5808,
      "你不": 5809,
      "而已": 5810,
      "這裡": 5811,
      "住在": 5812,
      "發現": 5813,
      "研究": 5814,
      "不過": 5815,
      "200": 5816,
      "完全": 5817,
      "之後": 5818,
      "他們的": 5819,
      "有什麼": 5820,
      "他在": 5821,
      "是在": 5822,
      "部分": 5823,
      "別人": 5824,
      "有些": 5825,
      "國家": 5826,
      "電視": 5827,
      "下來": 5828,
      "學習": 5829,
      "成為": 5830,
      "有點": 5831,
      "進行": 5832,
      "年輕": 5833,
      "過去": 5834,
      "），": 5835,
      "上的": 5836,
      "容易": 5837,
      "就會": 5838,
      "an": 5839,
      "相信": 5840,
      "方式": 5841,
      "好像": 5842,
      "參加": 5843,
      "小心": 5844,
      "得很": 5845,
      "的東西": 5846,
      "不好": 5847,
      "in": 5848,
      "看看": 5849,
      "完成": 5850,
      "er": 5851,
      "媽媽": 5852,
      "給你": 5853,
      "事情": 5854,
      "中的": 5855,
      "幾個": 5856,
      "而且": 5857,
      "為了": 5858,
      "服務": 5859,
      "每天": 5860,
      "關係": 5861,
      "看起來": 5862,
      "衣服": 5863,
      "都不": 5864,
      "幫助": 5865,
      "情況": 5866,
      "最好": 5867,
      "一次": 5868,
      "女孩": 5869,
      "決定": 5870,
      "這次": 5871,
      "我去": 5872,
      "也不": 5873,
      "回家": 5874,
      "附近": 5875,
      "只有": 5876,
      "我就": 5877,
      "來說": 5878,
      "明天": 5879,
      "比賽": 5880,
      "老師": 5881,
      "之前": 5882,
      "一個人": 5883,
      "得到": 5884,
      "在這裡": 5885,
      "你可以": 5886,
      "我是": 5887,
      "最近": 5888,
      "發展": 5889,
      "哪裡": 5890,
      "如此": 5891,
      "選擇": 5892,
      "音樂": 5893,
      "出去": 5894,
      "10": 5895,
      "準備": 5896,
      "你說": 5897,
      "回來": 5898,
      "設計": 5899,
      "警察": 5900,
      "了一個": 5901,
      "運動": 5902,
      "快點": 5903,
      "你會": 5904,
      "我要": 5905,
      "故事": 5906,
      "有很多": 5907,
      "經濟": 5908,
      "離開": 5909,
      "不了": 5910,
      "不見": 5911,
      "小時": 5912,
      "比較": 5913,
      "九龍": 5914,
      "都會": 5915,
      "因此": 5916,
      "系統": 5917,
      "不用": 5918,
      "或者": 5919,
      "提供": 5920,
      "你是": 5921,
      "我說": 5922,
      "才能": 5923,
      "甚至": 5924,
      "也是": 5925,
      "感覺": 5926,
      "事實": 5927,
      "感到": 5928,
      "漂亮": 5929,
      "日本": 5930,
      "星期": 5931,
      "遊戲": 5932,
      "晚上": 5933,
      "特別": 5934,
      "那裡": 5935,
      "這件事": 5936,
      "二十": 5937,
      "方法": 5938,
      "活動": 5939,
      "身體": 5940,
      "那裏": 5941,
      "建築": 5942,
      "通過": 5943,
      "麻煩": 5944,
      "認識": 5945,
      "食物": 5946,
      "家庭": 5947,
      "就像": 5948,
      "考試": 5949,
      "英語": 5950,
      "巴士": 5951,
      "肯定": 5952,
      "機會": 5953,
      "我很": 5954,
      "年的": 5955,
      "影響": 5956,
      "努力": 5957,
      "手機": 5958,
      "相當": 5959,
      "去了": 5960,
      "改變": 5961,
      "接受": 5962,
      "每個人": 5963,
      "他不": 5964,
      "結果": 5965,
      "醫生": 5966,
      "找到": 5967,
      "是一個": 5968,
      "解決": 5969,
      "以及": 5970,
      "讓我們": 5971,
      "的事情": 5972,
      "來的": 5973,
      "歷史": 5974,
      "有一個": 5975,
      "爲什麼": 5976,
      "經常": 5977,
      "以前": 5978,
      "你知道": 5979,
      "早上": 5980,
      "元朗": 5981,
      "了嗎": 5982,
      "第二": 5983,
      "今晚": 5984,
      "停車": 5985,
      "成功": 5986,
      "這一": 5987,
      "中心": 5988,
      "分鐘": 5989,
      "請問": 5990,
      "汽車": 5991,
      "便宜": 5992,
      "之間": 5993,
      "我現在": 5994,
      "這家": 5995,
      "ar": 5996,
      "健康": 5997,
      "同時": 5998,
      "通常": 5999,
      "計劃": 6000,
      "更多": 6001,
      "謝謝": 6002,
      "雖然": 6003,
      "電腦": 6004,
      "所有的": 6005,
      "整天": 6006,
      "你要": 6007,
      "廣東": 6008,
      "獲得": 6009,
      "你想": 6010,
      "聲音": 6011,
      "說話": 6012,
      "市場": 6013,
      "由於": 6014,
      "意思": 6015,
      "教育": 6016,
      "代表": 6017,
      "你怎麼": 6018,
      "8年": 6019,
      "個月": 6020,
      "的地方": 6021,
      "安全": 6022,
      "對了": 6023,
      "都有": 6024,
      "一種": 6025,
      "記得": 6026,
      "語言": 6027,
      "12": 6028,
      "新聞": 6029,
      "你在": 6030,
      "存在": 6031,
      "突然": 6032,
      "能力": 6033,
      "了很多": 6034,
      "你能": 6035,
      "那麼多": 6036,
      "很好": 6037,
      "自然": 6038,
      "之一": 6039,
      "出現": 6040,
      "樣子": 6041,
      "繼續": 6042,
      "其中": 6043,
      "人家": 6044,
      "的話": 6045,
      "位於": 6046,
      "公園": 6047,
      "支持": 6048,
      "辦法": 6049,
      "當時": 6050,
      "中學": 6051,
      "作為": 6052,
      "要求": 6053,
      "主要": 6054,
      "198": 6055,
      "剛才": 6056,
      "199": 6057,
      "en": 6058,
      "原因": 6059,
      "女性": 6060,
      "整個": 6061,
      "醫院": 6062,
      "7年": 6063,
      "女人": 6064,
      "實際": 6065,
      "0年": 6066,
      "照片": 6067,
      "科學": 6068,
      "站在": 6069,
      "要去": 6070,
      "吃飯": 6071,
      "餐廳": 6072,
      "城市": 6073,
      "好了": 6074,
      "你就": 6075,
      "爸爸": 6076,
      "結婚": 6077,
      "聰明": 6078,
      "進入": 6079,
      "包括": 6080,
      "天氣": 6081,
      "怎樣": 6082,
      "是什麼": 6083,
      "注意": 6084,
      "所以我": 6085,
      "地區": 6086,
      "很難": 6087,
      "譬如": 6088,
      "即使": 6089,
      "清楚": 6090,
      "臺灣": 6091,
      "行為": 6092,
      "不多": 6093,
      "仍然": 6094,
      "小巴": 6095,
      "以為": 6096,
      "很大": 6097,
      "想法": 6098,
      "房子": 6099,
      "會議": 6100,
      "三十": 6101,
      "垃圾": 6102,
      "他就": 6103,
      "新的": 6104,
      "關於": 6105,
      "同學": 6106,
      "文化": 6107,
      "開心": 6108,
      "18": 6109,
      "對於": 6110,
      "方面": 6111,
      "一般": 6112,
      "幫我": 6113,
      "掌聲": 6114,
      "不同的": 6115,
      "終於": 6116,
      "還沒": 6117,
      "那樣": 6118,
      "不見了": 6119,
      "哥哥": 6120,
      "我已經": 6121,
      "月2": 6122,
      "給他": 6123,
      "走了": 6124,
      "這麼多": 6125,
      "組織": 6126,
      "能夠": 6127,
      "6年": 6128,
      "你為什麼": 6129,
      "傢伙": 6130,
      "在香港": 6131,
      "政治": 6132,
      "生意": 6133,
      "科技": 6134,
      "變得": 6135,
      "變成": 6136,
      "怎麼樣": 6137,
      "先生": 6138,
      "是我": 6139,
      "有時": 6140,
      "說他": 6141,
      "2年": 6142,
      "at": 6143,
      "or": 6144,
      "來了": 6145,
      "做的": 6146,
      "很有": 6147,
      "畢業": 6148,
      "簡單": 6149,
      "結束": 6150,
      "事實上": 6151,
      "眼睛": 6152,
      "忘記": 6153,
      "會兒": 6154,
      "精神": 6155,
      "處理": 6156,
      "銀行": 6157,
      "令人": 6158,
      "父親": 6159,
      "美元": 6160,
      "負責": 6161,
      "司機": 6162,
      "環境": 6163,
      "的小": 6164,
      "根本": 6165,
      "生命": 6166,
      "9年": 6167,
      "原來": 6168,
      "1年": 6169,
      "出租": 6170,
      "很快": 6171,
      "我有": 6172,
      "可能會": 6173,
      "不行": 6174,
      "並不": 6175,
      "女朋友": 6176,
      "管理": 6177,
      "--": 6178,
      "不起": 6179,
      "旅行": 6180,
      "還要": 6181,
      "怎麼去": 6182,
      "下午": 6183,
      "在我": 6184,
      "幾乎": 6185,
      "我不知道": 6186,
      "每次": 6187,
      "沒什麼": 6188,
      "人類": 6189,
      "合作": 6190,
      "年輕人": 6191,
      "今年": 6192,
      "公共": 6193,
      "基本": 6194,
      "什麼時候": 6195,
      "5年": 6196,
      "昨晚": 6197,
      "男人": 6198,
      "三個": 6199,
      "中文": 6200,
      "國際": 6201,
      "經過": 6202,
      "英國": 6203,
      "4年": 6204,
      "幾天": 6205,
      "想要": 6206,
      "擔心": 6207,
      "來自": 6208,
      "保護": 6209,
      "是個": 6210,
      "機器": 6211,
      "讓你": 6212,
      "無論": 6213,
      "用的": 6214,
      "主義": 6215,
      "到底": 6216,
      "創造": 6217,
      "很久": 6218,
      "後來": 6219,
      "把它": 6220,
      "有關": 6221,
      "流浪": 6222,
      "老婆": 6223,
      "不管": 6224,
      "大陸": 6225,
      "放在": 6226,
      "當我": 6227,
      "的問題": 6228,
      "足球": 6229,
      "願意": 6230,
      "主席": 6231,
      "也許": 6232,
      "太多": 6233,
      "消息": 6234,
      "節目": 6235,
      "表示": 6236,
      "一張": 6237,
      "委員": 6238,
      "經驗": 6239,
      "十年": 6240,
      "買了": 6241,
      "危險": 6242,
      "都沒有": 6243,
      "11": 6244,
      "是否": 6245,
      "期間": 6246,
      "受到": 6247,
      "姐姐": 6248,
      "沙田": 6249,
      "空間": 6250,
      "聽到": 6251,
      "這就是": 6252,
      "了我": 6253,
      "價格": 6254,
      "全部": 6255,
      "商店": 6256,
      "嚴重": 6257,
      "房間": 6258,
      "自由": 6259,
      "事件": 6260,
      "人民": 6261,
      "信息": 6262,
      "產品": 6263,
      "還不": 6264,
      "沒有人": 6265,
      "壞了": 6266,
      "昨天": 6267,
      "考慮": 6268,
      "一位": 6269,
      "他很": 6270,
      "擁有": 6271,
      "的時間": 6272,
      "st": 6273,
      "丈夫": 6274,
      "每個": 6275,
      "直接": 6276,
      "老人": 6277,
      "出租車": 6278,
      "一名": 6279,
      "一天": 6280,
      "上班": 6281,
      "你應該": 6282,
      "明白": 6283,
      "表現": 6284,
      "人員": 6285,
      "你有": 6286,
      "屯門": 6287,
      "本書": 6288,
      "的方式": 6289,
      "這樣做": 6290,
      "剛剛": 6291,
      "塊錢": 6292,
      "技術": 6293,
      "錢包": 6294,
      "但是不知道": 6295,
      "每個人都": 6296,
      "下去": 6297,
      "游泳": 6298,
      "生氣": 6299,
      "還沒有": 6300,
      "。」": 6301,
      "企業": 6302,
      "哲學": 6303,
      "弟弟": 6304,
      "我可以": 6305,
      "控制": 6306,
      "議員": 6307,
      "他一": 6308,
      "另外": 6309,
      "害怕": 6310,
      "工程": 6311,
      "男朋友": 6312,
      "錯誤": 6313,
      "）。": 6314,
      "我們可以": 6315,
      "在這裏": 6316,
      "30": 6317,
      "人都": 6318,
      "做什麼": 6319,
      "投資": 6320,
      "讓他": 6321,
      "一切": 6322,
      "一年": 6323,
      "厲害": 6324,
      "找不到": 6325,
      "超過": 6326,
      "電子": 6327,
      "交通": 6328,
      "北京": 6329,
      "女兒": 6330,
      "演員": 6331,
      "看見": 6332,
      "al": 6333,
      "剛纔": 6334,
      "打電話": 6335,
      "記者": 6336,
      "我和": 6337,
      "曾經": 6338,
      "的大": 6339,
      "舒服": 6340,
      "適合": 6341,
      "重新": 6342,
      "以後": 6343,
      "得不": 6344,
      "死了": 6345,
      "父母": 6346,
      "高興": 6347,
      "妻子": 6348,
      "很容易": 6349,
      "頭髮": 6350,
      "普通": 6351,
      "死亡": 6352,
      "粵語": 6353,
      "糟糕": 6354,
      "過來": 6355,
      "並且": 6356,
      "中華": 6357,
      "也有": 6358,
      "作品": 6359,
      "例如": 6360,
      "保持": 6361,
      "至於": 6362,
      "這位": 6363,
      "造成": 6364,
      "3年": 6365,
      "我知道": 6366,
      "目前": 6367,
      "作業": 6368,
      "出了": 6369,
      "名字": 6370,
      "行動": 6371,
      "選舉": 6372,
      "馬上": 6373,
      "嘗試": 6374,
      "在一起": 6375,
      "外面": 6376,
      "太陽": 6377,
      "接着": 6378,
      "經歷": 6379,
      "你也": 6380,
      "到處": 6381,
      "加入": 6382,
      "地球": 6383,
      "對我": 6384,
      "是不": 6385,
      "永遠": 6386,
      "疾病": 6387,
      "資料": 6388,
      "除了": 6389,
      "香港人": 6390,
      "全球": 6391,
      "出生": 6392,
      "文章": 6393,
      "澳門": 6394,
      "值得": 6395,
      "同事": 6396,
      "啊嗎": 6397,
      "圖書": 6398,
      "性的": 6399,
      "產生": 6400,
      "證明": 6401,
      "購買": 6402,
      "這條": 6403,
      "197": 6404,
      "ic": 6405,
      "只能": 6406,
      "家裡": 6407,
      "行政": 6408,
      "那就": 6409,
      "」。": 6410,
      "」，": 6411,
      "似的": 6412,
      "另一": 6413,
      "只要": 6414,
      "大埔": 6415,
      "導致": 6416,
      "男孩": 6417,
      "真正": 6418,
      "英文": 6419,
      "警方": 6420,
      "他會": 6421,
      "咖啡": 6422,
      "建立": 6423,
      "麻將": 6424,
      "重要的": 6425,
      "一百": 6426,
      "增加": 6427,
      "外國": 6428,
      "知識": 6429,
      "討論": 6430,
      "過程": 6431,
      "我們在": 6432,
      "第一次": 6433,
      "了解": 6434,
      "傳統": 6435,
      "意義": 6436,
      "母親": 6437,
      "治療": 6438,
      "被人": 6439,
      "解釋": 6440,
      "那是": 6441,
      "雞蛋": 6442,
      "一會兒": 6443,
      "上了": 6444,
      "公寓": 6445,
      "參與": 6446,
      "各位": 6447,
      "壓力": 6448,
      "成績": 6449,
      "月1": 6450,
      "睡覺": 6451,
      "附近有": 6452,
      "it": 6453,
      "我沒有": 6454,
      "申請": 6455,
      "ou": 6456,
      "re": 6457,
      "不想": 6458,
      "來越": 6459,
      "她們": 6460,
      "它的": 6461,
      "年前": 6462,
      "根據": 6463,
      "藝術": 6464,
      "製造": 6465,
      "足夠": 6466,
      "項目": 6467,
      "家人": 6468,
      "您的": 6469,
      "確實": 6470,
      "這部": 6471,
      "實際上": 6472,
      "一間": 6473,
      "件事": 6474,
      "奇怪": 6475,
      "得了": 6476,
      "最終": 6477,
      "民主": 6478,
      "越來越": 6479,
      "世紀": 6480,
      "回到": 6481,
      "幫忙": 6482,
      "浪費": 6483,
      "什麼都": 6484,
      "似乎": 6485,
      "做了": 6486,
      "成立": 6487,
      "沒人": 6488,
      "當你": 6489,
      "飛機": 6490,
      "50": 6491,
      "但我": 6492,
      "失敗": 6493,
      "很不": 6494,
      "興趣": 6495,
      "身上": 6496,
      "這個問題": 6497,
      "告訴我": 6498,
      "下的": 6499,
      "你別": 6500,
      "你還": 6501,
      "分享": 6502,
      "大了": 6503,
      "有多": 6504,
      "機構": 6505,
      "的一個": 6506,
      "襯衫": 6507,
      "路線": 6508,
      "有沒有人": 6509,
      "委員會": 6510,
      "不如": 6511,
      "和我": 6512,
      "時代": 6513,
      "色的": 6514,
      "點東西": 6515,
      "各種": 6516,
      "小學": 6517,
      "桌子": 6518,
      "理解": 6519,
      "肚子": 6520,
      "位置": 6521,
      "報告": 6522,
      "大量": 6523,
      "好嗎": 6524,
      "提出": 6525,
      "發出": 6526,
      "說什麼": 6527,
      "le": 6528,
      "了他": 6529,
      "做事": 6530,
      "停止": 6531,
      "哪裏": 6532,
      "想到": 6533,
      "正式": 6534,
      "生物": 6535,
      "不斷": 6536,
      "價值": 6537,
      "又是": 6538,
      "同樣": 6539,
      "建議": 6540,
      "時期": 6541,
      "未來": 6542,
      "標準": 6543,
      "讓人": 6544,
      "你必須": 6545,
      "困難": 6546,
      "學院": 6547,
      "工資": 6548,
      "而是": 6549,
      "錯了": 6550,
      "動物": 6551,
      "味道": 6552,
      "很少": 6553,
      "搭什麼": 6554,
      "數據": 6555,
      "沒去": 6556,
      "的工作": 6557,
      "練習": 6558,
      "是一種": 6559,
      "不僅": 6560,
      "他有": 6561,
      "思考": 6562,
      "段時間": 6563,
      "目標": 6564,
      "相關": 6565,
      "荃灣": 6566,
      "製作": 6567,
      "角色": 6568,
      "計算": 6569,
      "回答": 6570,
      "或是": 6571,
      "數學": 6572,
      "文件": 6573,
      "爺爺": 6574,
      "討厭": 6575,
      "面對": 6576,
      "怎麼辦": 6577,
      "我想去": 6578,
      "圖書館": 6579,
      "一場": 6580,
      "吸引": 6581,
      "意識": 6582,
      "這張": 6583,
      "——": 6584,
      "不可": 6585,
      "不夠": 6586,
      "十五": 6587,
      "我對": 6588,
      "正確": 6589,
      "記憶": 6590,
      "所以我們": 6591,
      "大家都": 6592,
      "不少": 6593,
      "他總是": 6594,
      "午飯": 6595,
      "坐在": 6596,
      "我從": 6597,
      "戰爭": 6598,
      "方便": 6599,
      "檢查": 6600,
      "稱為": 6601,
      "裡的": 6602,
      "香港的": 6603,
      "很多人": 6604,
      "孩子們": 6605,
      "一定要": 6606,
      "想像": 6607,
      "所謂": 6608,
      "了一些": 6609,
      "這是一個": 6610,
      "”。": 6611,
      "上海": 6612,
      "休息": 6613,
      "唯一": 6614,
      "實驗": 6615,
      "就要": 6616,
      "會有": 6617,
      "生日": 6618,
      "習慣": 6619,
      "表演": 6620,
      "那你": 6621,
      "內容": 6622,
      "利用": 6623,
      "另一個": 6624,
      "工人": 6625,
      "是這樣": 6626,
      "歡迎": 6627,
      "辦公": 6628,
      "長的": 6629,
      "面的": 6630,
      "不在": 6631,
      "任務": 6632,
      "便利": 6633,
      "兄弟": 6634,
      "兒童": 6635,
      "理由": 6636,
      "絕對": 6637,
      "蛋糕": 6638,
      "調查": 6639,
      "那天": 6640,
      "下雨": 6641,
      "尋找": 6642,
      "成了": 6643,
      "照顧": 6644,
      "舉行": 6645,
      "現在在": 6646,
      "媒體": 6647,
      "小孩": 6648,
      "神經": 6649,
      "立法": 6650,
      "脾氣": 6651,
      "讀書": 6652,
      "顯示": 6653,
      "不是很": 6654,
      "停車場": 6655,
      "一邊": 6656,
      "不知": 6657,
      "五十": 6658,
      "你需要": 6659,
      "在地": 6660,
      "就可以": 6661,
      "收入": 6662,
      "每年": 6663,
      "禮物": 6664,
      "街上": 6665,
      "資源": 6666,
      "那次": 6667,
      "我們都": 6668,
      "195": 6669,
      "100": 6670,
      "反應": 6671,
      "多麼": 6672,
      "大約": 6673,
      "帶來": 6674,
      "的情況": 6675,
      "看著": 6676,
      "is": 6677,
      "不懂": 6678,
      "了我的": 6679,
      "可愛": 6680,
      "子的": 6681,
      "經理": 6682,
      "維基": 6683,
      "者的": 6684,
      "辛苦": 6685,
      "這些東西": 6686,
      "他被": 6687,
      "定的": 6688,
      "放棄": 6689,
      "法律": 6690,
      "第一個": 6691,
      "都在": 6692,
      "點兒": 6693,
      "今天早上": 6694,
      "也會": 6695,
      "去看": 6696,
      "然而": 6697,
      "總統": 6698,
      "我們會": 6699,
      "ch": 6700,
      "ro": 6701,
      "不喜歡": 6702,
      "介紹": 6703,
      "員工": 6704,
      "安排": 6705,
      "成員": 6706,
      "我一": 6707,
      "我認為": 6708,
      "有限": 6709,
      "正常": 6710,
      "流行": 6711,
      "你知道嗎": 6712,
      "中央": 6713,
      "做到": 6714,
      "就算": 6715,
      "屬於": 6716,
      "工具": 6717,
      "很喜歡": 6718,
      "拒絕": 6719,
      "放學": 6720,
      "更加": 6721,
      "自動": 6722,
      "舅舅": 6723,
      "說的": 6724,
      "銅鑼": 6725,
      "194": 6726,
      "一塊": 6727,
      "八號": 6728,
      "差不多": 6729,
      "我又": 6730,
      "我真的": 6731,
      "拜託": 6732,
      "職業": 6733,
      "這份": 6734,
      "遇到": 6735,
      "過了": 6736,
      "那間": 6737,
      "我們需要": 6738,
      "請問我想去": 6739,
      "一千": 6740,
      "左右": 6741,
      "市民": 6742,
      "打開": 6743,
      "批評": 6744,
      "找個": 6745,
      "都沒": 6746,
      "ing": 6747,
      "銅鑼灣": 6748,
      "am": 6749,
      "一條": 6750,
      "一隻": 6751,
      "你去": 6752,
      "你現在": 6753,
      "報紙": 6754,
      "多了": 6755,
      "大多": 6756,
      "我怎麼": 6757,
      "是香港": 6758,
      "穿著": 6759,
      "網站": 6760,
      "誰會": 6761,
      "那時": 6762,
      "不太": 6763,
      "也要": 6764,
      "交易": 6765,
      "忘了": 6766,
      "灣仔": 6767,
      "的樣子": 6768,
      "聽說": 6769,
      "閱讀": 6770,
      "：「": 6771,
      "我們有": 6772,
      "公司的": 6773,
      "一直在": 6774,
      "搭什麼車": 6775,
      "上面": 6776,
      "四個": 6777,
      "好看": 6778,
      "就在": 6779,
      "或許": 6780,
      "持續": 6781,
      "收拾": 6782,
      "早點": 6783,
      "最好的": 6784,
      "而不是": 6785,
      "西貢": 6786,
      "變化": 6787,
      "她說": 6788,
      "就不": 6789,
      "幸運": 6790,
      "感謝": 6791,
      "本身": 6792,
      "直到": 6793,
      "責任": 6794,
      "領域": 6795,
      "我們不": 6796,
      "你這麼": 6797,
      "用來": 6798,
      "目的": 6799,
      "複雜": 6800,
      "邊的": 6801,
      "我們現在": 6802,
      "沒有任何": 6803,
      "il": 6804,
      "一家": 6805,
      "一步": 6806,
      "你最好": 6807,
      "來看": 6808,
      "回去": 6809,
      "子裡": 6810,
      "滿了": 6811,
      "自行": 6812,
      "部份": 6813,
      "隨便": 6814,
      "辦公室": 6815,
      "了幾個": 6816,
      "像是": 6817,
      "出的": 6818,
      "大腦": 6819,
      "快樂": 6820,
      "火車": 6821,
      "玩家": 6822,
      "理論": 6823,
      "真實": 6824,
      "紀念": 6825,
      "見過": 6826,
      "身份": 6827,
      "集團": 6828,
      "體育": 6829,
      "：“": 6830,
      "便利店": 6831,
      "。”": 6832,
      "一份": 6833,
      "乾淨": 6834,
      "你又": 6835,
      "再次": 6836,
      "利亞": 6837,
      "好處": 6838,
      "學家": 6839,
      "是有": 6840,
      "衛生": 6841,
      "進去": 6842,
      "酒店": 6843,
      "我們要": 6844,
      "我們必須": 6845,
      "看起來很": 6846,
      "不對": 6847,
      "也沒有": 6848,
      "亞伯": 6849,
      "人口": 6850,
      "叫做": 6851,
      "名的": 6852,
      "在這個": 6853,
      "失去": 6854,
      "實在": 6855,
      "必要": 6856,
      "第三": 6857,
      "蜘蛛": 6858,
      "長時間": 6859,
      "他們在": 6860,
      "之間的": 6861,
      "更多的": 6862,
      "也可以": 6863,
      "享受": 6864,
      "人生": 6865,
      "力的": 6866,
      "十二": 6867,
      "幾年": 6868,
      "意見": 6869,
      "我把": 6870,
      "我需要": 6871,
      "我喜歡": 6872,
      "打麻將": 6873,
      "歌手": 6874,
      "規則": 6875,
      "跟你": 6876,
      "透過": 6877,
      "那邊": 6878,
      "我們應該": 6879,
      "有些人": 6880,
      "不錯": 6881,
      "中環": 6882,
      "和他": 6883,
      "將會": 6884,
      "居民": 6885,
      "我沒": 6886,
      "有趣": 6887,
      "自殺": 6888,
      "說了": 6889,
      "跟他": 6890,
      "是不是啊": 6891,
      "ong": 6892,
      "垃圾桶": 6893,
      "乒乓": 6894,
      "個錢包": 6895,
      "公路": 6896,
      "我都": 6897,
      "打算": 6898,
      "答案": 6899,
      "約會": 6900,
      "自我": 6901,
      "街喫": 6902,
      "這個人": 6903,
      "可能是": 6904,
      "快點吧": 6905,
      "ow": 6906,
      "他已經": 6907,
      "住了": 6908,
      "你看": 6909,
      "挑戰": 6910,
      "測試": 6911,
      "無聊": 6912,
      "股票": 6913,
      "有個亞伯": 6914,
      "不見了個錢包": 6915,
      "搭什麼車纔": 6916,
      "有個亞伯在": 6917,
      "也沒": 6918,
      "同意": 6919,
      "大部分": 6920,
      "專業": 6921,
      "德國": 6922,
      "我看": 6923,
      "會不會": 6924,
      "當地": 6925,
      "的方法": 6926,
      "的聲音": 6927,
      "紅磡": 6928,
      "經營": 6929,
      "了一隻": 6930,
      "中國大陸": 6931,
      "se": 6932,
      "主題": 6933,
      "人士": 6934,
      "他媽": 6935,
      "別人的": 6936,
      "多年": 6937,
      "客戶": 6938,
      "我看到": 6939,
      "收到": 6940,
      "百科": 6941,
      "程度": 6942,
      "網路": 6943,
      "這樣呢": 6944,
      "多少錢": 6945,
      "下午茶": 6946,
      "15": 6947,
      "、《": 6948,
      "主持": 6949,
      "分手": 6950,
      "幹嘛": 6951,
      "廣告": 6952,
      "得這麼": 6953,
      "我今天": 6954,
      "支付": 6955,
      "生產": 6956,
      "百萬": 6957,
      "網絡": 6958,
      "表達": 6959,
      "買菜": 6960,
      "資訊": 6961,
      "質量": 6962,
      "邀請": 6963,
      "高的": 6964,
      "我們就": 6965,
      "就是說": 6966,
      "世界上": 6967,
      "一定會": 6968,
      "乒乓球": 6969,
      "三年": 6970,
      "信心": 6971,
      "反對": 6972,
      "吃了": 6973,
      "對方": 6974,
      "後的": 6975,
      "態度": 6976,
      "我不會": 6977,
      "我住在": 6978,
      "擔任": 6979,
      "新界": 6980,
      "旺角": 6981,
      "是我們": 6982,
      "概念": 6983,
      "汽水": 6984,
      "百分": 6985,
      "這兩": 6986,
      "這項": 6987,
      "道路": 6988,
      "都要": 6989,
      "開放": 6990,
      "首先": 6991,
      "17": 6992,
      "Ch": 6993,
      "上學": 6994,
      "互相": 6995,
      "印度": 6996,
      "它是": 6997,
      "師傅": 6998,
      "廁所": 6999,
      "慢慢": 7000,
      "而言": 7001,
      "要搭什麼車纔": 7002,
      "距離": 7003,
      "東西喫": 7004,
      "000": 7005,
      "人物": 7006,
      "他也": 7007,
      "公開": 7008,
      "共同": 7009,
      "去年": 7010,
      "商業": 7011,
      "得太": 7012,
      "情緒": 7013,
      "拍攝": 7014,
      "掉了": 7015,
      "收養": 7016,
      "改善": 7017,
      "旅遊": 7018,
      "最佳": 7019,
      "某人": 7020,
      "毫無": 7021,
      "社區": 7022,
      "等你們": 7023,
      "這本書": 7024,
      "難怪": 7025,
      "你們快點吧": 7026,
      "我不想": 7027,
      "化的": 7028,
      "千萬": 7029,
      "句話": 7030,
      "哪兒": 7031,
      "國民": 7032,
      "姨媽": 7033,
      "引起": 7034,
      "探舅舅": 7035,
      "提高": 7036,
      "最喜歡": 7037,
      "有的": 7038,
      "病毒": 7039,
      "移民": 7040,
      "裡面": 7041,
      "說不": 7042,
      "……": 7043,
      "》，": 7044,
      "不去": 7045,
      "他沒有": 7046,
      "否則": 7047,
      "四十": 7048,
      "大嫂": 7049,
      "好久": 7050,
      "憂鬱": 7051,
      "我只是": 7052,
      "的生活": 7053,
      "立即": 7054,
      "組成": 7055,
      "規模": 7056,
      "還好": 7057,
      "障礙": 7058,
      "韓國": 7059,
      "風球": 7060,
      "首歌": 7061,
      "什麼事": 7062,
      "如果我": 7063,
      "如果我們": 7064,
      "有個老人": 7065,
      "有沒有人知道": 7066,
      "共和": 7067,
      "只會": 7068,
      "執行": 7069,
      "堅持": 7070,
      "大樓": 7071,
      "好好": 7072,
      "我希望": 7073,
      "消失": 7074,
      "牛肉": 7075,
      "現代": 7076,
      "病人": 7077,
      "買點東西": 7078,
      "這場": 7079,
      "領導": 7080,
      "他們現在在": 7081,
      "那個人": 7082,
      "2018年": 7083,
      "ion": 7084,
      "不停": 7085,
      "土地": 7086,
      "在一個": 7087,
      "小的": 7088,
      "是淘氣": 7089,
      "更好": 7090,
      "有錢": 7091,
      "民國": 7092,
      "老兄": 7093,
      "花園": 7094,
      "餛飩": 7095,
      "就是這樣": 7096,
      "CD": 7097,
      "”，": 7098,
      "》、《": 7099,
      "並沒有": 7100,
      "你了": 7101,
      "全國": 7102,
      "區域": 7103,
      "去做": 7104,
      "取得": 7105,
      "單位": 7106,
      "大聲": 7107,
      "幫你": 7108,
      "思想": 7109,
      "政策": 7110,
      "水平": 7111,
      "發表": 7112,
      "睡眠": 7113,
      "聯合": 7114,
      "蕩失": 7115,
      "蘋果": 7116,
      "表姐": 7117,
      "記錄": 7118,
      "退休": 7119,
      "這幾天": 7120,
      "非法": 7121,
      "196": 7122,
      "其他人": 7123,
      "巴士站": 7124,
      "維基百科": 7125,
      "八號風球": 7126,
      "el": 7127,
      "丟了一": 7128,
      "你覺得": 7129,
      "在家": 7130,
      "奶茶": 7131,
      "心情": 7132,
      "心理": 7133,
      "成本": 7134,
      "我被": 7135,
      "文學": 7136,
      "是怎麼去": 7137,
      "有了": 7138,
      "相同": 7139,
      "約了": 7140,
      "至少": 7141,
      "葵涌": 7142,
      "訓練": 7143,
      "證據": 7144,
      "貓在": 7145,
      "避免": 7146,
      "那種": 7147,
      "都很": 7148,
      "長大": 7149,
      "隨著": 7150,
      "駕駛": 7151,
      "，「": 7152,
      "一點點": 7153,
      "在這兒": 7154,
      "廣州市": 7155,
      "站在等你們": 7156,
      "自行車": 7157,
      "有個老人去": 7158,
      "是怎麼去的": 7159,
      "一件": 7160,
      "下了": 7161,
      "不及": 7162,
      "例子": 7163,
      "假期": 7164,
      "出版": 7165,
      "基礎": 7166,
      "她在": 7167,
      "將軍": 7168,
      "數字": 7169,
      "日子": 7170,
      "深圳": 7171,
      "減少": 7172,
      "現場": 7173,
      "的手": 7174,
      "的新": 7175,
      "秘密": 7176,
      "粵文": 7177,
      "緊張": 7178,
      "聊天": 7179,
      "計畫": 7180,
      "資格": 7181,
      "進了": 7182,
      "達到": 7183,
      "部門": 7184,
      "關注": 7185,
      "有沒有小巴": 7186,
      "流浪狗": 7187,
      "蕩失路": 7188,
      "om": 7189,
      "un": 7190,
      "他只是": 7191,
      "以來": 7192,
      "喝下午茶": 7193,
      "找東西喫": 7194,
      "教授": 7195,
      "方向": 7196,
      "最大的": 7197,
      "橫雨": 7198,
      "橫風": 7199,
      "沙咀": 7200,
      "混蛋": 7201,
      "現實": 7202,
      "當我們": 7203,
      "粉嶺": 7204,
      "紐約": 7205,
      "給我們": 7206,
      "老公": 7207,
      "身邊": 7208,
      "一個月": 7209,
      "現在橫風": 7210,
      "因為我": 7211,
      "很大風": 7212,
      "流浪貓在": 7213,
      "老婆婆": 7214,
      "要搭什麼車纔到": 7215,
      "八號風球很大風": 7216,
      "現在橫風橫雨": 7217,
      "你有沒有": 7218,
      "來到": 7219,
      "傷了": 7220,
      "具有": 7221,
      "到達": 7222,
      "好吧": 7223,
      "小妹": 7224,
      "小時候": 7225,
      "打乒乓球": 7226,
      "用了": 7227,
      "痛苦": 7228,
      "的垃圾桶": 7229,
      "相機": 7230,
      "維持": 7231,
      "聖誕": 7232,
      "跟我": 7233,
      "速度": 7234,
      "還在": 7235,
      "關心": 7236,
      "真是個": 7237,
      "那裏買點東西": 7238,
      "大嫂要去": 7239,
      "丟了一臺": 7240,
      "的垃圾桶找東西喫": 7241,
      "他又": 7242,
      "但他": 7243,
      "你不能": 7244,
      "信用": 7245,
      "做出": 7246,
      "兜了幾個": 7247,
      "創作": 7248,
      "北角": 7249,
      "博物": 7250,
      "多一點": 7251,
      "嬰兒": 7252,
      "家的": 7253,
      "寶寶": 7254,
      "將在": 7255,
      "對開": 7256,
      "律師": 7257,
      "按照": 7258,
      "是很": 7259,
      "最重要": 7260,
      "機場": 7261,
      "歌曲": 7262,
      "法國": 7263,
      "着去": 7264,
      "確定": 7265,
      "說明": 7266,
      "賺錢": 7267,
      "走到": 7268,
      "難以": 7269,
      "革命": 7270,
      "飛行": 7271,
      "我現在在": 7272,
      "0年代": 7273,
      "哥哥拜託": 7274,
      "司機哥哥拜託": 7275,
      "基本上": 7276,
      "出租車在": 7277,
      "剛纔在": 7278,
      "這部電影": 7279,
      "了一隻流浪狗": 7280,
      "收養了一隻流浪狗": 7281,
      "共和國": 7282,
      "丟了一臺手機": 7283,
      "兜了幾個圈": 7284,
      "司機哥哥拜託快點": 7285,
      "分析": 7286,
      "團隊": 7287,
      "懷疑": 7288,
      "接著": 7289,
      "攝影": 7290,
      "歐洲": 7291,
      "深水": 7292,
      "的原因": 7293,
      "看來": 7294,
      "街是在": 7295,
      "觀眾": 7296,
      "貿易": 7297,
      "趕着去": 7298,
      "顏色": 7299,
      "馬路": 7300,
      "麵包": 7301,
      "沒有什麼": 7302,
      "所以他": 7303,
      "弟弟在": 7304,
      "一杯": 7305,
      "下着": 7306,
      "不可能": 7307,
      "了個": 7308,
      "動作": 7309,
      "十分": 7310,
      "合適": 7311,
      "平均": 7312,
      "我了": 7313,
      "投票": 7314,
      "損失": 7315,
      "條件": 7316,
      "移動": 7317,
      "等小巴": 7318,
      "行星": 7319,
      "車站": 7320,
      "進來": 7321,
      "那隻": 7322,
      "他是個": 7323,
      "告訴你": 7324,
      "有個老婆婆": 7325,
      "停車嗎": 7326,
      "附近有停車場": 7327,
      "意識到": 7328,
      "表姐放學": 7329,
      "有個老婆婆在": 7330,
      "附近有停車場停車嗎": 7331,
      "ay": 7332,
      "de": 7333,
      "並不是": 7334,
      "主意": 7335,
      "也很": 7336,
      "事務": 7337,
      "什麽": 7338,
      "利益": 7339,
      "到的": 7340,
      "力量": 7341,
      "噁心": 7342,
      "太空": 7343,
      "專家": 7344,
      "尖沙咀": 7345,
      "座位": 7346,
      "建造": 7347,
      "彼此": 7348,
      "方案": 7349,
      "會在": 7350,
      "校長": 7351,
      "死的": 7352,
      "程式": 7353,
      "競爭": 7354,
      "觀塘": 7355,
      "跌打": 7356,
      "跟我去": 7357,
      "這裏": 7358,
      "開發": 7359,
      "雨還要": 7360,
      "不是啊": 7361,
      "如果他在": 7362,
      "今天的": 7363,
      "巴士路線": 7364,
      "便利店買": 7365,
      "姨媽跟我去": 7366,
      "下着雨還要": 7367,
      "下着雨還要趕着去": 7368,
      "ac": 7369,
      "et": 7370,
      "上去": 7371,
      "不著": 7372,
      "不足": 7373,
      "中間": 7374,
      "了你": 7375,
      "呢就": 7376,
      "少年": 7377,
      "幫個": 7378,
      "手術": 7379,
      "承認": 7380,
      "最多": 7381,
      "有空": 7382,
      "某些": 7383,
      "沒事": 7384,
      "爭論": 7385,
      "甚麼": 7386,
      "的地": 7387,
      "的水": 7388,
      "站附近": 7389,
      "試圖": 7390,
      "認真": 7391,
      "運作": 7392,
      "那個巴士站": 7393,
      "發生了": 7394,
      "買了三": 7395,
      "對開那個巴士站": 7396,
      "5日": 7397,
      "不需要": 7398,
      "主婦": 7399,
      "了兩": 7400,
      "你自己": 7401,
      "儘管": 7402,
      "出門": 7403,
      "博士": 7404,
      "型的": 7405,
      "就這樣": 7406,
      "恐怖": 7407,
      "有效": 7408,
      "滿足": 7409,
      "演講": 7410,
      "狀態": 7411,
      "狀況": 7412,
      "皮膚": 7413,
      "看他": 7414,
      "見到": 7415,
      "雜誌": 7416,
      "面前": 7417,
      "風險": 7418,
      "颱風": 7419,
      "許多人": 7420,
      "年輕人看": 7421,
      "找不到便利店買": 7422,
      "找不到便利店買汽水": 7423,
      "上次": 7424,
      "不得": 7425,
      "他想": 7426,
      "分別": 7427,
      "功能": 7428,
      "多久": 7429,
      "小商店": 7430,
      "就能": 7431,
      "年代": 7432,
      "懂得": 7433,
      "我能": 7434,
      "把他": 7435,
      "文字": 7436,
      "暫時": 7437,
      "本來": 7438,
      "材料": 7439,
      "格子": 7440,
      "業務": 7441,
      "漢字": 7442,
      "範圍": 7443,
      "簡直": 7444,
      "結構": 7445,
      "經那裏": 7446,
      "萬元": 7447,
      "藥物": 7448,
      "課程": 7449,
      "趕緊": 7450,
      "鉢兒子": 7451,
      "黑社會": 7452,
      "不是的": 7453,
      "學生說他": 7454,
      "建築物": 7455,
      "但是不知道有沒有小巴": 7456,
      "午飯喝下午茶": 7457,
      "有限公司": 7458,
      "那間鉢兒子": 7459,
      "餛飩麪": 7460,
      "約了我去": 7461,
      "小妹約了我去": 7462,
      "但是不知道有沒有小巴經那裏": 7463,
      "那間鉢兒子糕": 7464,
      "ol": 7465,
      "以爲": 7466,
      "估計": 7467,
      "作用": 7468,
      "保險": 7469,
      "冠軍": 7470,
      "加上": 7471,
      "大概": 7472,
      "年紀": 7473,
      "快速": 7474,
      "恐懼": 7475,
      "意外": 7476,
      "愛的": 7477,
      "成爲": 7478,
      "是誰": 7479,
      "用於": 7480,
      "黃師傅": 7481,
      "現在的": 7482,
      "真的是": 7483,
      "九龍塘": 7484,
      "爲什麼不見了": 7485,
      "對我來說": 7486,
      "博物館": 7487,
      "幫個年輕人看": 7488,
      "學生說他知道": 7489,
      "黃師傅去": 7490,
      "幫個年輕人看跌打": 7491,
      "下班": 7492,
      "和你": 7493,
      "哪個": 7494,
      "在你": 7495,
      "展示": 7496,
      "幸福": 7497,
      "影片": 7498,
      "我必須": 7499,
      "接下來": 7500,
      "有多少": 7501,
      "獨立": 7502,
      "玻璃": 7503,
      "發明": 7504,
      "答應": 7505,
      "翻譯": 7506,
      "聽過": 7507,
      "胡說": 7508,
      "賺了": 7509,
      "開車": 7510,
      "我們去": 7511,
      "那些呢": 7512,
      "最好喫": 7513,
      "運動員": 7514,
      "姐姐說": 7515,
      "足夠的": 7516,
      "誰會知道": 7517,
      "餛飩麪最好喫": 7518,
      "保證": 7519,
      "公民": 7520,
      "夢想": 7521,
      "女士": 7522,
      "完了": 7523,
      "形式": 7524,
      "感受": 7525,
      "我開始": 7526,
      "我真的很": 7527,
      "指數": 7528,
      "整體": 7529,
      "是因為": 7530,
      "有一些": 7531,
      "碼頭": 7532,
      "缺乏": 7533,
      "自從": 7534,
      "舉辦": 7535,
      "觀察": 7536,
      "設施": 7537,
      "試著": 7538,
      "費用": 7539,
      "輩子": 7540,
      "辭職": 7541,
      "都能": 7542,
      "他是一個": 7543,
      "廣東省": 7544,
      "但是不知道巴士路線": 7545,
      "中華民國": 7546,
      "大多數": 7547,
      "他媽的": 7548,
      "取消": 7549,
      "在哪裡": 7550,
      "對不起": 7551,
      "尷尬": 7552,
      "幹活": 7553,
      "很棒": 7554,
      "從事": 7555,
      "從來": 7556,
      "我自己": 7557,
      "手指": 7558,
      "收集": 7559,
      "於是": 7560,
      "是你": 7561,
      "有時候": 7562,
      "留下": 7563,
      "等等": 7564,
      "系列": 7565,
      "紅色": 7566,
      "街道": 7567,
      "觀點": 7568,
      "走路": 7569,
      "超級": 7570,
      "這就": 7571,
      "連續": 7572,
      "錄音": 7573,
      "顧客": 7574,
      "食品": 7575,
      "高級": 7576,
      "他們會": 7577,
      "怎麼會": 7578,
      "家庭主婦": 7579,
      "公共汽車": 7580,
      "小商店梨": 7581,
      "也就是": 7582,
      "他現在": 7583,
      "允許": 7584,
      "公眾": 7585,
      "可憐": 7586,
      "吵架": 7587,
      "報導": 7588,
      "天后": 7589,
      "她是": 7590,
      "好人": 7591,
      "妹妹": 7592,
      "定義": 7593,
      "客人": 7594,
      "小姐": 7595,
      "小說": 7596,
      "幹什麼": 7597,
      "徹底": 7598,
      "我做": 7599,
      "我還": 7600,
      "於200": 7601,
      "森林": 7602,
      "比如": 7603,
      "演出": 7604,
      "玩樂": 7605,
      "玩笑": 7606,
      "現金": 7607,
      "生的": 7608,
      "瘋狂": 7609,
      "看法": 7610,
      "破了": 7611,
      "破壞": 7612,
      "程序": 7613,
      "聯繫": 7614,
      "行了": 7615,
      "評論": 7616,
      "郵件": 7617,
      "朋友一起": 7618,
      "and": 7619,
      "得很好": 7620,
      "爸爸在": 7621,
      "深水埗": 7622,
      "16": 7623,
      "ED": 7624,
      "es": 7625,
      "你一": 7626,
      "你不要": 7627,
      "免費": 7628,
      "地鐵": 7629,
      "居住": 7630,
      "後面": 7631,
      "意味": 7632,
      "愛情": 7633,
      "故意": 7634,
      "早就": 7635,
      "熟悉": 7636,
      "的確": 7637,
      "的食物": 7638,
      "眼鏡": 7639,
      "葡萄": 7640,
      "這不是": 7641,
      "連接": 7642,
      "鑰匙": 7643,
      "限制": 7644,
      "這麼大": 7645,
      "193": 7646,
      "看到有": 7647,
      "普通話": 7648,
      "那次在": 7649,
      "買了三磅": 7650,
      "一旦": 7651,
      "不舒服": 7652,
      "之中": 7653,
      "他把": 7654,
      "倒霉": 7655,
      "受歡迎": 7656,
      "問我": 7657,
      "尤其": 7658,
      "強烈": 7659,
      "強迫": 7660,
      "微笑": 7661,
      "我只": 7662,
      "我家": 7663,
      "我相信": 7664,
      "技能": 7665,
      "是最": 7666,
      "智能": 7667,
      "植物": 7668,
      "油麻": 7669,
      "股市": 7670,
      "能量": 7671,
      "設備": 7672,
      "讓他們": 7673,
      "逐漸": 7674,
      "這塊": 7675,
      "金融": 7676,
      "青年": 7677,
      "一個人的": 7678,
      "有一天": 7679,
      "而已嗎": 7680,
      "表姐放學去": 7681,
      "小商店梨回家": 7682,
      "買了三磅小商店梨回家": 7683,
      "as": 7684,
      "不動": 7685,
      "之外": 7686,
      "以上": 7687,
      "你真": 7688,
      "你這個": 7689,
      "你今天": 7690,
      "半山": 7691,
      "商品": 7692,
      "地產": 7693,
      "就有": 7694,
      "差點": 7695,
      "明顯": 7696,
      "是的": 7697,
      "海外": 7698,
      "現象": 7699,
      "細胞": 7700,
      "網上": 7701,
      "西方": 7702,
      "起了": 7703,
      "過的": 7704,
      "那時候": 7705,
      "隨時": 7706,
      "難道": 7707,
      "餅賣": 7708,
      "－），": 7709,
      "科學家": 7710,
      "上課": 7711,
      "他對": 7712,
      "全身": 7713,
      "公平": 7714,
      "哪一間": 7715,
      "多次": 7716,
      "婚姻": 7717,
      "學位": 7718,
      "就說": 7719,
      "我不是": 7720,
      "戰鬥": 7721,
      "描述": 7722,
      "數量": 7723,
      "新鮮": 7724,
      "是他": 7725,
      "最高": 7726,
      "生病": 7727,
      "的孩子": 7728,
      "的學生": 7729,
      "的故事": 7730,
      "的機會": 7731,
      "至今": 7732,
      "談論": 7733,
      "請你": 7734,
      "買一": 7735,
      "貸款": 7736,
      "都說": 7737,
      "鋼琴": 7738,
      "隔離": 7739,
      "）、": 7740,
      "廣東話": 7741,
      "雞蛋格子": 7742,
      "百分之": 7743,
      "雞蛋格子餅賣": 7744,
      "不上": 7745,
      "不久": 7746,
      "不再": 7747,
      "事故": 7748,
      "互動": 7749,
      "傷害": 7750,
      "功課": 7751,
      "吃完": 7752,
      "合理": 7753,
      "工廠": 7754,
      "工業": 7755,
      "帶著": 7756,
      "很大的": 7757,
      "抓住": 7758,
      "擅長": 7759,
      "本地": 7760,
      "步跑": 7761,
      "流氓": 7762,
      "消費": 7763,
      "火星": 7764,
      "牠們": 7765,
      "發言": 7766,
      "贏得": 7767,
      "關鍵": 7768,
      "需求": 7769,
      "沒有啊": 7770,
      "這麼久": 7771,
      "油麻地": 7772,
      "9月": 7773,
      "he": 7774,
      "》。": 7775,
      "一口": 7776,
      "不住": 7777,
      "主角": 7778,
      "也不知道": 7779,
      "出售": 7780,
      "加拿": 7781,
      "原則": 7782,
      "唱歌": 7783,
      "在我的": 7784,
      "基督": 7785,
      "大角": 7786,
      "姑娘": 7787,
      "學會": 7788,
      "官員": 7789,
      "導演": 7790,
      "想去": 7791,
      "打擾": 7792,
      "效果": 7793,
      "權利": 7794,
      "無故": 7795,
      "生存": 7796,
      "發行": 7797,
      "算了": 7798,
      "緩步跑": 7799,
      "裏面": 7800,
      "變了": 7801,
      "豐富": 7802,
      "購物": 7803,
      "農曆": 7804,
      "運氣": 7805,
      "那就是": 7806,
      "魔芋": 7807,
      "我們已經": 7808,
      "怎麼能": 7809,
      "參加緩步跑": 7810,
      "忘記去": 7811,
      "老兄忘記去": 7812,
      "參加緩步跑練習": 7813,
      "13": 7814,
      "下一": 7815,
      "了三": 7816,
      "些什麼": 7817,
      "仔細": 7818,
      "以下": 7819,
      "信號": 7820,
      "像個": 7821,
      "其他的": 7822,
      "出發": 7823,
      "呼吸": 7824,
      "好吃": 7825,
      "平方": 7826,
      "慶祝": 7827,
      "應用": 7828,
      "懷孕": 7829,
      "是由": 7830,
      "時刻": 7831,
      "欺負": 7832,
      "歲了": 7833,
      "法的": 7834,
      "滿意": 7835,
      "相處": 7836,
      "看了": 7837,
      "米飯": 7838,
      "老是": 7839,
      "興奮": 7840,
      "號碼": 7841,
      "見面": 7842,
      "試試": 7843,
      "鐵路": 7844,
      "阿拉": 7845,
      "陌生": 7846,
      "可以在": 7847,
      "2000": 7848,
      "為什麼要": 7849,
      "這裡的": 7850,
      "看到有雞蛋格子餅賣": 7851,
      "ad": 7852,
      "te": 7853,
      "」、": 7854,
      "一半": 7855,
      "也不會": 7856,
      "你已經": 7857,
      "充滿": 7858,
      "光了": 7859,
      "全世界": 7860,
      "別說": 7861,
      "剩下": 7862,
      "化學": 7863,
      "哎喲": 7864,
      "商場": 7865,
      "啤酒": 7866,
      "土瓜": 7867,
      "夏天": 7868,
      "娛樂": 7869,
      "宣佈": 7870,
      "平時": 7871,
      "我無法": 7872,
      "我發現": 7873,
      "日期": 7874,
      "沙灣": 7875,
      "洗手": 7876,
      "白天": 7877,
      "瞭解": 7878,
      "石頭": 7879,
      "簡稱": 7880,
      "肌肉": 7881,
      "行業": 7882,
      "視為": 7883,
      "開玩笑": 7884,
      "那些東西": 7885,
      "看到的": 7886,
      "一起去": 7887,
      "是一位": 7888,
      "附近有無": 7889,
      "立法會": 7890,
      "土瓜灣": 7891,
      "4日": 7892,
      "7日": 7893,
      "ter": 7894,
      "並非": 7895,
      "事業": 7896,
      "交流": 7897,
      "人了": 7898,
      "他了": 7899,
      "你太": 7900,
      "制度": 7901,
      "原本": 7902,
      "可怕": 7903,
      "同一": 7904,
      "啊真": 7905,
      "天天": 7906,
      "妓女": 7907,
      "成的": 7908,
      "我一直": 7909,
      "推出": 7910,
      "會被": 7911,
      "有兩": 7912,
      "每一個": 7913,
      "氣候": 7914,
      "營養": 7915,
      "男子": 7916,
      "瘋了": 7917,
      "的嗎": 7918,
      "確保": 7919,
      "私人": 7920,
      "穩定": 7921,
      "記住": 7922,
      "設立": 7923,
      "調皮": 7924,
      "買東西": 7925,
      "輛車": 7926,
      "進步": 7927,
      "那兒": 7928,
      "那我": 7929,
      "離婚": 7930,
      "就是你": 7931,
      "幾個月": 7932,
      "游泳池": 7933,
      "7月": 7934,
      "也不是": 7935,
      "事物": 7936,
      "你這": 7937,
      "保留": 7938,
      "出國": 7939,
      "即將": 7940,
      "去哪裡": 7941,
      "各地": 7942,
      "在美國": 7943,
      "太太": 7944,
      "年齡": 7945,
      "弄得": 7946,
      "心臟": 7947,
      "性格": 7948,
      "成熟": 7949,
      "投入": 7950,
      "暑假": 7951,
      "歲的": 7952,
      "海洋": 7953,
      "社交": 7954,
      "蜜蜂": 7955,
      "表面": 7956,
      "賽馬": 7957,
      "遲到": 7958,
      "飲食": 7959,
      "點的": 7960,
      "這樣啊": 7961,
      "因為他們": 7962,
      "192": 7963,
      "我想要": 7964,
      "2016年": 7965,
      "最後一": 7966,
      "漂亮的": 7967,
      "真正的": 7968,
      "正確的": 7969,
      "意味著": 7970,
      "25": 7971,
      "一大": 7972,
      "下次": 7973,
      "他從": 7974,
      "來贏": 7975,
      "做得": 7976,
      "內地": 7977,
      "前往": 7978,
      "十八": 7979,
      "受傷": 7980,
      "名為": 7981,
      "夫妻": 7982,
      "婦女": 7983,
      "尊重": 7984,
      "恢復": 7985,
      "感染": 7986,
      "旁邊": 7987,
      "民族": 7988,
      "洪水": 7989,
      "清潔": 7990,
      "玩具": 7991,
      "男性": 7992,
      "空氣": 7993,
      "美麗": 7994,
      "臺銘": 7995,
      "花了": 7996,
      "董事": 7997,
      "郭臺銘": 7998,
      "都被": 7999,
      "醫療": 8000,
      "開了": 8001,
      "高度": 8002,
      "什麼都不": 8003,
      "2019": 8004,
      "因為他": 8005,
      "所有人": 8006,
      "是一名": 8007,
      "真是太": 8008,
      "人民共和國": 8009,
      "5月": 8010,
      "8月": 8011,
      "一人": 8012,
      "一開始": 8013,
      "並在": 8014,
      "了他的": 8015,
      "你喜歡": 8016,
      "信任": 8017,
      "冬天": 8018,
      "創新": 8019,
      "受不了": 8020,
      "周圍": 8021,
      "問他": 8022,
      "女孩子": 8023,
      "巧克": 8024,
      "愚蠢": 8025,
      "我總是": 8026,
      "打扮": 8027,
      "把我": 8028,
      "拿到": 8029,
      "排隊": 8030,
      "明星": 8031,
      "晚了": 8032,
      "某種": 8033,
      "某人的": 8034,
      "模式": 8035,
      "權力": 8036,
      "每一": 8037,
      "沒用": 8038,
      "消防": 8039,
      "無緣": 8040,
      "的研究": 8041,
      "臨時": 8042,
      "蔬菜": 8043,
      "說法": 8044,
      "這款": 8045,
      "運輸": 8046,
      "的一種": 8047,
      "」、「": 8048,
      "3日": 8049,
      "ec": 8050,
      "of": 8051,
      "ri": 8052,
      "上帝": 8053,
      "他和": 8054,
      "來源": 8055,
      "倒了": 8056,
      "兩年": 8057,
      "八道": 8058,
      "再說": 8059,
      "創意": 8060,
      "包含": 8061,
      "去世": 8062,
      "在那裡": 8063,
      "地上": 8064,
      "地下": 8065,
      "威脅": 8066,
      "宗教": 8067,
      "實現": 8068,
      "對手": 8069,
      "小偷": 8070,
      "床上": 8071,
      "建設": 8072,
      "心的": 8073,
      "忍受": 8074,
      "接近": 8075,
      "播出": 8076,
      "攻擊": 8077,
      "教學": 8078,
      "沒辦法": 8079,
      "沒想到": 8080,
      "淇淋": 8081,
      "的女人": 8082,
      "盜版": 8083,
      "竟然": 8084,
      "聖經": 8085,
      "著名": 8086,
      "處於": 8087,
      "衝突": 8088,
      "認爲": 8089,
      "通知": 8090,
      "我們是": 8091,
      "現在是": 8092,
      "如果您": 8093,
      "電視劇": 8094,
      "12月": 8095,
      "ent": 8096,
      "中華人民共和國": 8097,
      "胡說八道": 8098,
      "無緣無故": 8099,
      ")，": 8100,
      "6日": 8101,
      "亞洲": 8102,
      "但在": 8103,
      "你沒有": 8104,
      "做好": 8105,
      "兩人": 8106,
      "加坡": 8107,
      "嚇得": 8108,
      "女生": 8109,
      "如今": 8110,
      "巨大的": 8111,
      "成長": 8112,
      "才行": 8113,
      "打架": 8114,
      "技巧": 8115,
      "拼音": 8116,
      "按摩": 8117,
      "會上": 8118,
      "為主": 8119,
      "為人": 8120,
      "的感覺": 8121,
      "盯著": 8122,
      "符合": 8123,
      "籃球": 8124,
      "給他們": 8125,
      "編輯": 8126,
      "規定": 8127,
      "註冊": 8128,
      "資金": 8129,
      "長沙灣": 8130,
      "開會": 8131,
      "階段": 8132,
      "風格": 8133,
      "怎麼說": 8134,
      "問題的": 8135,
      "其實是": 8136,
      "出來的": 8137,
      "完成了": 8138,
      "阿拉伯": 8139,
      "40": 8140,
      "op": 8141,
      "不出": 8142,
      "他還": 8143,
      "他不會": 8144,
      "但這": 8145,
      "作家": 8146,
      "前面": 8147,
      "創辦": 8148,
      "危機": 8149,
      "完美": 8150,
      "對吧": 8151,
      "對象": 8152,
      "小孩子": 8153,
      "形容": 8154,
      "抱怨": 8155,
      "拍照": 8156,
      "採取": 8157,
      "接觸": 8158,
      "措施": 8159,
      "提醒": 8160,
      "早期": 8161,
      "某事": 8162,
      "極了": 8163,
      "油條": 8164,
      "法庭": 8165,
      "浪漫": 8166,
      "港鐵": 8167,
      "災難": 8168,
      "熱情": 8169,
      "爲了": 8170,
      "當心": 8171,
      "的好": 8172,
      "的世界": 8173,
      "老鼠": 8174,
      "要做": 8175,
      "角度": 8176,
      "身為": 8177,
      "這一點": 8178,
      "重複": 8179,
      "長得": 8180,
      "靠近": 8181,
      "體的": 8182,
      "鼓勵": 8183,
      "不知道啊": 8184,
      "如果你想": 8185,
      "2015年": 8186,
      "一定是": 8187,
      "每天都": 8188,
      "離開了": 8189,
      "意思是": 8190,
      "加拿大": 8191,
      "dow": 8192,
      "ir": 8193,
      "」（": 8194,
      "一段": 8195,
      "一段時間": 8196,
      "上午": 8197,
      "不怕": 8198,
      "丟了": 8199,
      "今日": 8200,
      "他做": 8201,
      "何文": 8202,
      "你做": 8203,
      "冰淇淋": 8204,
      "分子": 8205,
      "半年": 8206,
      "又要": 8207,
      "受害": 8208,
      "在於": 8209,
      "在哪裏": 8210,
      "大利": 8211,
      "大哥": 8212,
      "大廈": 8213,
      "對待": 8214,
      "小子": 8215,
      "就沒": 8216,
      "居然": 8217,
      "常常": 8218,
      "得罪": 8219,
      "患者": 8220,
      "抗議": 8221,
      "採用": 8222,
      "搶劫": 8223,
      "改革": 8224,
      "既然": 8225,
      "晚飯": 8226,
      "普遍": 8227,
      "會的": 8228,
      "月經": 8229,
      "有著": 8230,
      "有許多": 8231,
      "水果": 8232,
      "水灣": 8233,
      "溝通": 8234,
      "為止": 8235,
      "無所": 8236,
      "物品": 8237,
      "犯罪": 8238,
      "留在": 8239,
      "當中": 8240,
      "等待": 8241,
      "約翰": 8242,
      "老大": 8243,
      "輕鬆": 8244,
      "這傢伙": 8245,
      "道理": 8246,
      "關閉": 8247,
      "飲料": 8248,
      "我們將": 8249,
      "什麼東西": 8250,
      "不要再": 8251,
      "任何人": 8252,
      "這件衣服": 8253,
      "九龍城": 8254,
      "太多了": 8255,
      "過程中": 8256,
      "將軍澳": 8257,
      "朋友一起打麻將": 8258,
      "巧克力": 8259,
      "何文田": 8260,
      "35": 8261,
      "上環": 8262,
      "乘坐": 8263,
      "了幾": 8264,
      "他去": 8265,
      "付錢": 8266,
      "儀式": 8267,
      "優勢": 8268,
      "出現在": 8269,
      "區的": 8270,
      "回應": 8271,
      "外的": 8272,
      "大仙": 8273,
      "失望": 8274,
      "奶奶": 8275,
      "它會": 8276,
      "專門": 8277,
      "對他": 8278,
      "底下": 8279,
      "很小": 8280,
      "日常": 8281,
      "早餐": 8282,
      "明年": 8283,
      "是我的": 8284,
      "最大": 8285,
      "物理": 8286,
      "禁止": 8287,
      "空調": 8288,
      "統一": 8289,
      "綠色": 8290,
      "興建": 8291,
      "見的": 8292,
      "都不會": 8293,
      "金錢": 8294,
      "銷售": 8295,
      "陳家庭主婦": 8296,
      "順利": 8297,
      "頭腦": 8298,
      "驚訝": 8299,
      "黃大仙": 8300,
      "什麼啊": 8301,
      "他們說": 8302,
      "的一部分": 8303,
      "比賽中": 8304,
      "星期天": 8305,
      "很久沒去": 8306,
      "找個朋友一起打麻將": 8307,
      "街喫素": 8308,
      "信用卡": 8309,
      "哪一間餛飩麪最好喫": 8310,
      "陳家庭主婦要去": 8311,
      "6月": 8312,
      "一片": 8313,
      "不幸": 8314,
      "不一樣": 8315,
      "了吧": 8316,
      "五百": 8317,
      "他喜歡": 8318,
      "你這樣": 8319,
      "你還是": 8320,
      "你是不是": 8321,
      "供應": 8322,
      "假裝": 8323,
      "偶爾": 8324,
      "內的": 8325,
      "公佈": 8326,
      "叔叔": 8327,
      "和平": 8328,
      "品牌": 8329,
      "因素": 8330,
      "大雨": 8331,
      "好難": 8332,
      "官方": 8333,
      "富汗": 8334,
      "心裡": 8335,
      "我兒子": 8336,
      "找他": 8337,
      "掌握": 8338,
      "標誌": 8339,
      "牛奶": 8340,
      "發車": 8341,
      "看得": 8342,
      "糊塗": 8343,
      "藉口": 8344,
      "裝置": 8345,
      "西亞": 8346,
      "規劃": 8347,
      "解僱": 8348,
      "訪問": 8349,
      "豆腐": 8350,
      "路喫": 8351,
      "身材": 8352,
      "輸了": 8353,
      "這首歌": 8354,
      "道德": 8355,
      "部的": 8356,
      "重點": 8357,
      "鈔票": 8358,
      "阿富汗": 8359,
      "面積": 8360,
      "頭的": 8361,
      "類似": 8362,
      "怎麼做": 8363,
      "這些人": 8364,
      "已經是": 8365,
      "那些人": 8366,
      "ant": 8367,
      "服務員": 8368,
      "你怎麼能": 8369,
      "的情況下": 8370,
      "14": 8371,
      "ei": 8372,
      "中了": 8373,
      "主任": 8374,
      "乘客": 8375,
      "倒閉": 8376,
      "倫敦": 8377,
      "偷偷": 8378,
      "傷口": 8379,
      "僅僅": 8380,
      "公交": 8381,
      "加班": 8382,
      "十六": 8383,
      "名稱": 8384,
      "圖片": 8385,
      "在我們": 8386,
      "地位": 8387,
      "場所": 8388,
      "失業": 8389,
      "實施": 8390,
      "寧願": 8391,
      "很差": 8392,
      "提前": 8393,
      "新年": 8394,
      "時的": 8395,
      "智慧": 8396,
      "暴力": 8397,
      "有機會": 8398,
      "癌症": 8399,
      "真好": 8400,
      "真相": 8401,
      "言論": 8402,
      "跟着": 8403,
      "路邊": 8404,
      "醫學": 8405,
      "釋放": 8406,
      "長期": 8407,
      "長洲": 8408,
      "門口": 8409,
      "防止": 8410,
      "面試": 8411,
      "頭角": 8412,
      "黃金": 8413,
      "點鐘": 8414,
      "這麼做": 8415,
      "這麼說": 8416,
      "這些天": 8417,
      "但是我": 8418,
      "2014年": 8419,
      "ation": 8420,
      "很快就": 8421,
      "粵文維基百科": 8422,
      "TED": 8423,
      "iv": 8424,
      "oo": 8425,
      "一座": 8426,
      "一群": 8427,
      "七八": 8428,
      "上水": 8429,
      "佛教": 8430,
      "你把": 8431,
      "你以為": 8432,
      "依然": 8433,
      "個小時": 8434,
      "動力": 8435,
      "叫我": 8436,
      "喝酒": 8437,
      "喝奶茶": 8438,
      "喫飯": 8439,
      "在過去": 8440,
      "在街上": 8441,
      "外交": 8442,
      "大氣": 8443,
      "尼亞": 8444,
      "山頂": 8445,
      "成就": 8446,
      "我先": 8447,
      "手提": 8448,
      "找人": 8449,
      "找你": 8450,
      "挺好": 8451,
      "新加坡": 8452,
      "沒錢": 8453,
      "營盤": 8454,
      "牛排": 8455,
      "物質": 8456,
      "特殊": 8457,
      "當他": 8458,
      "的想法": 8459,
      "綜合": 8460,
      "聲明": 8461,
      "行李": 8462,
      "談話": 8463,
      "謀生": 8464,
      "豬肉": 8465,
      "那傢伙": 8466,
      "隔壁": 8467,
      "隧道": 8468,
      "餅乾": 8469,
      "我們也": 8470,
      "這樣了": 8471,
      "20年": 8472,
      "你不用": 8473,
      "注意到": 8474,
      "3月": 8475,
      "lo": 8476,
      "上市": 8477,
      "下降": 8478,
      "不然": 8479,
      "不開": 8480,
      "作爲": 8481,
      "你先": 8482,
      "公里": 8483,
      "十萬": 8484,
      "叫他": 8485,
      "唱片": 8486,
      "在家裡": 8487,
      "基因": 8488,
      "大人": 8489,
      "失去了": 8490,
      "學者": 8491,
      "安靜": 8492,
      "完整": 8493,
      "小船": 8494,
      "就開始": 8495,
      "很高": 8496,
      "微博": 8497,
      "想過": 8498,
      "我最": 8499,
      "我用": 8500,
      "我聽": 8501,
      "我不能": 8502,
      "推薦": 8503,
      "是用": 8504,
      "未必": 8505,
      "沙拉": 8506,
      "爆發": 8507,
      "的字": 8508,
      "石油": 8509,
      "等於": 8510,
      "精力": 8511,
      "給了": 8512,
      "航空": 8513,
      "著我": 8514,
      "蛋白": 8515,
      "行人": 8516,
      "裙子": 8517,
      "論文": 8518,
      "議會": 8519,
      "貴的": 8520,
      "軍隊": 8521,
      "這對": 8522,
      "酒吧": 8523,
      "長官": 8524,
      "難過": 8525,
      "餐館": 8526,
      "點了": 8527,
      "工作的": 8528,
      "有人說": 8529,
      "電視臺": 8530,
      "年輕的": 8531,
      "這家公司": 8532,
      "謝謝你": 8533,
      "2019年": 8534,
      "24": 8535,
      "Win": 8536,
      "ub": 8537,
      "一帶": 8538,
      "三天": 8539,
      "了這個": 8540,
      "他真的": 8541,
      "偉大的": 8542,
      "別的": 8543,
      "參選": 8544,
      "同年": 8545,
      "土司": 8546,
      "在他": 8547,
      "多的": 8548,
      "好幾": 8549,
      "客氣": 8550,
      "實話": 8551,
      "寫作": 8552,
      "就沒有": 8553,
      "就知道": 8554,
      "廚房": 8555,
      "很重要": 8556,
      "很好的": 8557,
      "快要": 8558,
      "成年": 8559,
      "才會": 8560,
      "找我": 8561,
      "是這樣的": 8562,
      "書寫": 8563,
      "有幾": 8564,
      "有所": 8565,
      "木頭": 8566,
      "欺騙": 8567,
      "漢語": 8568,
      "版本": 8569,
      "症狀": 8570,
      "的心": 8571,
      "確認": 8572,
      "窗戶": 8573,
      "給予": 8574,
      "職位": 8575,
      "聽起來": 8576,
      "能不能": 8577,
      "街頭": 8578,
      "被他": 8579,
      "褲子": 8580,
      "西營盤": 8581,
      "要小心": 8582,
      "說服": 8583,
      "說過": 8584,
      "請不要": 8585,
      "請我去": 8586,
      "警告": 8587,
      "追求": 8588,
      "這兩個": 8589,
      "阿明": 8590,
      "陣子": 8591,
      "顯然": 8592,
      "首次": 8593,
      "這個地方": 8594,
      "我的手": 8595,
      "他的妻子": 8596,
      "今天天氣": 8597,
      "的時候呢": 8598,
      "為什麼不": 8599,
      "政府的": 8600,
      "歷史上": 8601,
      "這家店": 8602,
      "這家餐廳": 8603,
      "-，": 8604,
      "一萬": 8605,
      "不得不": 8606,
      "出席": 8607,
      "利潤": 8608,
      "可是": 8609,
      "合同": 8610,
      "壞人": 8611,
      "外婆": 8612,
      "大部份": 8613,
      "宇宙": 8614,
      "將來": 8615,
      "尋求": 8616,
      "小販": 8617,
      "廣場": 8618,
      "我剛": 8619,
      "我所": 8620,
      "承擔": 8621,
      "是中國": 8622,
      "會說": 8623,
      "模型": 8624,
      "決心": 8625,
      "混合": 8626,
      "澳大": 8627,
      "炒麪": 8628,
      "球員": 8629,
      "球隊": 8630,
      "的結果": 8631,
      "的價格": 8632,
      "積極": 8633,
      "筆錢": 8634,
      "緊急": 8635,
      "罷了": 8636,
      "聯邦": 8637,
      "荔枝": 8638,
      "蚊子": 8639,
      "設置": 8640,
      "說到": 8641,
      "買了一": 8642,
      "路上": 8643,
      "這兒": 8644,
      "進一步": 8645,
      "頓飯": 8646,
      "體驗": 8647,
      "點心": 8648,
      "，“": 8649,
      "我們沒有": 8650,
      "他們是": 8651,
      "2012年": 8652,
      "art": 8653,
      "譬如說": 8654,
      "怎麼樣啊": 8655,
      "機器人": 8656,
      "無論如何": 8657,
      "在地上": 8658,
      "早點回家": 8659,
      "實在是": 8660,
      "1日": 8661,
      "1月": 8662,
      "4月": 8663,
      "OK": 8664,
      "gr": 8665,
      "im": 8666,
      "ur": 8667,
      "一套": 8668,
      "三千": 8669,
      "不合": 8670,
      "不必": 8671,
      "不敢": 8672,
      "不小心": 8673,
      "人數": 8674,
      "作出": 8675,
      "你所": 8676,
      "你總是": 8677,
      "你什麼時候": 8678,
      "做飯": 8679,
      "債務": 8680,
      "兩次": 8681,
      "千秋": 8682,
      "去過": 8683,
      "反而": 8684,
      "吃的": 8685,
      "基金": 8686,
      "大型": 8687,
      "學術": 8688,
      "將於": 8689,
      "小組": 8690,
      "廣播": 8691,
      "往往": 8692,
      "後果": 8693,
      "慈善": 8694,
      "拼命": 8695,
      "指出": 8696,
      "樣的": 8697,
      "沒錯": 8698,
      "清朝": 8699,
      "渴望": 8700,
      "無關": 8701,
      "獅子": 8702,
      "臺北": 8703,
      "花費": 8704,
      "袋子": 8705,
      "診斷": 8706,
      "該怎麼辦": 8707,
      "該死的": 8708,
      "資本": 8709,
      "走吧": 8710,
      "遵守": 8711,
      "都可以": 8712,
      "陷入": 8713,
      "隱藏": 8714,
      "類的": 8715,
      "！”": 8716,
      "202": 8717,
      "每天早上": 8718,
      "實驗室": 8719,
      "很喜歡去": 8720,
      "體育館": 8721,
      "最重要的是": 8722,
      "ed": 8723,
      "pro": 8724,
      "sh": 8725,
      "一所": 8726,
      "不平": 8727,
      "五個": 8728,
      "以至於": 8729,
      "但我們": 8730,
      "你真的": 8731,
      "優惠": 8732,
      "八卦": 8733,
      "其它": 8734,
      "初期": 8735,
      "判斷": 8736,
      "到現在": 8737,
      "十幾": 8738,
      "協助": 8739,
      "反正": 8740,
      "名單": 8741,
      "喫西": 8742,
      "娃娃": 8743,
      "婚禮": 8744,
      "家族": 8745,
      "對的": 8746,
      "小事": 8747,
      "少數": 8748,
      "得要": 8749,
      "得那麼": 8750,
      "我怕": 8751,
      "打了": 8752,
      "搞得": 8753,
      "撞到": 8754,
      "擁擠": 8755,
      "教室": 8756,
      "沒那麼": 8757,
      "沮喪": 8758,
      "洗澡": 8759,
      "渾身": 8760,
      "狼人": 8761,
      "獲勝": 8762,
      "發音": 8763,
      "的了": 8764,
      "的那": 8765,
      "監獄": 8766,
      "究竟": 8767,
      "第四": 8768,
      "紀錄": 8769,
      "羅斯": 8770,
      "蘿蔔": 8771,
      "街蕩失路": 8772,
      "贏了": 8773,
      "辦事": 8774,
      "連結": 8775,
      "重建": 8776,
      "鉛筆": 8777,
      "馬來": 8778,
      "黑色": 8779,
      "這個月": 8780,
      "很多東西": 8781,
      "這是什麼": 8782,
      "我不喜歡": 8783,
      "生活中": 8784,
      "學校的": 8785,
      "第二個": 8786,
      "公園蕩": 8787,
      "Window": 8788,
      "60": 8789,
      "9日": 8790,
      "em": 8791,
      "。。": 8792,
      "一團": 8793,
      "下面": 8794,
      "不像": 8795,
      "中共": 8796,
      "主演": 8797,
      "他人": 8798,
      "他要": 8799,
      "他自己": 8800,
      "何老師": 8801,
      "你啊": 8802,
      "你很": 8803,
      "來做": 8804,
      "修改": 8805,
      "全力": 8806,
      "冷靜": 8807,
      "同性": 8808,
      "啟動": 8809,
      "圖像": 8810,
      "地圖": 8811,
      "塑料": 8812,
      "多個": 8813,
      "夠了": 8814,
      "天文": 8815,
      "天水": 8816,
      "太平": 8817,
      "她很": 8818,
      "就好像": 8819,
      "就好了": 8820,
      "廣泛": 8821,
      "得更": 8822,
      "心中": 8823,
      "感情": 8824,
      "房地產": 8825,
      "找工作": 8826,
      "把這些": 8827,
      "折扣": 8828,
      "整整": 8829,
      "是時候": 8830,
      "是多少": 8831,
      "晚餐": 8832,
      "有兩個": 8833,
      "殺人": 8834,
      "海鮮": 8835,
      "混亂": 8836,
      "演奏": 8837,
      "用戶": 8838,
      "留學": 8839,
      "的語言": 8840,
      "的能力": 8841,
      "盡快": 8842,
      "看電影": 8843,
      "筲箕": 8844,
      "耐心": 8845,
      "耳朵": 8846,
      "聲稱": 8847,
      "花錢": 8848,
      "華人": 8849,
      "說要": 8850,
      "財產": 8851,
      "貢獻": 8852,
      "貨物": 8853,
      "超越": 8854,
      "迅速": 8855,
      "近年": 8856,
      "這套": 8857,
      "這所": 8858,
      "道歉": 8859,
      "道的": 8860,
      "達成": 8861,
      "適應": 8862,
      "還能": 8863,
      "邏輯": 8864,
      "重視": 8865,
      "針對": 8866,
      "間餐廳": 8867,
      "雙方": 8868,
      "預測": 8869,
      "魯士": 8870,
      "他們都": 8871,
      "如果你不": 8872,
      "老闆請我去": 8873,
      "這件襯衫": 8874,
      "它們的": 8875,
      "我也覺得": 8876,
      "不好意思": 8877,
      "你為什麼不": 8878,
      "小船粥": 8879,
      "土司喝奶茶": 8880,
      "喫西土司喝奶茶": 8881,
      "Windows": 8882,
      "筲箕灣": 8883,
      "間餐廳喫西土司喝奶茶": 8884,
      "一對": 8885,
      "一生": 8886,
      "下車": 8887,
      "下個月": 8888,
      "不下": 8889,
      "主教": 8890,
      "之下": 8891,
      "之處": 8892,
      "人在": 8893,
      "他太": 8894,
      "他都": 8895,
      "作者": 8896,
      "你不會": 8897,
      "假的": 8898,
      "傳播": 8899,
      "價錢": 8900,
      "共有": 8901,
      "共產": 8902,
      "別那麼": 8903,
      "勸學生": 8904,
      "印象": 8905,
      "去旅行": 8906,
      "古代": 8907,
      "哪些": 8908,
      "問現": 8909,
      "四處": 8910,
      "回收": 8911,
      "回頭": 8912,
      "團體": 8913,
      "地板": 8914,
      "坐下": 8915,
      "天的": 8916,
      "安裝": 8917,
      "家裏": 8918,
      "家長": 8919,
      "專心": 8920,
      "就去": 8921,
      "就已經": 8922,
      "幫派": 8923,
      "形成": 8924,
      "想想": 8925,
      "戀愛": 8926,
      "我來": 8927,
      "我才": 8928,
      "我應該": 8929,
      "我還是": 8930,
      "扮演": 8931,
      "找到了": 8932,
      "拿著": 8933,
      "掃描": 8934,
      "採訪": 8935,
      "放下": 8936,
      "放心": 8937,
      "日報": 8938,
      "是嗎": 8939,
      "某個": 8940,
      "樂隊": 8941,
      "欣賞": 8942,
      "此外": 8943,
      "準確": 8944,
      "爆炸": 8945,
      "珍惜": 8946,
      "疫情": 8947,
      "福利": 8948,
      "篇文章": 8949,
      "老了": 8950,
      "聯絡": 8951,
      "能源": 8952,
      "英雄": 8953,
      "行不行": 8954,
      "裝修": 8955,
      "設有": 8956,
      "賭博": 8957,
      "輪胎": 8958,
      "透了": 8959,
      "過度": 8960,
      "郵票": 8961,
      "鏡頭": 8962,
      "阿忠": 8963,
      "陽光": 8964,
      "震驚": 8965,
      "？”": 8966,
      "知道了": 8967,
      "我的朋友": 8968,
      "2017年": 8969,
      "出來了": 8970,
      "星期六": 8971,
      "麻煩了": 8972,
      "肯定會": 8973,
      "這一切": 8974,
      "簡單的": 8975,
      "外國人": 8976,
      "這份工作": 8977,
      "油條炒麪": 8978,
      "何老師問現": 8979,
      "勸學生早點回家": 8980,
      "油條炒麪小船粥": 8981,
      "何老師問現正在": 8982,
      "一根": 8983,
      "一看": 8984,
      "三角": 8985,
      "不清": 8986,
      "不應該": 8987,
      "了不起": 8988,
      "五分鐘": 8989,
      "俄羅斯": 8990,
      "做生意": 8991,
      "傳媒": 8992,
      "分為": 8993,
      "別再": 8994,
      "力氣": 8995,
      "勉強": 8996,
      "原諒": 8997,
      "只好": 8998,
      "專輯": 8999,
      "就行了": 9000,
      "居魯士": 9001,
      "差異": 9002,
      "引發": 9003,
      "得到了": 9004,
      "從未": 9005,
      "您可以": 9006,
      "情人": 9007,
      "我正在": 9008,
      "找出": 9009,
      "指控": 9010,
      "擺脫": 9011,
      "教師": 9012,
      "於198": 9013,
      "是指": 9014,
      "是要": 9015,
      "有可能": 9016,
      "柴灣": 9017,
      "沙漠": 9018,
      "現時": 9019,
      "男女": 9020,
      "留意": 9021,
      "的氣": 9022,
      "笑話": 9023,
      "給她": 9024,
      "螢幕": 9025,
      "街買菜": 9026,
      "西藏": 9027,
      "買的": 9028,
      "趕快": 9029,
      "車子": 9030,
      "軍事": 9031,
      "返回": 9032,
      "這只是": 9033,
      "遊客": 9034,
      "適當": 9035,
      "那不是": 9036,
      "電池": 9037,
      "騷擾": 9038,
      "？」": 9039,
      "我們對": 9040,
      "我們不能": 9041,
      "這麼好": 9042,
      "有一種": 9043,
      "的一切": 9044,
      "兩個月": 9045,
      "九龍灣": 9046,
      "整天都": 9047,
      "變成了": 9048,
      "行政長官": 9049,
      "爺爺很喜歡去": 9050,
      "不停地": 9051,
      "發車音樂": 9052,
      "公園蕩千秋": 9053,
      "天水圍": 9054,
      "23": 9055,
      "80": 9056,
      "一輩子": 9057,
      "三百": 9058,
      "下一個": 9059,
      "九十": 9060,
      "也挺": 9061,
      "五千": 9062,
      "五年": 9063,
      "他這": 9064,
      "何必": 9065,
      "你再": 9066,
      "你好": 9067,
      "你不是": 9068,
      "保安": 9069,
      "候選": 9070,
      "其後": 9071,
      "分開": 9072,
      "句子": 9073,
      "吃晚飯": 9074,
      "向我": 9075,
      "命運": 9076,
      "啊這樣": 9077,
      "回事": 9078,
      "回憶": 9079,
      "字典": 9080,
      "宿舍": 9081,
      "平衡": 9082,
      "從不": 9083,
      "感興趣": 9084,
      "我有一個": 9085,
      "我丈夫": 9086,
      "房屋": 9087,
      "承諾": 9088,
      "探索": 9089,
      "搞笑": 9090,
      "播放": 9091,
      "放假": 9092,
      "敵人": 9093,
      "暴露": 9094,
      "書店": 9095,
      "本事": 9096,
      "消化": 9097,
      "漫畫": 9098,
      "炫耀": 9099,
      "獨自": 9100,
      "疼痛": 9101,
      "發佈": 9102,
      "發脾氣": 9103,
      "的關係": 9104,
      "相對": 9105,
      "看過": 9106,
      "祖母": 9107,
      "算是": 9108,
      "背後": 9109,
      "背景": 9110,
      "薪水": 9111,
      "街的垃圾桶找東西喫": 9112,
      "裏邊": 9113,
      "西灣": 9114,
      "親戚": 9115,
      "角落": 9116,
      "解放": 9117,
      "談談": 9118,
      "起床": 9119,
      "辯論": 9120,
      "那張": 9121,
      "配合": 9122,
      "降低": 9123,
      "電臺": 9124,
      "非洲": 9125,
      "鰂魚": 9126,
      "鼻子": 9127,
      "不是嗎": 9128,
      "如果不是": 9129,
      "因為我們": 9130,
      "10月": 9131,
      "認識他": 9132,
      "你能幫我": 9133,
      "你為什麼要": 9134,
      "哲學家": 9135,
      "造成的": 9136,
      "oun": 9137,
      "主持人": 9138,
      "ung": 9139,
      "ak": 9140,
      "um": 9141,
      "一部": 9142,
      "一頓": 9143,
      "不做": 9144,
      "不願意": 9145,
      "也能": 9146,
      "五點": 9147,
      "人工": 9148,
      "他用": 9149,
      "他一直": 9150,
      "你對": 9151,
      "做一個": 9152,
      "優秀": 9153,
      "元的": 9154,
      "出口": 9155,
      "勞工": 9156,
      "十字": 9157,
      "去到": 9158,
      "台上": 9159,
      "同情": 9160,
      "喉嚨": 9161,
      "大眾": 9162,
      "好不好": 9163,
      "宴會": 9164,
      "帶到": 9165,
      "幾百": 9166,
      "很想": 9167,
      "您需要": 9168,
      "想著": 9169,
      "想起": 9170,
      "愉快": 9171,
      "感冒": 9172,
      "我將": 9173,
      "打擊": 9174,
      "打破": 9175,
      "指望": 9176,
      "挑剔": 9177,
      "提示": 9178,
      "於199": 9179,
      "是為了": 9180,
      "曾任": 9181,
      "最新": 9182,
      "模特": 9183,
      "武器": 9184,
      "沙發": 9185,
      "法官": 9186,
      "泳灘": 9187,
      "活躍": 9188,
      "海邊": 9189,
      "測量": 9190,
      "為何": 9191,
      "玉米": 9192,
      "班的": 9193,
      "生於": 9194,
      "的主要": 9195,
      "的環境": 9196,
      "的內容": 9197,
      "皇后": 9198,
      "禮貌": 9199,
      "等你": 9200,
      "粉絲": 9201,
      "累了": 9202,
      "而被": 9203,
      "職場": 9204,
      "襲擊": 9205,
      "西裝": 9206,
      "要麼": 9207,
      "視覺": 9208,
      "視頻": 9209,
      "調整": 9210,
      "貨幣": 9211,
      "買到": 9212,
      "車禍": 9213,
      "轉移": 9214,
      "這很": 9215,
      "遊樂": 9216,
      "鄰居": 9217,
      "錯過": 9218,
      "長了": 9219,
      "除非": 9220,
      "鞦韆": 9221,
      "2020年": 9222,
      "有一次": 9223,
      "2010年": 9224,
      "2011年": 9225,
      "11月": 9226,
      "月1日": 9227,
      "同樣的": 9228,
      "神經病": 9229,
      "蜘蛛絲": 9230,
      "尤其是": 9231,
      "大角咀": 9232,
      "洪水橋": 9233,
      "同性戀": 9234,
      "鰂魚涌": 9235,
      "ap": 9236,
      "三個月": 9237,
      "介意": 9238,
      "但他們": 9239,
      "你沒": 9240,
      "來這裡": 9241,
      "內部": 9242,
      "兩天": 9243,
      "可惜": 9244,
      "吸煙": 9245,
      "命令": 9246,
      "在廣州": 9247,
      "外出": 9248,
      "大會": 9249,
      "大規模": 9250,
      "夫婦": 9251,
      "好一點": 9252,
      "學到": 9253,
      "市政": 9254,
      "恐怕": 9255,
      "患有": 9256,
      "成分": 9257,
      "打印": 9258,
      "打敗": 9259,
      "明明": 9260,
      "明的": 9261,
      "明確": 9262,
      "更好的": 9263,
      "最重要的": 9264,
      "椅子": 9265,
      "步行": 9266,
      "比我": 9267,
      "法院": 9268,
      "涉及": 9269,
      "牆上": 9270,
      "物種": 9271,
      "登記": 9272,
      "發抖": 9273,
      "的臉": 9274,
      "的影響": 9275,
      "盤子": 9276,
      "相互": 9277,
      "相反": 9278,
      "睡著": 9279,
      "稍後": 9280,
      "組合": 9281,
      "經典": 9282,
      "維護": 9283,
      "而這": 9284,
      "聚會": 9285,
      "胃口": 9286,
      "著急": 9287,
      "血管": 9288,
      "行的": 9289,
      "被稱為": 9290,
      "西蘭": 9291,
      "要不": 9292,
      "讓她": 9293,
      "讓它": 9294,
      "讓自己": 9295,
      "財政": 9296,
      "跑馬": 9297,
      "這隻": 9298,
      "過得": 9299,
      "醒來": 9300,
      "面臨": 9301,
      "鞋子": 9302,
      "領袖": 9303,
      "我們能": 9304,
      "這樣就": 9305,
      "工作了": 9306,
      "....": 9307,
      "今天是": 9308,
      "的事物": 9309,
      "老闆的": 9310,
      "完全沒有": 9311,
      "情況下": 9312,
      "存在的": 9313,
      "結婚了": 9314,
      "畢業後": 9315,
      "結束了": 9316,
      "錯誤的": 9317,
      "電子遊戲": 9318,
      "不僅僅": 9319,
      "好久沒去": 9320,
      "基督教": 9321,
      "陌生人": 9322,
      "洗手間": 9323,
      "2月": 9324,
      "45": 9325,
      "Su": 9326,
      "ip": 9327,
      "ot": 9328,
      "一號": 9329,
      "上漲": 9330,
      "不來": 9331,
      "不安": 9332,
      "不可以": 9333,
      "中山": 9334,
      "互聯": 9335,
      "人啊": 9336,
      "他這麼": 9337,
      "他正在": 9338,
      "作曲": 9339,
      "你個": 9340,
      "你只是": 9341,
      "信仰": 9342,
      "借錢": 9343,
      "光顧": 9344,
      "內心": 9345,
      "分數": 9346,
      "又稱": 9347,
      "口袋": 9348,
      "可樂": 9349,
      "吃什麼": 9350,
      "吝嗇": 9351,
      "吸毒": 9352,
      "品質": 9353,
      "在中國": 9354,
      "多人": 9355,
      "天空": 9356,
      "女子": 9357,
      "好事": 9358,
      "姐妹": 9359,
      "字母": 9360,
      "密切": 9361,
      "很長時間": 9362,
      "得多": 9363,
      "從而": 9364,
      "愛好": 9365,
      "我問": 9366,
      "我媽媽": 9367,
      "我以為": 9368,
      "把你": 9369,
      "控股": 9370,
      "斯坦": 9371,
      "旅程": 9372,
      "有用": 9373,
      "每當": 9374,
      "沒了": 9375,
      "測驗": 9376,
      "演說": 9377,
      "無人": 9378,
      "無可": 9379,
      "熱的": 9380,
      "產業": 9381,
      "畢竟": 9382,
      "當局": 9383,
      "發動": 9384,
      "發布": 9385,
      "的書": 9386,
      "盪鞦韆": 9387,
      "破產": 9388,
      "穿上": 9389,
      "等著": 9390,
      "節省": 9391,
      "細節": 9392,
      "給自己": 9393,
      "而不": 9394,
      "能幹": 9395,
      "腦部": 9396,
      "自助": 9397,
      "荷蘭": 9398,
      "街現在橫風橫雨": 9399,
      "被告": 9400,
      "說實話": 9401,
      "誰知": 9402,
      "車去": 9403,
      "車輛": 9404,
      "進展": 9405,
      "運用": 9406,
      "過年": 9407,
      "金鐘": 9408,
      "隨後": 9409,
      "風景": 9410,
      "就是我": 9411,
      "香港大學": 9412,
      "可能性": 9413,
      "應該是": 9414,
      "一點也不": 9415,
      "都是這樣": 9416,
      "你是否": 9417,
      "成功的": 9418,
      "其中一個": 9419,
      "很久了": 9420,
      "剛纔經過": 9421,
      "到處都是": 9422,
      "傳統的": 9423,
      "十五分鐘": 9424,
      "li": 9425,
      "》（": 9426,
      "一把": 9427,
      "一項": 9428,
      "上來": 9429,
      "上升": 9430,
      "不滿": 9431,
      "不通": 9432,
      "了點": 9433,
      "二百": 9434,
      "他不是": 9435,
      "付出": 9436,
      "但她": 9437,
      "你來": 9438,
      "假設": 9439,
      "做任何": 9440,
      "做的事": 9441,
      "兩隻": 9442,
      "八月": 9443,
      "到你": 9444,
      "到時候": 9445,
      "化妝": 9446,
      "十分鐘": 9447,
      "午餐": 9448,
      "半島": 9449,
      "取代": 9450,
      "可靠": 9451,
      "固定": 9452,
      "地說": 9453,
      "好東西": 9454,
      "實習": 9455,
      "封信": 9456,
      "將近": 9457,
      "山道": 9458,
      "工會": 9459,
      "已被": 9460,
      "希臘": 9461,
      "得以": 9462,
      "得像": 9463,
      "循環": 9464,
      "懶得": 9465,
      "懶惰": 9466,
      "我買": 9467,
      "我跟": 9468,
      "我給你": 9469,
      "把你的": 9470,
      "把它們": 9471,
      "抽煙": 9472,
      "拜訪": 9473,
      "拿走": 9474,
      "教導": 9475,
      "更換": 9476,
      "最低": 9477,
      "最初": 9478,
      "有任何": 9479,
      "期望": 9480,
      "標記": 9481,
      "氣得": 9482,
      "清晰": 9483,
      "澳洲": 9484,
      "熱鬧": 9485,
      "牙齒": 9486,
      "異形": 9487,
      "當作": 9488,
      "當選": 9489,
      "的外": 9490,
      "的特": 9491,
      "的經濟": 9492,
      "的照片": 9493,
      "的行為": 9494,
      "看不到": 9495,
      "矛盾": 9496,
      "知名": 9497,
      "示威": 9498,
      "突破": 9499,
      "立刻": 9500,
      "等我": 9501,
      "策略": 9502,
      "結實": 9503,
      "統計": 9504,
      "總之": 9505,
      "總會": 9506,
      "繩子": 9507,
      "聚集": 9508,
      "肩膀": 9509,
      "街收養了一隻流浪狗": 9510,
      "要是": 9511,
      "親自": 9512,
      "認知": 9513,
      "財務": 9514,
      "資產": 9515,
      "赤柱": 9516,
      "足以": 9517,
      "跑了": 9518,
      "輕易": 9519,
      "這座": 9520,
      "那一": 9521,
      "那又": 9522,
      "那家": 9523,
      "部長": 9524,
      "長大了": 9525,
      "集中": 9526,
      "電梯": 9527,
      "青少年": 9528,
      "頭暈": 9529,
      "騙了": 9530,
      "鬍子": 9531,
      "我們公司": 9532,
      "所以你": 9533,
      "非常喜歡": 9534,
      "他說話": 9535,
      "美國的": 9536,
      "國家的": 9537,
      "ang": 9538,
      "今晚的": 9539,
      "你怎麼這麼": 9540,
      "變得更": 9541,
      "很有趣": 9542,
      "忘記了": 9543,
      "主義者": 9544,
      "這條路": 9545,
      "行政區": 9546,
      "最喜歡的": 9547,
      "%。": 9548,
      "Cant": 9549,
      "au": 9550,
      "一遍": 9551,
      "不成": 9552,
      "主人": 9553,
      "了下來": 9554,
      "他才": 9555,
      "但你": 9556,
      "做人": 9557,
      "做完": 9558,
      "傻瓜": 9559,
      "充分": 9560,
      "再見": 9561,
      "刺激": 9562,
      "加油": 9563,
      "勝利": 9564,
      "只剩下": 9565,
      "和她": 9566,
      "善良": 9567,
      "在此": 9568,
      "培養": 9569,
      "報道": 9570,
      "墨西": 9571,
      "好開心": 9572,
      "將其": 9573,
      "專注": 9574,
      "對此": 9575,
      "對話": 9576,
      "局長": 9577,
      "屁股": 9578,
      "展開": 9579,
      "幸好": 9580,
      "很貴": 9581,
      "手錶": 9582,
      "承受": 9583,
      "抱歉": 9584,
      "攜帶": 9585,
      "教堂": 9586,
      "早的": 9587,
      "是非": 9588,
      "是你的": 9589,
      "本質": 9590,
      "杯子": 9591,
      "林榮": 9592,
      "校園": 9593,
      "機制": 9594,
      "死去": 9595,
      "每週": 9596,
      "每個月": 9597,
      "比你": 9598,
      "活著": 9599,
      "清理": 9600,
      "演唱": 9601,
      "狡猾": 9602,
      "現今": 9603,
      "用途": 9604,
      "發揮": 9605,
      "的概念": 9606,
      "盒子": 9607,
      "看電視": 9608,
      "給你的": 9609,
      "美食": 9610,
      "藍色": 9611,
      "螢光": 9612,
      "行爲": 9613,
      "街探舅舅": 9614,
      "街那間鉢兒子糕": 9615,
      "西洋": 9616,
      "西瓜": 9617,
      "要我": 9618,
      "語文": 9619,
      "謀殺": 9620,
      "越南": 9621,
      "跟著": 9622,
      "送到": 9623,
      "逮捕": 9624,
      "過後": 9625,
      "遭到": 9626,
      "開口": 9627,
      "青衣": 9628,
      "體系": 9629,
      "麥當": 9630,
      "黃竹": 9631,
      "我們所": 9632,
      "不是那麼": 9633,
      "自己是": 9634,
      "如果他": 9635,
      "這麼大的": 9636,
      "這些都是": 9637,
      "不要那麼": 9638,
      "但是呢": 9639,
      "因為你": 9640,
      "因為它": 9641,
      "190": 9642,
      "了一下": 9643,
      "了一場": 9644,
      "告訴他": 9645,
      "你可以看到": 9646,
      "準備好": 9647,
      "第二天": 9648,
      "自然的": 9649,
      "公園盪鞦韆": 9650,
      "很快就會": 9651,
      "工程師": 9652,
      "電子郵件": 9653,
      "大量的": 9654,
      "計算機": 9655,
      "所謂的": 9656,
      "今天天氣好": 9657,
      "澳大利亞": 9658,
      "墨西哥": 9659,
      "8日": 9660,
      "In": 9661,
      "ag": 9662,
      "vi": 9663,
      "上有": 9664,
      "不理": 9665,
      "不相": 9666,
      "不良": 9667,
      "他將": 9668,
      "伊朗": 9669,
      "作文": 9670,
      "你不知道": 9671,
      "俱樂": 9672,
      "做過": 9673,
      "充滿了": 9674,
      "兩個人": 9675,
      "六點": 9676,
      "冰箱": 9677,
      "到他": 9678,
      "前的": 9679,
      "剩下的": 9680,
      "勞動": 9681,
      "參考": 9682,
      "口氣": 9683,
      "叫你": 9684,
      "吃午飯": 9685,
      "同一個": 9686,
      "名人": 9687,
      "和一個": 9688,
      "喝醉": 9689,
      "囂張": 9690,
      "土壤": 9691,
      "在床上": 9692,
      "基於": 9693,
      "多數": 9694,
      "大道": 9695,
      "天地": 9696,
      "天堂": 9697,
      "天主教": 9698,
      "奧運": 9699,
      "好奇": 9700,
      "好玩": 9701,
      "好朋友": 9702,
      "宣布": 9703,
      "實力": 9704,
      "對你": 9705,
      "很漂亮": 9706,
      "忽略": 9707,
      "意的": 9708,
      "我真": 9709,
      "我感到": 9710,
      "我剛剛": 9711,
      "打球": 9712,
      "扔掉": 9713,
      "改為": 9714,
      "書院": 9715,
      "正如": 9716,
      "死於": 9717,
      "無線": 9718,
      "爬山": 9719,
      "的前": 9720,
      "的海": 9721,
      "的頭": 9722,
      "的朋友": 9723,
      "的發展": 9724,
      "的經驗": 9725,
      "眼淚": 9726,
      "祖父": 9727,
      "租金": 9728,
      "立場": 9729,
      "粵劇": 9730,
      "耶穌": 9731,
      "胞胎": 9732,
      "葬禮": 9733,
      "街那裏買點東西": 9734,
      "表情": 9735,
      "裝飾": 9736,
      "訓讀": 9737,
      "話說": 9738,
      "資助": 9739,
      "贏得了": 9740,
      "超市": 9741,
      "跳舞": 9742,
      "這幅": 9743,
      "這間": 9744,
      "這句話": 9745,
      "道菜": 9746,
      "違反": 9747,
      "鄰近": 9748,
      "開關": 9749,
      "韻圖": 9750,
      "預防": 9751,
      "高中": 9752,
      "我們知道": 9753,
      "這樣說": 9754,
      "20日": 9755,
      "非常好": 9756,
      "覺得很": 9757,
      "在這家": 9758,
      "使用的": 9759,
      "生活的": 9760,
      "我是一個": 9761,
      "便宜的": 9762,
      "end": 9763,
      "還不錯": 9764,
      "一切都": 9765,
      "唯一的": 9766,
      "或許是": 9767,
      "合理的": 9768,
      "得要命": 9769,
      "馬來西亞": 9770,
      "共產黨": 9771,
      "跑馬地": 9772,
      "黃竹坑": 9773,
      "70": 9774,
      "Hong": 9775,
      "TV": 9776,
      "for": 9777,
      "ist": 9778,
      "os": 9779,
      "tr": 9780,
      "一副": 9781,
      "一句": 9782,
      "一碗": 9783,
      "一聲": 9784,
      "一致": 9785,
      "一輛": 9786,
      "不時": 9787,
      "中年": 9788,
      "主動": 9789,
      "交談": 9790,
      "以便": 9791,
      "來不及": 9792,
      "假如": 9793,
      "共享": 9794,
      "分裂": 9795,
      "利率": 9796,
      "前進": 9797,
      "創業": 9798,
      "劇院": 9799,
      "動畫": 9800,
      "區別": 9801,
      "十一": 9802,
      "十四": 9803,
      "升職": 9804,
      "南京": 9805,
      "叉燒": 9806,
      "和我們": 9807,
      "嘴巴": 9808,
      "國外": 9809,
      "在大": 9810,
      "太子": 9811,
      "女友": 9812,
      "妹子": 9813,
      "小明": 9814,
      "尚未": 9815,
      "就不會": 9816,
      "屋頂": 9817,
      "平靜": 9818,
      "從小": 9819,
      "想着": 9820,
      "意志": 9821,
      "愛上": 9822,
      "憤怒": 9823,
      "懲罰": 9824,
      "成果": 9825,
      "我都會": 9826,
      "找一個": 9827,
      "指揮": 9828,
      "指示": 9829,
      "放進": 9830,
      "明治": 9831,
      "是真的": 9832,
      "核心": 9833,
      "案件": 9834,
      "殺死": 9835,
      "民眾": 9836,
      "水庫": 9837,
      "水管": 9838,
      "火災": 9839,
      "無數": 9840,
      "無綫": 9841,
      "燒烤": 9842,
      "燒酒": 9843,
      "爭議": 9844,
      "犯了": 9845,
      "球場": 9846,
      "白人": 9847,
      "白色": 9848,
      "的電影": 9849,
      "的文章": 9850,
      "的位置": 9851,
      "相似": 9852,
      "空中": 9853,
      "筆記": 9854,
      "網民": 9855,
      "總理": 9856,
      "總部": 9857,
      "聽話": 9858,
      "與其": 9859,
      "艱難": 9860,
      "花瓶": 9861,
      "親密": 9862,
      "護士": 9863,
      "買一個": 9864,
      "起碼": 9865,
      "跑步": 9866,
      "跟我說": 9867,
      "農業": 9868,
      "這段": 9869,
      "這孩子": 9870,
      "那條": 9871,
      "鍛煉": 9872,
      "關門": 9873,
      "食用": 9874,
      "飯店": 9875,
      "骨頭": 9876,
      "高等": 9877,
      "魚的": 9878,
      "黃色": 9879,
      "我們把": 9880,
      "就是他": 9881,
      "他的女朋友": 9882,
      "時間的": 9883,
      "世界各地": 9884,
      "美國人": 9885,
      "因爲他": 9886,
      "每天晚上": 9887,
      "幫助我們": 9888,
      "經濟學": 9889,
      "出現了": 9890,
      "負責任": 9891,
      "危險的": 9892,
      "嚴重的": 9893,
      "吃完飯": 9894,
      "試試看": 9895,
      "遊樂場": 9896,
      "500": 9897,
      "Kong": 9898,
      "上街": 9899,
      "不論": 9900,
      "也在": 9901,
      "了大": 9902,
      "人情": 9903,
      "今年的": 9904,
      "他為": 9905,
      "他真的很": 9906,
      "但實際上": 9907,
      "來回": 9908,
      "個子": 9909,
      "假名": 9910,
      "做點": 9911,
      "做不到": 9912,
      "入口": 9913,
      "兩者": 9914,
      "公務": 9915,
      "兼職": 9916,
      "再來": 9917,
      "加強": 9918,
      "助理": 9919,
      "劫匪": 9920,
      "十三": 9921,
      "即時": 9922,
      "商人": 9923,
      "單詞": 9924,
      "多不多": 9925,
      "妙的": 9926,
      "妨礙": 9927,
      "始終": 9928,
      "嫌疑": 9929,
      "家具": 9930,
      "對我們": 9931,
      "小男孩": 9932,
      "少女": 9933,
      "帶上": 9934,
      "帶領": 9935,
      "幫他": 9936,
      "幾個人": 9937,
      "廚師": 9938,
      "強大": 9939,
      "強調": 9940,
      "影像": 9941,
      "後悔": 9942,
      "性關係": 9943,
      "悲慘": 9944,
      "我上": 9945,
      "我決定": 9946,
      "把錢": 9947,
      "拿出": 9948,
      "排名": 9949,
      "推動": 9950,
      "摘要": 9951,
      "會更": 9952,
      "有得": 9953,
      "有益": 9954,
      "有問題": 9955,
      "樓下": 9956,
      "模仿": 9957,
      "橘子": 9958,
      "母語": 9959,
      "沒關係": 9960,
      "漢文": 9961,
      "特定": 9962,
      "男友": 9963,
      "番禺": 9964,
      "的車": 9965,
      "的態度": 9966,
      "盡力": 9967,
      "瞬間": 9968,
      "神奇": 9969,
      "禮拜": 9970,
      "等到": 9971,
      "粗心": 9972,
      "結論": 9973,
      "統治": 9974,
      "編寫": 9975,
      "職責": 9976,
      "股份": 9977,
      "腦袋": 9978,
      "色情": 9979,
      "花生": 9980,
      "行事": 9981,
      "街兜了幾個圈": 9982,
      "複習": 9983,
      "親愛的": 9984,
      "評價": 9985,
      "語音": 9986,
      "說你": 9987,
      "說是": 9988,
      "談判": 9989,
      "證實": 9990,
      "貧窮": 9991,
      "跑去": 9992,
      "軟體": 9993,
      "輕輕": 9994,
      "這回": 9995,
      "這一個": 9996,
      "過於": 9997,
      "那我就": 9998,
      "都行": 9999,
      "陳先生": 10000,
      "雙胞胎": 10001,
      "，《": 10002,
      "就是譬如": 10003,
      "所以他們": 10004,
      "所以不要": 10005,
      "怎麼可能": 10006,
      "這麼快": 10007,
      "這些是": 10008,
      "的人們": 10009,
      "了一頓": 10010,
      "然後我": 10011,
      "任何東西": 10012,
      "發生的": 10013,
      "我也不知道": 10014,
      "最後一個": 10015,
      "這樣的東西": 10016,
      "你不需要": 10017,
      "2003年": 10018,
      "電視機": 10019,
      "不好看": 10020,
      "ert": 10021,
      "明天是": 10022,
      "回來了": 10023,
      "12日": 10024,
      "結束後": 10025,
      "根本沒有": 10026,
      "相關的": 10027,
      "我從來": 10028,
      "說不定": 10029,
      "聯合國": 10030,
      "聖誕節": 10031,
      "懷孕了": 10032,
      "Canton": 10033,
      "林榮基": 10034,
      "ab": 10035,
      "ai": 10036,
      "一路": 10037,
      "七年": 10038,
      "三明治": 10039,
      "不大": 10040,
      "二人": 10041,
      "交換": 10042,
      "他經常": 10043,
      "伙子": 10044,
      "你用": 10045,
      "使得": 10046,
      "修理": 10047,
      "傳染": 10048,
      "六個": 10049,
      "六年": 10050,
      "到一個": 10051,
      "剎車": 10052,
      "剛好": 10053,
      "創立": 10054,
      "包裝": 10055,
      "十個": 10056,
      "口罩": 10057,
      "吃過": 10058,
      "吵鬧": 10059,
      "器官": 10060,
      "嚴格": 10061,
      "因而": 10062,
      "在你的": 10063,
      "地名": 10064,
      "執照": 10065,
      "增長": 10066,
      "大師": 10067,
      "大衣": 10068,
      "大學生": 10069,
      "如同": 10070,
      "客運": 10071,
      "對她": 10072,
      "展覽": 10073,
      "工地": 10074,
      "強的": 10075,
      "意大利": 10076,
      "我姐姐": 10077,
      "戲服": 10078,
      "手的": 10079,
      "才是": 10080,
      "把我的": 10081,
      "拇指": 10082,
      "指甲": 10083,
      "掉下來": 10084,
      "擁抱": 10085,
      "收費": 10086,
      "是如何": 10087,
      "是怎樣": 10088,
      "暫停": 10089,
      "會很": 10090,
      "會發生": 10091,
      "服用": 10092,
      "未能": 10093,
      "正是": 10094,
      "正義": 10095,
      "比例": 10096,
      "沒空": 10097,
      "流動": 10098,
      "淘汰": 10099,
      "為此": 10100,
      "烹飪": 10101,
      "熟食": 10102,
      "營業": 10103,
      "生長": 10104,
      "的錢": 10105,
      "的女孩": 10106,
      "的作品": 10107,
      "的兒童": 10108,
      "皇帝": 10109,
      "看完": 10110,
      "看待": 10111,
      "睡不著": 10112,
      "笑容": 10113,
      "給我的": 10114,
      "而我": 10115,
      "臉上": 10116,
      "與他": 10117,
      "萬人": 10118,
      "補習": 10119,
      "要有": 10120,
      "觀看": 10121,
      "話題": 10122,
      "詳細": 10123,
      "跟你說": 10124,
      "轉變": 10125,
      "這台": 10126,
      "過頭": 10127,
      "邊緣": 10128,
      "重大": 10129,
      "閉嘴": 10130,
      "閒逛": 10131,
      "難看": 10132,
      "電線": 10133,
      "青山": 10134,
      "預期": 10135,
      "馬虎": 10136,
      "髒話": 10137,
      "鼓掌": 10138,
      "我們還": 10139,
      "一個小": 10140,
      "什麼呢": 10141,
      "這樣東西": 10142,
      "可以看到": 10143,
      "這些事": 10144,
      "很多人都": 10145,
      "真的要": 10146,
      "你們的": 10147,
      "一點兒": 10148,
      "所有人都": 10149,
      "一樣的": 10150,
      "的一年": 10151,
      "當然是": 10152,
      "告訴我們": 10153,
      "社會的": 10154,
      "你不必": 10155,
      "2007年": 10156,
      "得很厲害": 10157,
      "或者是": 10158,
      "了很多錢": 10159,
      "畢業生": 10160,
      "太陽能": 10161,
      "憂鬱症": 10162,
      "從來沒有": 10163,
      "公交車": 10164,
      "蛋白質": 10165,
      "候選人": 10166,
      "2日": 10167,
      "la": 10168,
      "一夜": 10169,
      "七月": 10170,
      "下週": 10171,
      "不值": 10172,
      "不容易": 10173,
      "不開心": 10174,
      "不適合": 10175,
      "中最": 10176,
      "乾燥": 10177,
      "他就是": 10178,
      "你有什麼": 10179,
      "做愛": 10180,
      "儒家": 10181,
      "全面": 10182,
      "兩點": 10183,
      "八十": 10184,
      "列車": 10185,
      "升級": 10186,
      "南海": 10187,
      "又好": 10188,
      "又有": 10189,
      "史觀": 10190,
      "各個": 10191,
      "商量": 10192,
      "喫午飯喝下午茶": 10193,
      "地點": 10194,
      "場合": 10195,
      "場面": 10196,
      "塑膠": 10197,
      "大小": 10198,
      "定期": 10199,
      "客家": 10200,
      "宣誓": 10201,
      "富有": 10202,
      "寵物": 10203,
      "將被": 10204,
      "對外": 10205,
      "就很": 10206,
      "層樓": 10207,
      "市區": 10208,
      "平臺": 10209,
      "年底": 10210,
      "年度": 10211,
      "幾次": 10212,
      "很忙": 10213,
      "很長": 10214,
      "很聰明": 10215,
      "思維": 10216,
      "想辦法": 10217,
      "意料": 10218,
      "感受到": 10219,
      "我嗎": 10220,
      "我打": 10221,
      "我每天": 10222,
      "我男朋友": 10223,
      "戴上": 10224,
      "扶林": 10225,
      "抽屜": 10226,
      "捕捉": 10227,
      "排骨": 10228,
      "操作": 10229,
      "擴展": 10230,
      "放鬆": 10231,
      "整個人": 10232,
      "是怎麼": 10233,
      "是非常": 10234,
      "朗讀": 10235,
      "東方": 10236,
      "校舍": 10237,
      "檢測": 10238,
      "歌唱": 10239,
      "歲時": 10240,
      "沒法": 10241,
      "沒見過": 10242,
      "沙灘": 10243,
      "泰國": 10244,
      "派對": 10245,
      "深入": 10246,
      "深刻": 10247,
      "深夜": 10248,
      "清水灣": 10249,
      "減肥": 10250,
      "激動": 10251,
      "火鍋": 10252,
      "炒飯": 10253,
      "為你": 10254,
      "無所謂": 10255,
      "熱帶": 10256,
      "狠狠": 10257,
      "用水": 10258,
      "番茄": 10259,
      "畫面": 10260,
      "疫苗": 10261,
      "的情": 10262,
      "的所有": 10263,
      "的消息": 10264,
      "直程": 10265,
      "直至": 10266,
      "相比": 10267,
      "神秘": 10268,
      "科目": 10269,
      "穿過": 10270,
      "站起來": 10271,
      "等了": 10272,
      "筷子": 10273,
      "絕望": 10274,
      "給了我": 10275,
      "美女": 10276,
      "老年": 10277,
      "而在": 10278,
      "胖子": 10279,
      "脖子": 10280,
      "與人": 10281,
      "舞蹈": 10282,
      "萬一": 10283,
      "薄扶林": 10284,
      "藉由": 10285,
      "街對開那個巴士站": 10286,
      "見了": 10287,
      "訊息": 10288,
      "諮詢": 10289,
      "送給": 10290,
      "這類": 10291,
      "這一次": 10292,
      "逛街": 10293,
      "週年": 10294,
      "選區": 10295,
      "部隊": 10296,
      "都知道": 10297,
      "錯的": 10298,
      "開支": 10299,
      "阿嬤": 10300,
      "陷害": 10301,
      "電力": 10302,
      "靈活": 10303,
      "面上": 10304,
      "預計": 10305,
      "首席": 10306,
      "體重": 10307,
      "麥克": 10308,
      "黑暗": 10309,
      "我們發現": 10310,
      "這個世界": 10311,
      "這個項目": 10312,
      "你的手": 10313,
      "191": 10314,
      "時間去": 10315,
      "開始了": 10316,
      "朋友們": 10317,
      "你們兩個": 10318,
      "中國的": 10319,
      "的事實": 10320,
      "one": 10321,
      "參加了": 10322,
      "改變了": 10323,
      "ard": 10324,
      "獲得了": 10325,
      "你想要": 10326,
      "作為一個": 10327,
      "回到家": 10328,
      "有多少人": 10329,
      "ect": 10330,
      "七八糟": 10331,
      "公務員": 10332,
      ".，": 10333,
      "300": 10334,
      "90": 10335,
      "Ph": 10336,
      "Sh": 10337,
      "The": 10338,
      "。「": 10339,
      "一九": 10340,
      "不只是": 10341,
      "中有": 10342,
      "九月": 10343,
      "九點": 10344,
      "人不": 10345,
      "人才": 10346,
      "他打": 10347,
      "住宅": 10348,
      "作弊": 10349,
      "依賴": 10350,
      "停下來": 10351,
      "傲慢": 10352,
      "先進": 10353,
      "全家": 10354,
      "兩種": 10355,
      "分之一": 10356,
      "別這麼": 10357,
      "則是": 10358,
      "即可": 10359,
      "友誼": 10360,
      "取決": 10361,
      "口味": 10362,
      "口語": 10363,
      "合法": 10364,
      "向你": 10365,
      "否認": 10366,
      "命名": 10367,
      "喝茶": 10368,
      "四年": 10369,
      "固執": 10370,
      "團結": 10371,
      "在乎": 10372,
      "在水": 10373,
      "在他的": 10374,
      "地震": 10375,
      "堵塞": 10376,
      "塗鴉": 10377,
      "壞事": 10378,
      "士兵": 10379,
      "多樣": 10380,
      "多利亞": 10381,
      "大戰": 10382,
      "大笑": 10383,
      "好運": 10384,
      "好過": 10385,
      "子女": 10386,
      "存活": 10387,
      "季節": 10388,
      "對抗": 10389,
      "就被": 10390,
      "尿病": 10391,
      "左邊": 10392,
      "帝國": 10393,
      "平安": 10394,
      "年初": 10395,
      "幾年前": 10396,
      "廢話": 10397,
      "彩票": 10398,
      "很高興": 10399,
      "忍不住": 10400,
      "悲傷": 10401,
      "成兩": 10402,
      "我女朋友": 10403,
      "我聽到": 10404,
      "戶外": 10405,
      "所在": 10406,
      "批准": 10407,
      "拼寫": 10408,
      "授權": 10409,
      "提交": 10410,
      "提到": 10411,
      "提升": 10412,
      "搞砸": 10413,
      "教書": 10414,
      "教會": 10415,
      "新村": 10416,
      "是可以": 10417,
      "更新": 10418,
      "書法": 10419,
      "本土": 10420,
      "板上": 10421,
      "業主": 10422,
      "樂器": 10423,
      "正好": 10424,
      "氣的": 10425,
      "沒問題": 10426,
      "河北": 10427,
      "洗衣": 10428,
      "流感": 10429,
      "添加": 10430,
      "無能": 10431,
      "然之後": 10432,
      "爭取": 10433,
      "犧牲": 10434,
      "猶太": 10435,
      "環保": 10436,
      "生涯": 10437,
      "用品": 10438,
      "用手": 10439,
      "的就是": 10440,
      "的第一": 10441,
      "的重要": 10442,
      "的社會": 10443,
      "的國家": 10444,
      "的設計": 10445,
      "的男人": 10446,
      "的名字": 10447,
      "看書": 10448,
      "秘書": 10449,
      "稍微": 10450,
      "種植": 10451,
      "穿得": 10452,
      "節奏": 10453,
      "糖尿病": 10454,
      "缺點": 10455,
      "聯盟": 10456,
      "腫瘤": 10457,
      "舒適": 10458,
      "良好的": 10459,
      "著名的": 10460,
      "街打乒乓球": 10461,
      "街丟了一臺手機": 10462,
      "表明": 10463,
      "要不要": 10464,
      "規矩": 10465,
      "觀念": 10466,
      "評估": 10467,
      "說得": 10468,
      "說謊": 10469,
      "請求": 10470,
      "謠言": 10471,
      "議事": 10472,
      "跟他說": 10473,
      "路是在": 10474,
      "路不見了個錢包": 10475,
      "退出": 10476,
      "透露": 10477,
      "這支": 10478,
      "這筆": 10479,
      "通訊": 10480,
      "遲到了": 10481,
      "遺產": 10482,
      "那位": 10483,
      "都已經": 10484,
      "酒精": 10485,
      "金屬": 10486,
      "開水": 10487,
      "開門": 10488,
      "零售": 10489,
      "零錢": 10490,
      "頻道": 10491,
      "騙子": 10492,
      "高利": 10493,
      "高速": 10494,
      "點子": 10495,
      "一個小時": 10496,
      "他們有": 10497,
      "不是說": 10498,
      "了一點": 10499,
      "這是我": 10500,
      "這是我們": 10501,
      "這是我的": 10502,
      "我想知道": 10503,
      "在這里": 10504,
      "中國人": 10505,
      "還有很多": 10506,
      "當然要": 10507,
      "你不覺得": 10508,
      "2006年": 10509,
      "2009年": 10510,
      "有點兒": 10511,
      "得很快": 10512,
      "不用擔心": 10513,
      "每個人都有": 10514,
      "第二次": 10515,
      "請問你有沒有": 10516,
      "健康的": 10517,
      "那麼多錢": 10518,
      "月22日": 10519,
      "這麼多人": 10520,
      "這麼多年": 10521,
      "出生於": 10522,
      "浪費時間": 10523,
      "1949年": 10524,
      "相同的": 10525,
      "不及格": 10526,
      "荔枝角": 10527,
      "取決於": 10528,
      "請問你有沒有聽過": 10529,
      "For": 10530,
      "St": 10531,
      "mon": 10532,
      "part": 10533,
      "us": 10534,
      "一動": 10535,
      "一台": 10536,
      "上映": 10537,
      "了出來": 10538,
      "他一個人": 10539,
      "他甚至": 10540,
      "代價": 10541,
      "促進": 10542,
      "信念": 10543,
      "做法": 10544,
      "做的事情": 10545,
      "做作業": 10546,
      "傾向": 10547,
      "先後": 10548,
      "公會": 10549,
      "功夫": 10550,
      "區議員": 10551,
      "區議會": 10552,
      "十九": 10553,
      "又不": 10554,
      "及時": 10555,
      "只有一": 10556,
      "含有": 10557,
      "吸收": 10558,
      "和其他": 10559,
      "哪有": 10560,
      "善於": 10561,
      "喝一杯": 10562,
      "單身": 10563,
      "圓柱": 10564,
      "在他們": 10565,
      "在工作": 10566,
      "埃及": 10567,
      "外套": 10568,
      "外表": 10569,
      "夥伴": 10570,
      "大橋": 10571,
      "學期": 10572,
      "宣傳": 10573,
      "對付": 10574,
      "就別": 10575,
      "市長": 10576,
      "帽子": 10577,
      "平台": 10578,
      "形的": 10579,
      "形象": 10580,
      "很明顯": 10581,
      "律賓": 10582,
      "忽視": 10583,
      "性感": 10584,
      "您必須": 10585,
      "想知道": 10586,
      "想不到": 10587,
      "我以前": 10588,
      "戲劇": 10589,
      "戲院": 10590,
      "打個": 10591,
      "按鈕": 10592,
      "挺好的": 10593,
      "擴大": 10594,
      "整理": 10595,
      "文物": 10596,
      "新田": 10597,
      "斷了": 10598,
      "旋轉": 10599,
      "是啦": 10600,
      "更有": 10601,
      "更喜歡": 10602,
      "更大的": 10603,
      "曾在": 10604,
      "會考": 10605,
      "查看": 10606,
      "棒了": 10607,
      "榮譽": 10608,
      "機關": 10609,
      "每晚": 10610,
      "毒品": 10611,
      "比起": 10612,
      "民間": 10613,
      "漁民": 10614,
      "為他": 10615,
      "為我": 10616,
      "無賴": 10617,
      "無限": 10618,
      "猶豫": 10619,
      "玩了": 10620,
      "理想": 10621,
      "生了": 10622,
      "發電": 10623,
      "看着": 10624,
      "眨眼": 10625,
      "硬幣": 10626,
      "種族": 10627,
      "稱之": 10628,
      "競選": 10629,
      "第五": 10630,
      "糖果": 10631,
      "級的": 10632,
      "維多利亞": 10633,
      "羅馬": 10634,
      "職員": 10635,
      "膨脹": 10636,
      "舉例": 10637,
      "良好": 10638,
      "良心": 10639,
      "英尺": 10640,
      "菲律賓": 10641,
      "螺絲": 10642,
      "街買了三磅小商店梨回家": 10643,
      "衡量": 10644,
      "認同": 10645,
      "談到": 10646,
      "豐原": 10647,
      "負擔": 10648,
      "路那裏買點東西": 10649,
      "轉身": 10650,
      "這把": 10651,
      "還會": 10652,
      "都不知道": 10653,
      "金山": 10654,
      "阻止": 10655,
      "露出": 10656,
      "靈魂": 10657,
      "順便": 10658,
      "順序": 10659,
      "預算": 10660,
      "類似的": 10661,
      "騎士": 10662,
      "高層": 10663,
      "髮型": 10664,
      "麵條": 10665,
      "這個女孩": 10666,
      "可以說": 10667,
      "香港政府": 10668,
      "香港電影": 10669,
      "如果有": 10670,
      "所以現在": 10671,
      "怎麼這麼": 10672,
      "但是他": 10673,
      "非常感謝": 10674,
      "問題是": 10675,
      "學生的": 10676,
      "過去的": 10677,
      "ans": 10678,
      "小心點": 10679,
      "麻煩你": 10680,
      "突然間": 10681,
      "聰明的": 10682,
      "188": 10683,
      "創造力": 10684,
      "地球上": 10685,
      "失敗了": 10686,
      "身份證": 10687,
      "千萬別": 10688,
      "長大後": 10689,
      "攝影機": 10690,
      "一口氣": 10691,
      "2000年": 10692,
      "實在是太": 10693,
      "一團糟": 10694,
      "睡著了": 10695,
      "俱樂部": 10696,
      "高利貸": 10697,
      "37": 10698,
      "Com": 10699,
      "ee": 10700,
      "ue": 10701,
      "一時": 10702,
      "三個人": 10703,
      "下水": 10704,
      "不明": 10705,
      "了你的": 10706,
      "事的": 10707,
      "二零": 10708,
      "人來": 10709,
      "人群": 10710,
      "人說": 10711,
      "他因": 10712,
      "他還是": 10713,
      "作物": 10714,
      "你認為": 10715,
      "你就會": 10716,
      "使人": 10717,
      "保存": 10718,
      "偉大": 10719,
      "像這樣": 10720,
      "元素": 10721,
      "匆忙": 10722,
      "協議": 10723,
      "原名": 10724,
      "去醫院": 10725,
      "去哪裏": 10726,
      "參觀": 10727,
      "又一": 10728,
      "吃東西": 10729,
      "嚴肅": 10730,
      "四軸": 10731,
      "國立": 10732,
      "圖案": 10733,
      "在那": 10734,
      "在那個": 10735,
      "在學校": 10736,
      "坪洲": 10737,
      "大海": 10738,
      "大不了": 10739,
      "天下": 10740,
      "天賦": 10741,
      "好消息": 10742,
      "孫子": 10743,
      "學業": 10744,
      "學費": 10745,
      "室內": 10746,
      "家鄉": 10747,
      "就讀": 10748,
      "島的": 10749,
      "嶺南": 10750,
      "嶼山": 10751,
      "已有": 10752,
      "幼稚": 10753,
      "式的": 10754,
      "形狀": 10755,
      "很可愛": 10756,
      "得起": 10757,
      "復活": 10758,
      "我得": 10759,
      "我當然": 10760,
      "我完全": 10761,
      "我明天": 10762,
      "我最近": 10763,
      "手腳": 10764,
      "拯救": 10765,
      "持有": 10766,
      "擊敗": 10767,
      "據說": 10768,
      "支援": 10769,
      "政黨": 10770,
      "日的": 10771,
      "會計": 10772,
      "有機": 10773,
      "枕頭": 10774,
      "案例": 10775,
      "條約": 10776,
      "極端": 10777,
      "機械": 10778,
      "機票": 10779,
      "毆打": 10780,
      "每人": 10781,
      "比亞": 10782,
      "氣氛": 10783,
      "氧化": 10784,
      "永續": 10785,
      "派出": 10786,
      "海洛": 10787,
      "海灘": 10788,
      "港幣": 10789,
      "漸漸": 10790,
      "瀏覽": 10791,
      "無辜": 10792,
      "燃燒": 10793,
      "獎勵": 10794,
      "班牙": 10795,
      "界的": 10796,
      "病了": 10797,
      "發燒": 10798,
      "的衣服": 10799,
      "監視": 10800,
      "眼神": 10801,
      "種類": 10802,
      "稱呼": 10803,
      "笑得": 10804,
      "精彩": 10805,
      "細菌": 10806,
      "繪畫": 10807,
      "置信": 10808,
      "老實": 10809,
      "胳膊": 10810,
      "自治": 10811,
      "致命": 10812,
      "芝士": 10813,
      "落在": 10814,
      "著他": 10815,
      "著作": 10816,
      "藝人": 10817,
      "街坊": 10818,
      "街參加緩步跑練習": 10819,
      "西班牙": 10820,
      "覆蓋": 10821,
      "詞彙": 10822,
      "語的": 10823,
      "談戀愛": 10824,
      "財經": 10825,
      "貪婪": 10826,
      "走進": 10827,
      "這點": 10828,
      "這讓我": 10829,
      "遊行": 10830,
      "還算": 10831,
      "那你就": 10832,
      "醬油": 10833,
      "錢的": 10834,
      "鑽石": 10835,
      "阿中": 10836,
      "雞翅": 10837,
      "雞肉": 10838,
      "鞍山": 10839,
      "飯菜": 10840,
      "香腸": 10841,
      "驕傲": 10842,
      "黎明": 10843,
      "我們開始": 10844,
      "他們已經": 10845,
      "就是要": 10846,
      "就是那個": 10847,
      "知道如何": 10848,
      "我的工作": 10849,
      "自己做": 10850,
      "怎麼行": 10851,
      "需要的": 10852,
      "這是個": 10853,
      "孩子的": 10854,
      "大家的": 10855,
      "是一場": 10856,
      "給我打電話": 10857,
      "你不應該": 10858,
      "電視節目": 10859,
      "進行了": 10860,
      "選擇了": 10861,
      "出去了": 10862,
      "10日": 10863,
      "特別是": 10864,
      "我很喜歡": 10865,
      "方面的": 10866,
      "月21日": 10867,
      "負責人": 10868,
      "另外一個": 10869,
      "休息一下": 10870,
      "千萬不要": 10871,
      "國民黨": 10872,
      "難以置信": 10873,
      "豐富的": 10874,
      "手提包": 10875,
      "西灣河": 10876,
      "互聯網": 10877,
      "麥當勞": 10878,
      "多不多人": 10879,
      "21": 10880,
      "Mar": 10881,
      "SA": 10882,
      "You": 10883,
      "ce": 10884,
      "ew": 10885,
      "po": 10886,
      "ut": 10887,
      "一同": 10888,
      "一度": 10889,
      "一本": 10890,
      "一小時": 10891,
      "三次": 10892,
      "上門": 10893,
      "不算": 10894,
      "世上": 10895,
      "中秋": 10896,
      "了起來": 10897,
      "二千": 10898,
      "交所": 10899,
      "亦是": 10900,
      "人嗎": 10901,
      "人手": 10902,
      "他可以": 10903,
      "他就會": 10904,
      "付款": 10905,
      "你將": 10906,
      "你拿": 10907,
      "你真是": 10908,
      "來吧": 10909,
      "做一些": 10910,
      "入境": 10911,
      "全是": 10912,
      "八達": 10913,
      "八點": 10914,
      "典禮": 10915,
      "再度": 10916,
      "冒險": 10917,
      "冷的": 10918,
      "加州": 10919,
      "勇敢": 10920,
      "動手": 10921,
      "勢力": 10922,
      "又不是": 10923,
      "反映": 10924,
      "古董": 10925,
      "吃得": 10926,
      "名詞": 10927,
      "呼籲": 10928,
      "和人": 10929,
      "喫東西": 10930,
      "地城": 10931,
      "地面": 10932,
      "培訓": 10933,
      "堅決": 10934,
      "報警": 10935,
      "大膽": 10936,
      "姑姑": 10937,
      "孩童": 10938,
      "學科": 10939,
      "定了": 10940,
      "審查": 10941,
      "寫的": 10942,
      "小型": 10943,
      "就這麼": 10944,
      "就不要": 10945,
      "巴西": 10946,
      "帶來的": 10947,
      "常見": 10948,
      "常見的": 10949,
      "平常": 10950,
      "幾十": 10951,
      "彷彿": 10952,
      "忽然": 10953,
      "恭喜": 10954,
      "想念": 10955,
      "應付": 10956,
      "我告訴": 10957,
      "房租": 10958,
      "所欲": 10959,
      "手段": 10960,
      "才華": 10961,
      "投機": 10962,
      "接收": 10963,
      "損害": 10964,
      "摧毀": 10965,
      "撒謊": 10966,
      "放入": 10967,
      "教訓": 10968,
      "文明": 10969,
      "於是我": 10970,
      "早晨": 10971,
      "是對": 10972,
      "是沒有": 10973,
      "晉升": 10974,
      "未經": 10975,
      "未來的": 10976,
      "東南": 10977,
      "條例": 10978,
      "樂觀": 10979,
      "檔案": 10980,
      "污染": 10981,
      "沒必要": 10982,
      "滋病": 10983,
      "灣泳灘": 10984,
      "火了": 10985,
      "火腿": 10986,
      "為我們": 10987,
      "爾頓": 10988,
      "現任": 10989,
      "球賽": 10990,
      "異常": 10991,
      "發覺": 10992,
      "的意思": 10993,
      "的土地": 10994,
      "監控": 10995,
      "看出": 10996,
      "看不見": 10997,
      "祕書": 10998,
      "等一下": 10999,
      "簽名": 11000,
      "線的": 11001,
      "聲援": 11002,
      "背著": 11003,
      "脫離": 11004,
      "臉色": 11005,
      "自身": 11006,
      "花樣": 11007,
      "街等小巴": 11008,
      "街看到有雞蛋格子餅賣": 11009,
      "表格": 11010,
      "襪子": 11011,
      "西北": 11012,
      "觸摸": 11013,
      "誠實": 11014,
      "誰知道": 11015,
      "警長": 11016,
      "質疑": 11017,
      "贊成": 11018,
      "走上": 11019,
      "走向": 11020,
      "路打乒乓球": 11021,
      "踢球": 11022,
      "車的": 11023,
      "軟件": 11024,
      "迷路": 11025,
      "這不": 11026,
      "這邊": 11027,
      "這輛車": 11028,
      "遠的": 11029,
      "還可以": 11030,
      "開幕": 11031,
      "頁面": 11032,
      "領取": 11033,
      "題目": 11034,
      "顧問": 11035,
      "香蕉": 11036,
      "馬克": 11037,
      "馬鞍山": 11038,
      "騎自行車": 11039,
      "黑人": 11040,
      "我們正在": 11041,
      "就是其實": 11042,
      "我的腳": 11043,
      "所以就": 11044,
      "不要吃": 11045,
      "的人生": 11046,
      "不知道爲什麼": 11047,
      "那麼好": 11048,
      "所有這些": 11049,
      "中國人民": 11050,
      "2013年": 11051,
      "發生性關係": 11052,
      "有人在": 11053,
      "她的丈夫": 11054,
      "2008年": 11055,
      "有什麼事": 11056,
      "有什麼好": 11057,
      "成為一名": 11058,
      "你說的": 11059,
      "設計的": 11060,
      "遊戲室": 11061,
      "特別的": 11062,
      "考試中": 11063,
      "支持者": 11064,
      "1997年": 11065,
      "人類的": 11066,
      "十年代": 11067,
      "這就是為什麼": 11068,
      "房間裡": 11069,
      "還不夠": 11070,
      "投資者": 11071,
      "產生的": 11072,
      "月15日": 11073,
      "時代的": 11074,
      "沒去過": 11075,
      "消失了": 11076,
      "博士學位": 11077,
      "天后廟": 11078,
      "葡萄牙": 11079,
      "嫌疑人": 11080,
      "明天是假期": 11081,
      "28": 11082,
      "Jo": 11083,
      "af": 11084,
      "「」": 11085,
      "七點": 11086,
      "上下": 11087,
      "下跌": 11088,
      "不休": 11089,
      "不堪": 11090,
      "不止": 11091,
      "不肯": 11092,
      "不認識": 11093,
      "丟臉": 11094,
      "也不能": 11095,
      "亂七八糟": 11096,
      "了許多": 11097,
      "二手": 11098,
      "他呢": 11099,
      "他非常": 11100,
      "代替": 11101,
      "以免": 11102,
      "以外": 11103,
      "份工作": 11104,
      "但它": 11105,
      "位子": 11106,
      "位的": 11107,
      "佔領": 11108,
      "你可能": 11109,
      "保健": 11110,
      "克蘭": 11111,
      "內褲": 11112,
      "兩位": 11113,
      "再生": 11114,
      "凌晨": 11115,
      "分配": 11116,
      "初選": 11117,
      "到香港": 11118,
      "創建": 11119,
      "勁兒": 11120,
      "千斤": 11121,
      "半天": 11122,
      "卡拉": 11123,
      "卻不": 11124,
      "去找": 11125,
      "口音": 11126,
      "只需要": 11127,
      "右邊": 11128,
      "向他": 11129,
      "呈現": 11130,
      "商標": 11131,
      "啊你": 11132,
      "喪失": 11133,
      "嗯嗯": 11134,
      "嘲笑": 11135,
      "嚴厲": 11136,
      "國會": 11137,
      "國籍": 11138,
      "外甥": 11139,
      "大使": 11140,
      "大清": 11141,
      "天然": 11142,
      "奶油": 11143,
      "她對": 11144,
      "字的": 11145,
      "客廳": 11146,
      "容忍": 11147,
      "小便": 11148,
      "小豬": 11149,
      "就不能": 11150,
      "屍體": 11151,
      "山路": 11152,
      "崩潰": 11153,
      "川普": 11154,
      "巨大": 11155,
      "差別": 11156,
      "巴巴": 11157,
      "巴黎": 11158,
      "年了": 11159,
      "年間": 11160,
      "店鋪": 11161,
      "我給": 11162,
      "我爸爸": 11163,
      "截止": 11164,
      "打得": 11165,
      "排放": 11166,
      "推行": 11167,
      "換成": 11168,
      "搖晃": 11169,
      "整齊": 11170,
      "新娘": 11171,
      "於197": 11172,
      "明朝": 11173,
      "時尚": 11174,
      "景灣": 11175,
      "書中": 11176,
      "東京": 11177,
      "案子": 11178,
      "極其": 11179,
      "樂趣": 11180,
      "樓梯": 11181,
      "模糊": 11182,
      "樹木": 11183,
      "檸檬": 11184,
      "正面": 11185,
      "每月": 11186,
      "沉默": 11187,
      "海默": 11188,
      "港元": 11189,
      "溜溜": 11190,
      "澄清": 11191,
      "為自己": 11192,
      "燃料": 11193,
      "爭吵": 11194,
      "片段": 11195,
      "特色": 11196,
      "珠寶": 11197,
      "用力": 11198,
      "當年": 11199,
      "白費": 11200,
      "的老": 11201,
      "的高": 11202,
      "的信息": 11203,
      "的味道": 11204,
      "的主題": 11205,
      "睡了": 11206,
      "稱爲": 11207,
      "窮人": 11208,
      "管閒": 11209,
      "箱子": 11210,
      "糯米": 11211,
      "結合": 11212,
      "結局": 11213,
      "羽毛": 11214,
      "而非": 11215,
      "肥胖": 11216,
      "致力": 11217,
      "舌頭": 11218,
      "被判": 11219,
      "西半山": 11220,
      "詢問": 11221,
      "說出": 11222,
      "請幫我": 11223,
      "證書": 11224,
      "財富": 11225,
      "貼在": 11226,
      "赤鱲": 11227,
      "走一": 11228,
      "走走": 11229,
      "起訴": 11230,
      "越秀": 11231,
      "趨勢": 11232,
      "路是怎麼去的": 11233,
      "辭典": 11234,
      "這片": 11235,
[...]
